{
  "version": "1.0",
  "truncation": null,
  "padding": null,
  "added_tokens": [
    {
      "id": 0,
      "content": "[PAD]",
      "single_word": false,
      "lstrip": false,
      "rstrip": false,
      "normalized": false,
      "special": true
    },
    {
      "id": 1,
      "content": "[UNK]",
      "single_word": false,
      "lstrip": false,
      "rstrip": false,
      "normalized": false,
      "special": true
    },
    {
      "id": 2,
      "content": "[CLS]",
      "single_word": false,
      "lstrip": false,
      "rstrip": false,
      "normalized": false,
      "special": true
    },
    {
      "id": 3,
      "content": "[SEP]",
      "single_word": false,
      "lstrip": false,
      "rstrip": false,
      "normalized": false,
      "special": true
    }
  ],
  "normalizer": {
    "type": "NFKC"
  },
  "pre_tokenizer": {
    "type": "ByteLevel",
    "add_prefix_space": true,
    "trim_offsets": true,
    "use_regex": true
  },
  "post_processor": {
    "type": "ByteLevel",
    "add_prefix_space": true,
    "trim_offsets": true,
    "use_regex": true
  },
  "decoder": {
    "type": "ByteLevel",
    "add_prefix_space": true,
    "trim_offsets": true,
    "use_regex": true
  },
  "model": {
    "type": "BPE",
    "dropout": null,
    "unk_token": "[UNK]",
    "continuing_subword_prefix": null,
    "end_of_word_suffix": null,
    "fuse_unk": false,
    "byte_fallback": false,
    "ignore_merges": false,
    "vocab": {
      "[PAD]": 0,
      "[UNK]": 1,
      "[CLS]": 2,
      "[SEP]": 3,
      "!": 4,
      "\"": 5,
      "%": 6,
      "&": 7,
      "'": 8,
      "(": 9,
      ")": 10,
      ",": 11,
      "-": 12,
      ".": 13,
      ":": 14,
      ";": 15,
      "?": 16,
      "A": 17,
      "B": 18,
      "C": 19,
      "D": 20,
      "E": 21,
      "F": 22,
      "G": 23,
      "H": 24,
      "I": 25,
      "J": 26,
      "K": 27,
      "L": 28,
      "M": 29,
      "N": 30,
      "O": 31,
      "P": 32,
      "Q": 33,
      "R": 34,
      "S": 35,
      "T": 36,
      "U": 37,
      "V": 38,
      "W": 39,
      "X": 40,
      "Y": 41,
      "Z": 42,
      "a": 43,
      "b": 44,
      "c": 45,
      "d": 46,
      "e": 47,
      "f": 48,
      "g": 49,
      "h": 50,
      "i": 51,
      "j": 52,
      "k": 53,
      "l": 54,
      "m": 55,
      "n": 56,
      "o": 57,
      "p": 58,
      "q": 59,
      "r": 60,
      "s": 61,
      "t": 62,
      "u": 63,
      "v": 64,
      "w": 65,
      "x": 66,
      "y": 67,
      "z": 68,
      "¡": 69,
      "©": 70,
      "«": 71,
      "¯": 72,
      "°": 73,
      "±": 74,
      "³": 75,
      "º": 76,
      "¼": 77,
      "¿": 78,
      "Â": 79,
      "Ã": 80,
      "â": 81,
      "Ġ": 82,
      "ģ": 83,
      "ī": 84,
      "į": 85,
      "İ": 86,
      "ĵ": 87,
      "Ń": 88,
      "Ġd": 89,
      "Ġl": 90,
      "en": 91,
      "Ġs": 92,
      "Ġc": 93,
      "es": 94,
      "Ġa": 95,
      "Ġp": 96,
      "os": 97,
      "er": 98,
      "Ġde": 99,
      "ar": 100,
      "qu": 101,
      "Ġm": 102,
      "as": 103,
      "Ġqu": 104,
      "on": 105,
      "or": 106,
      "Ġt": 107,
      "an": 108,
      "un": 109,
      "Ġque": 110,
      "Ġ-": 111,
      "Ġla": 112,
      "el": 113,
      "Ġy": 114,
      "Ġn": 115,
      "do": 116,
      "ÃŃ": 117,
      "Ġun": 118,
      "ta": 119,
      "Ġh": 120,
      "Ġse": 121,
      "re": 122,
      "Ġes": 123,
      "Ġv": 124,
      "Ã³": 125,
      "Ġen": 126,
      "da": 127,
      "te": 128,
      "ra": 129,
      "in": 130,
      "Ã¡": 131,
      "Ã±": 132,
      "Ã©": 133,
      "ci": 134,
      "Ġel": 135,
      "Ġno": 136,
      "al": 137,
      "ien": 138,
      "om": 139,
      "Ġb": 140,
      "ab": 141,
      "Ġcon": 142,
      "to": 143,
      "Â¡": 144,
      "ch": 145,
      "am": 146,
      "ri": 147,
      "Ġle": 148,
      "Ġsu": 149,
      "Ġf": 150,
      "ÃŃa": 151,
      "Ġal": 152,
      "ĠE": 153,
      "Ġlos": 154,
      "co": 155,
      "Ġlo": 156,
      "Ġg": 157,
      "Â¿": 158,
      "Ġmu": 159,
      "is": 160,
      "Ġuna": 161,
      "le": 162,
      "ĠL": 163,
      "us": 164,
      "ti": 165,
      "ro": 166,
      "Ġme": 167,
      "di": 168,
      "de": 169,
      "la": 170,
      "Ġpar": 171,
      "Ġo": 172,
      "ĠM": 173,
      "Ġcom": 174,
      "Ġpor": 175,
      "Ġha": 176,
      "ĠD": 177,
      "Ã³n": 178,
      "Ġlas": 179,
      "ca": 180,
      "Ġcu": 181,
      "Ġsi": 182,
      "Ã¡s": 183,
      "ier": 184,
      "go": 185,
      "lo": 186,
      "ĠÂ¡": 187,
      "..": 188,
      "Ġdel": 189,
      "em": 190,
      "ĠA": 191,
      "ce": 192,
      "ĠP": 193,
      "Ġest": 194,
      "ita": 195,
      "Ã±a": 196,
      "ero": 197,
      "ando": 198,
      "ue": 199,
      "ol": 200,
      "Ã±or": 201,
      "bre": 202,
      "ĠEl": 203,
      "ĠseÃ±or": 204,
      "ba": 205,
      "Ġto": 206,
      "Ġdi": 207,
      "Ġpo": 208,
      "ad": 209,
      "ĠR": 210,
      "ĠC": 211,
      "Ġ-Â¡": 212,
      "Ġcomo": 213,
      "ada": 214,
      "Ġdes": 215,
      "ĠS": 216,
      "Ġpara": 217,
      "vi": 218,
      "Ġmi": 219,
      "Ãº": 220,
      "ted": 221,
      "res": 222,
      "Ġya": 223,
      "ĠÂ¿": 224,
      "Ġre": 225,
      "Ġus": 226,
      "Ġ-Â¿": 227,
      "ĠLa": 228,
      "gu": 229,
      "era": 230,
      "oÃ±a": 231,
      "cu": 232,
      "Ġusted": 233,
      "ĠmÃ¡s": 234,
      "ente": 235,
      "il": 236,
      "Ġhab": 237,
      "jo": 238,
      "ĠMar": 239,
      "emp": 240,
      "im": 241,
      "Ġdon": 242,
      "ado": 243,
      "No": 244,
      "Ġcas": 245,
      "tr": 246,
      "dad": 247,
      "iene": 248,
      "ent": 249,
      "uÃ©": 250,
      "Ġvi": 251,
      "Ġve": 252,
      "Ġe": 253,
      "dos": 254,
      "ĠV": 255,
      "Ġni": 256,
      "se": 257,
      "Ġver": 258,
      "Ġso": 259,
      "ĠestÃ¡": 260,
      "...": 261,
      "cho": 262,
      "bi": 263,
      "ja": 264,
      "Ġin": 265,
      "za": 266,
      "ga": 267,
      "que": 268,
      "ues": 269,
      "ic": 270,
      "Ġll": 271,
      "Ġpas": 272,
      "osa": 273,
      "Ġmuy": 274,
      "ir": 275,
      "tas": 276,
      "uen": 277,
      "Ġten": 278,
      "ciÃ³n": 279,
      "ul": 280,
      "Ġcal": 281,
      "Ġbien": 282,
      "Ġpoco": 283,
      "io": 284,
      "uel": 285,
      "Ġson": 286,
      "Ġan": 287,
      "cha": 288,
      "ora": 289,
      "Ġser": 290,
      "Ġhom": 291,
      "Ġtiene": 292,
      "ÃŃn": 293,
      "Ã©n": 294,
      "Ġte": 295,
      "tra": 296,
      "pe": 297,
      "ran": 298,
      "tos": 299,
      "cer": 300,
      "Ġyo": 301,
      "ĠJ": 302,
      "Ġlle": 303,
      "Ġtodo": 304,
      "ĠMart": 305,
      "Ġch": 306,
      "Ġcar": 307,
      "Ġman": 308,
      "Ġhi": 309,
      "tes": 310,
      "mo": 311,
      "Ġ\"": 312,
      "Ġca": 313,
      "aba": 314,
      "Ġsin": 315,
      "ia": 316,
      "tor": 317,
      "Ġco": 318,
      "tu": 319,
      "cia": 320,
      "ĠDon": 321,
      "pa": 322,
      "tar": 323,
      "Ġva": 324,
      "Ã¡n": 325,
      "Ġpa": 326,
      "jer": 327,
      "Ġpare": 328,
      "SÃŃ": 329,
      "uer": 330,
      "ces": 331,
      "Ġcam": 332,
      "enta": 333,
      "Ġper": 334,
      "tan": 335,
      "Ġpero": 336,
      "Ġhombre": 337,
      "Ġtra": 338,
      "ino": 339,
      "Ġam": 340,
      "ĠdoÃ±a": 341,
      "Ġmal": 342,
      "sa": 343,
      "ve": 344,
      "lar": 345,
      "Ġnada": 346,
      "Ġsal": 347,
      "abe": 348,
      "ĠDoÃ±a": 349,
      "ana": 350,
      "Ġquier": 351,
      "ĠMartÃŃn": 352,
      "ido": 353,
      "ter": 354,
      "ĠT": 355,
      "Ġhay": 356,
      "Ġdos": 357,
      "Ġr": 358,
      "Ġesta": 359,
      "gun": 360,
      "QuÃ©": 361,
      "ĠF": 362,
      "Ã±os": 363,
      "Ġllam": 364,
      "tre": 365,
      "ĠquÃ©": 366,
      "Ġmujer": 367,
      "tro": 368,
      "Ġj": 369,
      "Ġti": 370,
      "Ġpue": 371,
      "ur": 372,
      "Ãºn": 373,
      "jos": 374,
      "Ġar": 375,
      "ĠEs": 376,
      "das": 377,
      "Ġpen": 378,
      "Ġmar": 379,
      "ones": 380,
      "cio": 381,
      "Ġsus": 382,
      "ma": 383,
      "va": 384,
      "Ġac": 385,
      "Ġpi": 386,
      "ĠY": 387,
      "Ġas": 388,
      "ĠRo": 389,
      "Ġma": 390,
      "Ġpe": 391,
      "ĠEn": 392,
      "ĠseÃ±orita": 393,
      "Ã±o": 394,
      "Ġi": 395,
      "Ġbuen": 396,
      "Ġcuando": 397,
      "Ġmis": 398,
      "Ġvo": 399,
      "Es": 400,
      "Ġah": 401,
      "fÃ©": 402,
      "me": 403,
      "Ġalgo": 404,
      "ica": 405,
      "Ġsobre": 406,
      "ito": 407,
      "Ġaqu": 408,
      "Ġpre": 409,
      "gar": 410,
      "mente": 411,
      "ina": 412,
      "ios": 413,
      "Ġcos": 414,
      "Ġhas": 415,
      "imp": 416,
      "um": 417,
      "uÃ©s": 418,
      "Ġtam": 419,
      "adre": 420,
      "puÃ©s": 421,
      "ese": 422,
      "Ġap": 423,
      "Ġpro": 424,
      "Ġvuel": 425,
      "empre": 426,
      "Ġab": 427,
      "rÃŃ": 428,
      "vo": 429,
      "Ġparece": 430,
      "car": 431,
      "ras": 432,
      "ĠÃ©": 433,
      "iera": 434,
      "ĠAl": 435,
      "Pues": 436,
      "Ġsiempre": 437,
      "ĠRosa": 438,
      "biÃ©n": 439,
      "las": 440,
      "Ġhacer": 441,
      "Ġcalle": 442,
      "Ġmej": 443,
      "los": 444,
      "mos": 445,
      "Ġhace": 446,
      "ber": 447,
      "Ġcre": 448,
      "Ġcasa": 449,
      "Ġven": 450,
      "rita": 451,
      "ĠG": 452,
      "Ġera": 453,
      "Ġda": 454,
      "Ġba": 455,
      "che": 456,
      "Ġmira": 457,
      "Ġpens": 458,
      "idad": 459,
      "ura": 460,
      "ara": 461,
      "Ġhe": 462,
      "til": 463,
      "Ġcasi": 464,
      "Ġcomp": 465,
      "ĠO": 466,
      "Ġmes": 467,
      "Ġmejor": 468,
      "ig": 469,
      "ĠdÃŃa": 470,
      "Ġtan": 471,
      "Ġmucho": 472,
      "ĠCa": 473,
      "Ġhasta": 474,
      "cÃŃa": 475,
      "po": 476,
      "ĠH": 477,
      "zo": 478,
      "ĠaÃ±os": 479,
      "Ġunos": 480,
      "Ġimp": 481,
      "dar": 482,
      "Ġesp": 483,
      "Ġcin": 484,
      "elo": 485,
      "Ġeso": 486,
      "ĠElvi": 487,
      "ĠSe": 488,
      "ico": 489,
      "les": 490,
      "ĠB": 491,
      "anta": 492,
      "Ġgu": 493,
      "ĠLe": 494,
      "be": 495,
      "bra": 496,
      "tÃ³": 497,
      "ĠN": 498,
      "oso": 499,
      "amos": 500,
      "Ġex": 501,
      "ĠtambiÃ©n": 502,
      "iente": 503,
      "cen": 504,
      "lan": 505,
      "ista": 506,
      "ĠhabÃŃa": 507,
      "Ġdonde": 508,
      "iÃ³": 509,
      "Ġemp": 510,
      "ona": 511,
      "Ġtu": 512,
      "ay": 513,
      "ye": 514,
      "Ġsa": 515,
      "Ġpr": 516,
      "ĠmÃŃ": 517,
      "ante": 518,
      "Ġnovi": 519,
      "Ġmucha": 520,
      "Ġtodos": 521,
      "tras": 522,
      "Un": 523,
      "ten": 524,
      "enos": 525,
      "Ġcor": 526,
      "ÃŃas": 527,
      "Ġbo": 528,
      "Ġgus": 529,
      "cias": 530,
      "Si": 531,
      "Ġres": 532,
      "Ġpon": 533,
      "iendo": 534,
      "ez": 535,
      "Ġra": 536,
      "Ġcosas": 537,
      "ĠCafÃ©": 538,
      "dor": 539,
      "Ġdeci": 540,
      "arse": 541,
      "ĠtÃº": 542,
      "Ġalgun": 543,
      "ĠseÃ±ora": 544,
      "iz": 545,
      "igo": 546,
      "ub": 547,
      "Ġdis": 548,
      "Ġsab": 549,
      "Ġesc": 550,
      "Ġesto": 551,
      "ida": 552,
      "ven": 553,
      "ena": 554,
      "Ġcabe": 555,
      "Ġquer": 556,
      "Ġna": 557,
      "diÃ³": 558,
      "ib": 559,
      "erm": 560,
      "Ġestaba": 561,
      "ver": 562,
      "ĠsÃŃ": 563,
      "ablo": 564,
      "Ġmedi": 565,
      "ĠVic": 566,
      "Buen": 567,
      "âİ": 568,
      "ĠI": 569,
      "Ġor": 570,
      "Ġâİ": 571,
      "rim": 572,
      "Ġojos": 573,
      "ĠJul": 574,
      "Ġâİ¯": 575,
      "der": 576,
      "je": 577,
      "Ġro": 578,
      "Ġdu": 579,
      "ados": 580,
      "ĠCel": 581,
      "torita": 582,
      "Ġtiemp": 583,
      "ĠVictorita": 584,
      "gÃºn": 585,
      "no": 586,
      "Ġcol": 587,
      "ĠPa": 588,
      "tante": 589,
      "Ġvoz": 590,
      "des": 591,
      "Ġbar": 592,
      "ĠMa": 593,
      "ĠElvira": 594,
      "gra": 595,
      "oy": 596,
      "rar": 597,
      "ĠPablo": 598,
      "ĠaquÃŃ": 599,
      "ire": 600,
      "Ġmadre": 601,
      "ĠdespuÃ©s": 602,
      "tros": 603,
      "Ġmano": 604,
      "pi": 605,
      "so": 606,
      "Ġdej": 607,
      "Ġtar": 608,
      "Ġfue": 609,
      "ĠLos": 610,
      "emos": 611,
      "Ġtoda": 612,
      "ĠRober": 613,
      "Ġguar": 614,
      "Ġcabeza": 615,
      "ĠRoberto": 616,
      "isi": 617,
      "ĠNo": 618,
      "Ġpese": 619,
      "Ġvol": 620,
      "Ġgra": 621,
      "bajo": 622,
      "Ġveces": 623,
      "Ġdecir": 624,
      "ĠLo": 625,
      "Ġotro": 626,
      "Ġtengo": 627,
      "Ġcog": 628,
      "Bueno": 629,
      "\",": 630,
      "eg": 631,
      "Ġsabe": 632,
      "ere": 633,
      "ĠDios": 634,
      "ĠPe": 635,
      "Ġpuede": 636,
      "tino": 637,
      "uso": 638,
      "Ġvida": 639,
      "Ġverdad": 640,
      "Ġpasa": 641,
      "Ġllev": 642,
      "Ġhija": 643,
      "bres": 644,
      "ru": 645,
      "Ġdar": 646,
      "ĠsÃ©": 647,
      "ano": 648,
      "Ġent": 649,
      "Ġgran": 650,
      "Ġdice": 651,
      "Ġcara": 652,
      "ĠDes": 653,
      "den": 654,
      "rÃ¡": 655,
      "chas": 656,
      "ris": 657,
      "ĠSu": 658,
      "tura": 659,
      "Ġtiempo": 660,
      "Ġmo": 661,
      "Ġtres": 662,
      "Ġotra": 663,
      "Ya": 664,
      "Ġtien": 665,
      "Ġnos": 666,
      "Ġsegu": 667,
      "laro": 668,
      "ĠYo": 669,
      "Ġnovio": 670,
      "Ġlu": 671,
      "Ġpal": 672,
      "Ġmenos": 673,
      "Ġtom": 674,
      "Ġhub": 675,
      "riÃ³": 676,
      "Ġllama": 677,
      "Ġcreo": 678,
      "unca": 679,
      "Ã³mo": 680,
      "Ġestar": 681,
      "undo": 682,
      "Ġfal": 683,
      "Ġporque": 684,
      "Ġmismo": 685,
      "ĠÃ©l": 686,
      "Ġmesa": 687,
      "Ġpesetas": 688,
      "ie": 689,
      "ĠUn": 690,
      "Ġdur": 691,
      "Ġpres": 692,
      "Ġherm": 693,
      "Ġentre": 694,
      "amente": 695,
      "Ġfin": 696,
      "ĠSi": 697,
      "ĠFi": 698,
      "Ġahora": 699,
      "rÃŃa": 700,
      "Ġta": 701,
      "Ã±ana": 702,
      "ales": 703,
      "Ġlev": 704,
      "Ġhijo": 705,
      "dÃ³": 706,
      "urita": 707,
      "Ġagu": 708,
      "Ġpu": 709,
      "Ġpuer": 710,
      "Ġfuer": 711,
      "Ġcuar": 712,
      "ĠRam": 713,
      "Ġrep": 714,
      "Ġech": 715,
      "Ġchica": 716,
      "ĠLeon": 717,
      "con": 718,
      "ren": 719,
      "Ġri": 720,
      "cien": 721,
      "Ġbas": 722,
      "die": 723,
      "adas": 724,
      "ĠVisi": 725,
      "lor": 726,
      "estino": 727,
      "ardo": 728,
      "ÃŃan": 729,
      "Ġuno": 730,
      "Ã©s": 731,
      "Ġbol": 732,
      "Ġvez": 733,
      "Ġins": 734,
      "Ġmuchacha": 735,
      "Ġpuerta": 736,
      "Mu": 737,
      "pl": 738,
      "Ġcer": 739,
      "Ġdem": 740,
      "Ġquien": 741,
      "iensa": 742,
      "entro": 743,
      "ĠniÃ±o": 744,
      "Ġlleva": 745,
      "iÃ³n": 746,
      "Ġ(": 747,
      "Ġsol": 748,
      "Ġaire": 749,
      "ern": 750,
      "qui": 751,
      "Ġlado": 752,
      "Ġcons": 753,
      "Ġvie": 754,
      "ĠJulita": 755,
      "Ay": 756,
      "gan": 757,
      "iga": 758,
      "orm": 759,
      "Ġunas": 760,
      "Ġbes": 761,
      "Ġga": 762,
      "Ġmuer": 763,
      "Ġhabla": 764,
      "ĠtenÃŃa": 765,
      "ĠCelestino": 766,
      "Ġduros": 767,
      "ĠtÃŃ": 768,
      "Ġnunca": 769,
      "rez": 770,
      "ientras": 771,
      "Ġfi": 772,
      "Ġpobre": 773,
      "ĠJos": 774,
      "ĠasÃŃ": 775,
      "Ġcinco": 776,
      "Ġnadie": 777,
      "Ġhubiera": 778,
      "par": 779,
      "Ġcosa": 780,
      "emb": 781,
      "Ġaquel": 782,
      "\".": 783,
      "Qu": 784,
      "du": 785,
      "gado": 786,
      "lla": 787,
      "vÃŃa": 788,
      "eno": 789,
      "aron": 790,
      "Ġvan": 791,
      "Ġenf": 792,
      "ciones": 793,
      "dia": 794,
      "ĠMad": 795,
      "ĠAn": 796,
      "ĠCu": 797,
      "ĠsonrÃŃ": 798,
      "Ġtraba": 799,
      "Oye": 800,
      "cos": 801,
      "gue": 802,
      "Ġcier": 803,
      "Ġmundo": 804,
      "Ġqueda": 805,
      "Ġese": 806,
      "Ġnoche": 807,
      "Ġfu": 808,
      "dico": 809,
      "Ġdesde": 810,
      "Ġvein": 811,
      "Ġcama": 812,
      "Ġquiere": 813,
      "ĠNa": 814,
      "Yo": 815,
      "br": 816,
      "fe": 817,
      "zÃ³n": 818,
      "Ġcan": 819,
      "anas": 820,
      "cis": 821,
      "alqu": 822,
      "iento": 823,
      "Ġestu": 824,
      "Ġdijo": 825,
      "ador": 826,
      "trÃ¡s": 827,
      "Ġamigo": 828,
      "diÃ³s": 829,
      "men": 830,
      "Ġles": 831,
      "tado": 832,
      "illo": 833,
      "ĠcafÃ©": 834,
      "ĠmaÃ±ana": 835,
      "Ġvuelve": 836,
      "ĠFilo": 837,
      "ĠsonrÃŃe": 838,
      "him": 839,
      "Ġer": 840,
      "ela": 841,
      "illa": 842,
      "ĠniÃ±a": 843,
      "Ġantes": 844,
      "ĠRoque": 845,
      "rÃŃo": 846,
      "Ġimpor": 847,
      "brahim": 848,
      "cÃ³": 849,
      "gas": 850,
      "jas": 851,
      "Ġpuso": 852,
      "eros": 853,
      "erÃŃa": 854,
      "rid": 855,
      "Ġfel": 856,
      "ĠPor": 857,
      "viÃ³": 858,
      "ĠMartin": 859,
      "ĠIbrahim": 860,
      "ĠDespuÃ©s": 861,
      "ĠJosÃ©": 862,
      "La": 863,
      "Pero": 864,
      "Que": 865,
      "llo": 866,
      "ya": 867,
      "Ġir": 868,
      "chos": 869,
      "Ġdigo": 870,
      "Ġmir": 871,
      "cuer": 872,
      "dose": 873,
      "Ġanda": 874,
      "Ġvoy": 875,
      "Ġescri": 876,
      "ĠCuando": 877,
      "Me": 878,
      "eb": 879,
      "fi": 880,
      "fon": 881,
      "ĠdÃŃas": 882,
      "dido": 883,
      "Ġquiero": 884,
      "Ġarre": 885,
      "Ġbuena": 886,
      "Ġabri": 887,
      "cas": 888,
      "ros": 889,
      "tin": 890,
      "Ġci": 891,
      "Ġpues": 892,
      "Ġpadre": 893,
      "quÃ©": 894,
      "Ġmientras": 895,
      "ĠalgÃºn": 896,
      "Ġigu": 897,
      "Ġbueno": 898,
      "Ġgracias": 899,
      "Ġbastante": 900,
      "ĠMadrid": 901,
      "El": 902,
      "fa": 903,
      "tel": 904,
      "tÃ¡": 905,
      "Ġjo": 906,
      "Ġlar": 907,
      "ento": 908,
      "Ġcl": 909,
      "Ġclaro": 910,
      "Ġpos": 911,
      "Ġpiensa": 912,
      "Ġtre": 913,
      "anto": 914,
      "Ġgol": 915,
      "dem": 916,
      "cur": 917,
      "entura": 918,
      "ĠahÃŃ": 919,
      "Ġgusta": 920,
      "atro": 921,
      "Ġprim": 922,
      "aban": 923,
      "able": 924,
      "Ġcono": 925,
      "ĠLas": 926,
      "Ġcuenta": 927,
      "Ġcualqu": 928,
      "Ġdio": 929,
      "Ġcamar": 930,
      "Ġiba": 931,
      "ĠPaco": 932,
      "AdiÃ³s": 933,
      "Por": 934,
      "cin": 935,
      "Ġdo": 936,
      "Ġdentro": 937,
      "Ġli": 938,
      "Ġhor": 939,
      "Ġves": 940,
      "Ġvas": 941,
      "ientes": 942,
      "Ġbus": 943,
      "Ġgente": 944,
      "Ã³nde": 945,
      "Ġhablar": 946,
      "ĠVentura": 947,
      "Ġpap": 948,
      "Ġpeque": 949,
      "Ġesper": 950,
      "ĠPepe": 951,
      "Ġluz": 952,
      "bo": 953,
      "iÃ©n": 954,
      "jar": 955,
      "per": 956,
      "Ġcab": 957,
      "Ġhora": 958,
      "ĠfrÃŃo": 959,
      "ĠAs": 960,
      "ill": 961,
      "Ġmarido": 962,
      "Ġlevan": 963,
      "Ġjoven": 964,
      "Lo": 965,
      "ban": 966,
      "ira": 967,
      "enti": 968,
      "Ġcri": 969,
      "esto": 970,
      "Ġacer": 971,
      "ĠaÃºn": 972,
      "Ġpel": 973,
      "Ġmam": 974,
      "asi": 975,
      "Ġpasar": 976,
      "Ġtener": 977,
      "Ġempez": 978,
      "Ġpone": 979,
      "ĠRamÃ³n": 980,
      "cl": 981,
      "na": 982,
      "Ġdue": 983,
      "Ġcora": 984,
      "Ġpol": 985,
      "Ġmom": 986,
      "ondo": 987,
      "Ġnin": 988,
      "Ġnue": 989,
      "Ġnom": 990,
      "tico": 991,
      "ĠDe": 992,
      "Ġsido": 993,
      "ĠPero": 994,
      "itaciÃ³n": 995,
      "Ġtodas": 996,
      "Ġpod": 997,
      "ĠestÃ¡n": 998,
      "Ġpers": 999,
      "osotros": 1000,
      "Ġtarde": 1001,
      "Ġfalta": 1002,
      "En": 1003,
      "Us": 1004,
      "itos": 1005,
      "rente": 1006,
      "uda": 1007,
      "Ġsom": 1008,
      "Ġcada": 1009,
      "onto": 1010,
      "Ġhan": 1011,
      "Ġsea": 1012,
      "Ġvien": 1013,
      "Ġcomer": 1014,
      "Ġsil": 1015,
      "ĠMarco": 1016,
      "trar": 1017,
      "entes": 1018,
      "pez": 1019,
      "Ġquieres": 1020,
      "ĠFran": 1021,
      "Ġpie": 1022,
      "Ġhecho": 1023,
      "poco": 1024,
      "ĠtodavÃŃa": 1025,
      "Ġguardia": 1026,
      "ĠvolviÃ³": 1027,
      "Ġtienen": 1028,
      "-,": 1029,
      "Cu": 1030,
      "can": 1031,
      "ocu": 1032,
      "tera": 1033,
      "ĠcÃ³mo": 1034,
      "Ġpan": 1035,
      "Ġpelo": 1036,
      "Ġtran": 1037,
      "Ġtris": 1038,
      "Ã±as": 1039,
      "omo": 1040,
      "Ġcuer": 1041,
      "Ãºs": 1042,
      "entos": 1043,
      "icos": 1044,
      "Ġmanos": 1045,
      "Ã¡ndose": 1046,
      "ĠperiÃ³": 1047,
      "Ġmarch": 1048,
      "Ġigual": 1049,
      "Usted": 1050,
      "ble": 1051,
      "hora": 1052,
      "nos": 1053,
      "vier": 1054,
      "zar": 1055,
      "Ãī": 1056,
      "ĠsÃ³": 1057,
      "erte": 1058,
      "ĠdecÃŃa": 1059,
      "ÃŃs": 1060,
      "Ġespe": 1061,
      "Ã³pez": 1062,
      "razo": 1063,
      "Ã¡rez": 1064,
      "Ġella": 1065,
      "Ġbe": 1066,
      "Ġconf": 1067,
      "Ġfum": 1068,
      "ĠCon": 1069,
      "ĠSo": 1070,
      "ĠLaurita": 1071,
      "bio": 1072,
      "Ġmalo": 1073,
      "Ġmay": 1074,
      "Ġprin": 1075,
      "Ġboca": 1076,
      "Ġestoy": 1077,
      "Ġmedia": 1078,
      "Ġmedio": 1079,
      "ĠSuÃ¡rez": 1080,
      "Ġgato": 1081,
      "Ġfuera": 1082,
      "cisco": 1083,
      "Ġarreg": 1084,
      "ĠFrancisco": 1085,
      "ĠperiÃ³dico": 1086,
      "!,": 1087,
      "An": 1088,
      "eta": 1089,
      "por": 1090,
      "tando": 1091,
      "Ġlib": 1092,
      "Ġad": 1093,
      "Ġdeja": 1094,
      "Ġdebajo": 1095,
      "Ġne": 1096,
      "Ġnues": 1097,
      "rado": 1098,
      "Ã¡r": 1099,
      "cido": 1100,
      "Ġblan": 1101,
      "Ġsuerte": 1102,
      "Ġfam": 1103,
      "Ġgesto": 1104,
      "tiÃ³": 1105,
      "Ġcuatro": 1106,
      "Ãºl": 1107,
      "Ġviol": 1108,
      "Ġsoy": 1109,
      "Ġinter": 1110,
      "Ġpase": 1111,
      "uelo": 1112,
      "Ġhombres": 1113,
      "Ã¡ndo": 1114,
      "Ġmala": 1115,
      "Ġju": 1116,
      "Ġjue": 1117,
      "ĠYa": 1118,
      "ĠLeoncio": 1119,
      "ĠNati": 1120,
      "demÃ¡s": 1121,
      "Te": 1122,
      "cal": 1123,
      "ĠdÃ©": 1124,
      "Ġdere": 1125,
      "encia": 1126,
      "Ġpla": 1127,
      "Ġmon": 1128,
      "Ġmor": 1129,
      "ane": 1130,
      "Ġviene": 1131,
      "cip": 1132,
      "ciÃ³": 1133,
      "ame": 1134,
      "risa": 1135,
      "Ġreg": 1136,
      "Ġllegar": 1137,
      "paÃ±": 1138,
      "Ġsale": 1139,
      "Ġpreocu": 1140,
      "Ġpensar": 1141,
      "Ġcolor": 1142,
      "Ġbols": 1143,
      ".\"": 1144,
      "don": 1145,
      "mp": 1146,
      "Ġos": 1147,
      "Ġaz": 1148,
      "Ġaun": 1149,
      "Ġacuer": 1150,
      "eras": 1151,
      "ÃŃr": 1152,
      "tad": 1153,
      "Ġvamos": 1154,
      "Ġencu": 1155,
      "Ġencon": 1156,
      "inero": 1157,
      "cion": 1158,
      "oma": 1159,
      "iso": 1160,
      "usa": 1161,
      "cado": 1162,
      "Ġhaber": 1163,
      "ĠJa": 1164,
      "Ġchico": 1165,
      "Ġcari": 1166,
      "Eso": 1167,
      "ĠHay": 1168,
      "Ġalguna": 1169,
      "Ġpalab": 1170,
      "Ġdemasi": 1171,
      "ĠmamÃ¡": 1172,
      "Ġfamil": 1173,
      "Ġdorm": 1174,
      "Ġpes": 1175,
      "Ã¡l": 1176,
      "cima": 1177,
      "Ġsuel": 1178,
      "Ġfo": 1179,
      "Ġmuchas": 1180,
      "ĠLÃ³pez": 1181,
      "Ġol": 1182,
      "ĠMon": 1183,
      "Ġsigue": 1184,
      "Ġmil": 1185,
      "Ġamig": 1186,
      "Ġru": 1187,
      "Ġpitil": 1188,
      "Ġide": 1189,
      "Ġtampoco": 1190,
      "Ġpensando": 1191,
      "tilla": 1192,
      "Ġextra": 1193,
      "aya": 1194,
      "Ġhermana": 1195,
      "Ġeres": 1196,
      "Ġescritor": 1197,
      "Ġcamarero": 1198,
      "ĠcorazÃ³n": 1199,
      "Ġtriste": 1200,
      "ĠsÃ³lo": 1201,
      "Ġmayor": 1202,
      "Ġdemasiado": 1203,
      "cor": 1204,
      "gÃ³": 1205,
      "zas": 1206,
      "ĠÃºl": 1207,
      "Ġmos": 1208,
      "onces": 1209,
      "Ġhar": 1210,
      "Ġseis": 1211,
      "Ġguer": 1212,
      "ĠMe": 1213,
      "Ġdesp": 1214,
      "uele": 1215,
      "Ġje": 1216,
      "ĠCelia": 1217,
      "Ġenfer": 1218,
      "Ġfeliz": 1219,
      "Ġpapel": 1220,
      "ĠÃºlti": 1221,
      "Eh": 1222,
      "Nada": 1223,
      "TÃº": 1224,
      "cto": 1225,
      "ici": 1226,
      "Ġlimp": 1227,
      "Ġcen": 1228,
      "Ġpier": 1229,
      "Ġtemp": 1230,
      "ÃŃdo": 1231,
      "Ġhum": 1232,
      "Ġeste": 1233,
      "Ġvis": 1234,
      "inta": 1235,
      "rito": 1236,
      "Ġfondo": 1237,
      "Ġgas": 1238,
      "ĠSan": 1239,
      "ĠVe": 1240,
      "icar": 1241,
      "Ġllena": 1242,
      "Ġcha": 1243,
      "ĠTiene": 1244,
      "Ġapar": 1245,
      "Ġtanto": 1246,
      "Ġresp": 1247,
      "Ġalgunas": 1248,
      "ĠLeonardo": 1249,
      "Muy": 1250,
      "Ġimporta": 1251,
      "Ġcualquier": 1252,
      "ĠdueÃ±a": 1253,
      "Ġnombre": 1254,
      "Ġsilen": 1255,
      "Ġguerra": 1256,
      "Bien": 1257,
      "ias": 1258,
      "nas": 1259,
      "sos": 1260,
      "ts": 1261,
      "tÃ³n": 1262,
      "Ġim": 1263,
      "ĠÃºn": 1264,
      "Ġdinero": 1265,
      "endo": 1266,
      "Ġsan": 1267,
      "Ġdebe": 1268,
      "ĠdetrÃ¡s": 1269,
      "Ġmer": 1270,
      "onz": 1271,
      "Ġtel": 1272,
      "Ġtras": 1273,
      "ÃŃo": 1274,
      "Ġencima": 1275,
      "alo": 1276,
      "Ġbor": 1277,
      "amÃ¡s": 1278,
      "Ġfa": 1279,
      "Ġall": 1280,
      "Ġgana": 1281,
      "ĠPurita": 1282,
      "Ġmirar": 1283,
      "ĠMarÃŃa": 1284,
      "entas": 1285,
      "ĠsonriÃ³": 1286,
      "ĠTo": 1287,
      "Ġrom": 1288,
      "Ġpueb": 1289,
      "Ġpregun": 1290,
      "Ġpronto": 1291,
      "ible": 1292,
      "Ġagua": 1293,
      "Ġvieja": 1294,
      "Ġveinti": 1295,
      "Ġhoras": 1296,
      "Se": 1297,
      "bor": 1298,
      "cciÃ³n": 1299,
      "fre": 1300,
      "gre": 1301,
      "ola": 1302,
      "oane": 1303,
      "pas": 1304,
      "uj": 1305,
      "Ġdan": 1306,
      "ĠdÃ³nde": 1307,
      "ĠlÃ¡": 1308,
      "Ġsiente": 1309,
      "Ġdeb": 1310,
      "ario": 1311,
      "ĠquedÃ³": 1312,
      "Ġnosotros": 1313,
      "alle": 1314,
      "Ġflor": 1315,
      "tido": 1316,
      "Ġhacia": 1317,
      "Ġestas": 1318,
      "ĠRe": 1319,
      "ĠniÃ±os": 1320,
      "Ġandar": 1321,
      "Ġsereno": 1322,
      "Ġllega": 1323,
      "Ġhijos": 1324,
      "Ġamor": 1325,
      "Ġquieras": 1326,
      "Ġvueltas": 1327,
      "ĠGonz": 1328,
      "ĠSeoane": 1329,
      "Ġgusto": 1330,
      "Ġalgunos": 1331,
      "Ġmomento": 1332,
      "Ġcuerpo": 1333,
      "Ġaunque": 1334,
      "Ġfamilia": 1335,
      "?,": 1336,
      "Con": 1337,
      "cina": 1338,
      "dan": 1339,
      "del": 1340,
      "gos": 1341,
      "rin": 1342,
      "rÃ©": 1343,
      "si": 1344,
      "tri": 1345,
      "trita": 1346,
      "Ġ.": 1347,
      "Ġsenti": 1348,
      "Ġcru": 1349,
      "esta": 1350,
      "Ġpun": 1351,
      "quito": 1352,
      "ĠmÃ©": 1353,
      "Ġtir": 1354,
      "anza": 1355,
      "tal": 1356,
      "Ġesa": 1357,
      "Ã³m": 1358,
      "Ġcontes": 1359,
      "rillo": 1360,
      "dir": 1361,
      "ĠAhora": 1362,
      "Ġreal": 1363,
      "illas": 1364,
      "Ġcaso": 1365,
      "Ġmanera": 1366,
      "ĠjamÃ¡s": 1367,
      "Ġvuelta": 1368,
      "Ġbaja": 1369,
      "Ġmirada": 1370,
      "Ġoro": 1371,
      "ciendo": 1372,
      "ĠdemÃ¡s": 1373,
      "ĠtÃŃo": 1374,
      "Ġveinte": 1375,
      "Ġprincip": 1376,
      "Ġsilencio": 1377,
      "Claro": 1378,
      "Po": 1379,
      "cre": 1380,
      "cino": 1381,
      "ete": 1382,
      "sab": 1383,
      "ud": 1384,
      "Ġatre": 1385,
      "ĠaÃ±o": 1386,
      "erra": 1387,
      "Ġtor": 1388,
      "Ġtemb": 1389,
      "antes": 1390,
      "Ġvino": 1391,
      "Ã©fon": 1392,
      "cios": 1393,
      "Ġnov": 1394,
      "Ġcontra": 1395,
      "Ġfrente": 1396,
      "tia": 1397,
      "tir": 1398,
      "tida": 1399,
      "Ġmeter": 1400,
      "dez": 1401,
      "Ġotros": 1402,
      "ĠPura": 1403,
      "ĠRic": 1404,
      "Ġdesgra": 1405,
      "vir": 1406,
      "biÃ³": 1407,
      "ĠserÃ¡": 1408,
      "rante": 1409,
      "Ġmanda": 1410,
      "ĠsaliÃ³": 1411,
      "Ġllamaba": 1412,
      "Ġmujeres": 1413,
      "Ġpeor": 1414,
      "Ġahor": 1415,
      "ĠÃ©s": 1416,
      "Ġsaca": 1417,
      "Ġponer": 1418,
      "Ġsabes": 1419,
      "ĠJulio": 1420,
      "Ġhermano": 1421,
      "Ġmuerto": 1422,
      "Ġtrabajar": 1423,
      "Ġcierto": 1424,
      "Ġpitillo": 1425,
      "ĠtelÃ©fon": 1426,
      "ĠRicardo": 1427,
      "Hola": 1428,
      "Mira": 1429,
      "mas": 1430,
      "tÃ¡n": 1431,
      "Ġsien": 1432,
      "Ġsent": 1433,
      "Ġau": 1434,
      "eron": 1435,
      "Ġter": 1436,
      "Ġtri": 1437,
      "Ġvar": 1438,
      "Ġencar": 1439,
      "Ġnota": 1440,
      "all": 1441,
      "Ġlee": 1442,
      "Ġley": 1443,
      "Ġleche": 1444,
      "Ġsuelo": 1445,
      "Ġganas": 1446,
      "lado": 1447,
      "Ġcul": 1448,
      "Ġrev": 1449,
      "ĠhabitaciÃ³n": 1450,
      "ime": 1451,
      "Ġincl": 1452,
      "trador": 1453,
      "tum": 1454,
      "Ġcamino": 1455,
      "Ġtrabajo": 1456,
      "Ġestado": 1457,
      "Ġbajo": 1458,
      "Ġcompr": 1459,
      "Ġtuvo": 1460,
      "Ġrato": 1461,
      "Ġduro": 1462,
      "Ġdurante": 1463,
      "ĠMatil": 1464,
      "Ġentien": 1465,
      "Ġgrande": 1466,
      "ĠDesde": 1467,
      "Ġtienes": 1468,
      "Ġfinal": 1469,
      "Ġclientes": 1470,
      "Anda": 1471,
      "Ġlibro": 1472,
      "Ġmostrador": 1473,
      "ĠÃºnico": 1474,
      "ĠtelÃ©fono": 1475,
      "De": 1476,
      "bl": 1477,
      "cti": 1478,
      "ion": 1479,
      "menta": 1480,
      "uta": 1481,
      "Ġsor": 1482,
      "Ġabajo": 1483,
      "quÃŃ": 1484,
      "ĠquiÃ©n": 1485,
      "Ġtaba": 1486,
      "inas": 1487,
      "Ġban": 1488,
      "Ġbrazo": 1489,
      "ambiÃ©n": 1490,
      "Ġgor": 1491,
      "dilla": 1492,
      "Ġcuanto": 1493,
      "ĠestÃ¡s": 1494,
      "uego": 1495,
      "Ġreci": 1496,
      "Ġhabl": 1497,
      "ĠMario": 1498,
      "bios": 1499,
      "Ġllor": 1500,
      "Ġcalor": 1501,
      "ĠserÃŃa": 1502,
      "ĠJes": 1503,
      "Ġsalir": 1504,
      "Ġpuedo": 1505,
      "Ġacos": 1506,
      "Ġacab": 1507,
      "Ġacaba": 1508,
      "ĠGar": 1509,
      "Ġnovia": 1510,
      "Ġtardes": 1511,
      "tural": 1512,
      "ĠUna": 1513,
      "Ġlevanta": 1514,
      "ĠRamona": 1515,
      "ĠmirÃ³": 1516,
      "Ġmirando": 1517,
      "Ġtreinta": 1518,
      "Ã¡ndole": 1519,
      "Ġbolsillo": 1520,
      "Ġdormir": 1521,
      "Ġolvi": 1522,
      "Ġamigos": 1523,
      "ĠVega": 1524,
      "Ġsangre": 1525,
      "Ġincluso": 1526,
      "Ġtabaco": 1527,
      "CÃ³mo": 1528,
      "Vaya": 1529,
      "ag": 1530,
      "bar": 1531,
      "ctor": 1532,
      "dando": 1533,
      "ite": 1534,
      "ulo": 1535,
      "Ġemb": 1536,
      "Ġdom": 1537,
      "Ġdul": 1538,
      "ĠatrÃ¡s": 1539,
      "Ġprisa": 1540,
      "Ġdec": 1541,
      "Ġmere": 1542,
      "ĠmÃºs": 1543,
      "ase": 1544,
      "Ġquin": 1545,
      "ĠtÃŃa": 1546,
      "anos": 1547,
      "una": 1548,
      "Ġneg": 1549,
      "taba": 1550,
      "Ġhon": 1551,
      "Ġenc": 1552,
      "Ã¡le": 1553,
      "cil": 1554,
      "Ġnoch": 1555,
      "ambre": 1556,
      "riba": 1557,
      "Ġaleg": 1558,
      "Ġmuchos": 1559,
      "Ġotras": 1560,
      "Ġpobres": 1561,
      "Ġpoeta": 1562,
      "Ġdesa": 1563,
      "Ġdesn": 1564,
      "gua": 1565,
      "imo": 1566,
      "entra": 1567,
      "Ġsolo": 1568,
      "ĠpasÃ³": 1569,
      "uela": 1570,
      "Ġ\"Â¡": 1571,
      "Ġvaya": 1572,
      "Ġpaz": 1573,
      "Ġpareja": 1574,
      "Ġperm": 1575,
      "Ġamiga": 1576,
      "Ġpueden": 1577,
      "Ġpena": 1578,
      "Ġapoy": 1579,
      "ĠOye": 1580,
      "ĠElvirita": 1581,
      "Ġrespe": 1582,
      "ĠrazÃ³n": 1583,
      "ĠquerÃŃa": 1584,
      "Ġorden": 1585,
      "Ġdejar": 1586,
      "ĠLola": 1587,
      "Ġcoge": 1588,
      "ĠPetrita": 1589,
      "Ġllevaba": 1590,
      "Ġfuerza": 1591,
      "ciencia": 1592,
      "Quier": 1593,
      "ĠningÃºn": 1594,
      "Ġpalabras": 1595,
      "Ġfoto": 1596,
      "ĠMonts": 1597,
      "Ġpiernas": 1598,
      "ĠGonzÃ¡le": 1599,
      "errat": 1600,
      "ĠJesusa": 1601,
      "ĠGarcÃŃa": 1602,
      "Ġnoches": 1603,
      "ĠMontserrat": 1604,
      "ĠGonzÃ¡lez": 1605,
      "Al": 1606,
      "Ha": 1607,
      "Je": 1608,
      "bro": 1609,
      "ece": 1610,
      "pita": 1611,
      "para": 1612,
      "tones": 1613,
      "uy": 1614,
      "vos": 1615,
      "vas": 1616,
      "Ã¼": 1617,
      "Ġsenta": 1618,
      "estre": 1619,
      "Ġay": 1620,
      "Ġagra": 1621,
      "ĠademÃ¡s": 1622,
      "eramente": 1623,
      "tamente": 1624,
      "Ġseas": 1625,
      "Ġvista": 1626,
      "cita": 1627,
      "ale": 1628,
      "ientos": 1629,
      "ombre": 1630,
      "Ġleer": 1631,
      "isiera": 1632,
      "tica": 1633,
      "dil": 1634,
      "Ġocur": 1635,
      "Ġestos": 1636,
      "olla": 1637,
      "ĠseÃ±orito": 1638,
      "Ġdicho": 1639,
      "Ġdiez": 1640,
      "guado": 1641,
      "cuenta": 1642,
      "Ġvecin": 1643,
      "Ġvecino": 1644,
      "segu": 1645,
      "icas": 1646,
      "Ġpasado": 1647,
      "Ġpata": 1648,
      "Ġarriba": 1649,
      "Ġasi": 1650,
      "Ġbuenas": 1651,
      "Ġprof": 1652,
      "ĠOr": 1653,
      "ĠsacÃ³": 1654,
      "ĠmÃŃo": 1655,
      "verdad": 1656,
      "ĠMaestre": 1657,
      "Ġllevar": 1658,
      "Ġcuartos": 1659,
      "ĠlevantÃ³": 1660,
      "Ġderecho": 1661,
      "ĠJaime": 1662,
      "Ġlimpia": 1663,
      "Ġvisto": 1664,
      "Gra": 1665,
      "Le": 1666,
      "dul": 1667,
      "gen": 1668,
      "min": 1669,
      "ula": 1670,
      "udad": 1671,
      "var": 1672,
      "xi": 1673,
      "yo": 1674,
      "zos": 1675,
      "Ġil": 1676,
      "Ġza": 1677,
      "Ġlig": 1678,
      "Ġceb": 1679,
      "Ġaten": 1680,
      "Ġplan": 1681,
      "ques": 1682,
      "ĠmÃŃa": 1683,
      "Ġquiz": 1684,
      "onas": 1685,
      "Ġtal": 1686,
      "Ġtier": 1687,
      "Ġhis": 1688,
      "Ġesca": 1689,
      "Ġenter": 1690,
      "Ã©is": 1691,
      "cida": 1692,
      "ala": 1693,
      "alla": 1694,
      "Ġbr": 1695,
      "Ġbon": 1696,
      "char": 1697,
      "Ġgan": 1698,
      "ĠmuriÃ³": 1699,
      "tio": 1700,
      "Ġparte": 1701,
      "Ġocho": 1702,
      "ĠMor": 1703,
      "cada": 1704,
      "ĠAr": 1705,
      "Ġdicen": 1706,
      "Ġdescu": 1707,
      "Ġlleno": 1708,
      "Ġante": 1709,
      "ĠJu": 1710,
      "Ġchin": 1711,
      "Ġcarta": 1712,
      "Ġcocina": 1713,
      "Ġcambi": 1714,
      "ĠllamÃ³": 1715,
      "Ġmisma": 1716,
      "Ġvend": 1717,
      "Ġvenido": 1718,
      "Ġbaj": 1719,
      "Ġmesas": 1720,
      "Ġgua": 1721,
      "Ġexpl": 1722,
      "Ġemple": 1723,
      "Ġsacar": 1724,
      "Ġsaber": 1725,
      "Ġbarri": 1726,
      "Ġdarle": 1727,
      "Ġtomar": 1728,
      "Ġpudi": 1729,
      "Ġcuarto": 1730,
      "Ġmuerta": 1731,
      "Ġabrir": 1732,
      "Ġcigar": 1733,
      "Ġtremen": 1734,
      "illero": 1735,
      "ĠpolÃŃ": 1736,
      "Ġningun": 1737,
      "Ġvientre": 1738,
      "Ġneces": 1739,
      "Ġazul": 1740,
      "Ġencuentra": 1741,
      "Ġideas": 1742,
      "ĠallÃŃ": 1743,
      "Ġpueblo": 1744,
      "Pobre": 1745,
      "ĠMatilde": 1746,
      "Gracias": 1747,
      "),": 1748,
      "Como": 1749,
      "bles": 1750,
      "fÃŃa": 1751,
      "fica": 1752,
      "ge": 1753,
      "gn": 1754,
      "gÃ¼": 1755,
      "ip": 1756,
      "itan": 1757,
      "idas": 1758,
      "mor": 1759,
      "ois": 1760,
      "uti": 1761,
      "vis": 1762,
      "Ġz": 1763,
      "Ġon": 1764,
      "ĠÃ¡n": 1765,
      "ĠÃī": 1766,
      "Ġdaba": 1767,
      "ener": 1768,
      "quina": 1769,
      "onio": 1770,
      "Ġton": 1771,
      "Ġquedar": 1772,
      "Ġher": 1773,
      "Ġhuele": 1774,
      "Ġsegun": 1775,
      "Ġellos": 1776,
      "Ġconver": 1777,
      "chill": 1778,
      "Ġsube": 1779,
      "Ġgo": 1780,
      "tiz": 1781,
      "ĠmetiÃ³": 1782,
      "dio": 1783,
      "dias": 1784,
      "ĠMi": 1785,
      "Ġhacen": 1786,
      "ĠcuÃ±a": 1787,
      "Ġsiete": 1788,
      "ĠAguado": 1789,
      "oles": 1790,
      "Ġdie": 1791,
      "adamente": 1792,
      "ĠSor": 1793,
      "cul": 1794,
      "illos": 1795,
      "Ġversos": 1796,
      "Ġsonre": 1797,
      "Ġanim": 1798,
      "Ġcapa": 1799,
      "Ġtrata": 1800,
      "Ġpecho": 1801,
      "EstÃ¡": 1802,
      "Ġprocu": 1803,
      "Ġcomprar": 1804,
      "Ġmeses": 1805,
      "ĠHa": 1806,
      "Ġimpres": 1807,
      "Ġexp": 1808,
      "dores": 1809,
      "Ġnatural": 1810,
      "ĠdejÃ³": 1811,
      "Ġsegura": 1812,
      "Ġseguir": 1813,
      "Ġtaxi": 1814,
      "Ġrepente": 1815,
      "Ġbolso": 1816,
      "Ġcerillero": 1817,
      "Ġbestia": 1818,
      "Ġcriada": 1819,
      "Ġacerca": 1820,
      "ĠempezÃ³": 1821,
      "Ġpersona": 1822,
      "ĠOrtiz": 1823,
      "Ġzapa": 1824,
      "Ġcebolla": 1825,
      "!\"": 1826,
      "Hombre": 1827,
      "Vamos": 1828,
      "bas": 1829,
      "din": 1830,
      "edo": 1831,
      "gus": 1832,
      "itas": 1833,
      "ne": 1834,
      "tien": 1835,
      "yÃ³": 1836,
      "Ġcena": 1837,
      "Ġpin": 1838,
      "ĠpÃ¡l": 1839,
      "Ġdedi": 1840,
      "arg": 1841,
      "quita": 1842,
      "Ġmad": 1843,
      "ort": 1844,
      "unciÃ³n": 1845,
      "Ġlav": 1846,
      "ella": 1847,
      "Ġhoy": 1848,
      "Ġentra": 1849,
      "raba": 1850,
      "cito": 1851,
      "Ġeleg": 1852,
      "Ġbri": 1853,
      "Ġsua": 1854,
      "Ġfe": 1855,
      "Ġfues": 1856,
      "Ġgr": 1857,
      "tivo": 1858,
      "Ġmete": 1859,
      "dita": 1860,
      "Ġoye": 1861,
      "ĠhacÃŃa": 1862,
      "Ġcuel": 1863,
      "Ġsir": 1864,
      "Ġsigu": 1865,
      "ieron": 1866,
      "ieran": 1867,
      "eme": 1868,
      "cep": 1869,
      "ĠCar": 1870,
      "ĠSon": 1871,
      "via": 1872,
      "Ġrecuer": 1873,
      "culo": 1874,
      "trÃ³": 1875,
      "Ġvive": 1876,
      "Ġtenido": 1877,
      "Ġhizo": 1878,
      "toria": 1879,
      "tud": 1880,
      "Ġcamis": 1881,
      "tantes": 1882,
      "Ġsalud": 1883,
      "terÃŃa": 1884,
      "Ġhaya": 1885,
      "ĠrÃŃ": 1886,
      "Ġllamar": 1887,
      "Ġpueda": 1888,
      "Ġart": 1889,
      "Ġacor": 1890,
      "Ġpref": 1891,
      "Ġabier": 1892,
      "Ġvenir": 1893,
      "Ġcincuenta": 1894,
      "bedo": 1895,
      "Ġcorr": 1896,
      "Ġcorre": 1897,
      "Ġescal": 1898,
      "Ġduda": 1899,
      "pira": 1900,
      "ĠcogiÃ³": 1901,
      "dÃ³s": 1902,
      "Ġcerca": 1903,
      "Ġfij": 1904,
      "Ġaquella": 1905,
      "Ġtrabaj": 1906,
      "Ġabrigo": 1907,
      "Ġvaso": 1908,
      "Ġpanad": 1909,
      "Ġtranqui": 1910,
      "Ġpreocup": 1911,
      "Ġsuele": 1912,
      "ĠTodo": 1913,
      "ĠmÃ©dico": 1914,
      "ĠSorbedo": 1915,
      "Mam": 1916,
      "Para": 1917,
      "eh": 1918,
      "gel": 1919,
      "lam": 1920,
      "pon": 1921,
      "run": 1922,
      "ves": 1923,
      "vor": 1924,
      "viera": 1925,
      "ĠQu": 1926,
      "Ġluego": 1927,
      "Ġsen": 1928,
      "Ġclas": 1929,
      "esi": 1930,
      "argo": 1931,
      "oro": 1932,
      "orada": 1933,
      "Ġtos": 1934,
      "Ġlabios": 1935,
      "elos": 1936,
      "Ġho": 1937,
      "Ġenten": 1938,
      "Ġentrar": 1939,
      "dado": 1940,
      "Ã¡b": 1941,
      "Ã©j": 1942,
      "Ã©r": 1943,
      "cillo": 1944,
      "Ġlech": 1945,
      "Ġalco": 1946,
      "iste": 1947,
      "isitaciÃ³n": 1948,
      "dida": 1949,
      "diciÃ³n": 1950,
      "laza": 1951,
      "ĠcompaÃ±": 1952,
      "ĠAdemÃ¡s": 1953,
      "ĠPara": 1954,
      "ĠseÃ±ores": 1955,
      "Ġdia": 1956,
      "Ġpoder": 1957,
      "Ġdese": 1958,
      "Ġustedes": 1959,
      "ĠhabrÃ¡": 1960,
      "Ġcasta": 1961,
      "Ġvir": 1962,
      "ĠVisitaciÃ³n": 1963,
      "Ġverla": 1964,
      "Ġsola": 1965,
      "Ġllenos": 1966,
      "Ġtend": 1967,
      "Ġanti": 1968,
      "Ġcaer": 1969,
      "Ġpagar": 1970,
      "saciÃ³n": 1971,
      "ĠTrin": 1972,
      "ĠTesi": 1973,
      "Ġrel": 1974,
      "ĠEstÃ¡": 1975,
      "Ġacom": 1976,
      "Ġpies": 1977,
      "Ġmiser": 1978,
      "ĠAlfre": 1979,
      "Ġmirado": 1980,
      "ĠOb": 1981,
      "Ġbobo": 1982,
      "Ġâİ¯Â¿": 1983,
      "Ġtiempos": 1984,
      "ĠMacar": 1985,
      "grafÃŃa": 1986,
      "Ġfuego": 1987,
      "Ġguarda": 1988,
      "Ġvolver": 1989,
      "Ġcoger": 1990,
      "Ġentonces": 1991,
      "Ġfueron": 1992,
      "Ġcuarenta": 1993,
      "Ġinstante": 1994,
      "Muchas": 1995,
      "Ġviejo": 1996,
      "QuiÃ©n": 1997,
      "ĠAnda": 1998,
      "Ġestudi": 1999,
      "Ġciudad": 2000,
      "Ġpuesto": 2001,
      "Ġgolpe": 2002,
      "Ġcualquiera": 2003,
      "Ġbuscar": 2004,
      "ĠAsunciÃ³n": 2005,
      "Ġcria": 2006,
      "ĠacercÃ³": 2007,
      "Ġnuevo": 2008,
      "Ġsombr": 2009,
      "Ġespejo": 2010,
      "Ġnuestros": 2011,
      "Ġdespre": 2012,
      "Ġimag": 2013,
      "Ġmeren": 2014,
      "Ġfavor": 2015,
      "ĠveintidÃ³s": 2016,
      "Ġdesgraci": 2017,
      "Ġentiende": 2018,
      "Ġhablando": 2019,
      "Ġempleado": 2020,
      "gÃ¼en": 2021,
      "ĠAlfredo": 2022,
      "Des": 2023,
      "DÃ³nde": 2024,
      "Los": 2025,
      "Mire": 2026,
      "Va": 2027,
      "Ver": 2028,
      "Voy": 2029,
      "dente": 2030,
      "fuer": 2031,
      "grim": 2032,
      "idos": 2033,
      "iciÃ³n": 2034,
      "jemp": 2035,
      "lÃ³": 2036,
      "lÃ¡": 2037,
      "miento": 2038,
      "piensa": 2039,
      "rÃ³n": 2040,
      "rÃ¡n": 2041,
      "renta": 2042,
      "tis": 2043,
      "tonces": 2044,
      "uri": 2045,
      "zones": 2046,
      "zuela": 2047,
      "Ġduer": 2048,
      "Ġdiente": 2049,
      "Ġlen": 2050,
      "Ġcanta": 2051,
      "Ġpul": 2052,
      "Ġpanta": 2053,
      "osas": 2054,
      "Ġdeber": 2055,
      "arla": 2056,
      "quil": 2057,
      "Ġquisiera": 2058,
      "Ġtro": 2059,
      "ÃŃda": 2060,
      "tada": 2061,
      "Ġesos": 2062,
      "Ġescu": 2063,
      "Ġencen": 2064,
      "Ġnoti": 2065,
      "Ġbu": 2066,
      "Ġbigo": 2067,
      "Ġconciencia": 2068,
      "Ġalta": 2069,
      "Ġgri": 2070,
      "Ġgentes": 2071,
      "Ġgitan": 2072,
      "ist": 2073,
      "tito": 2074,
      "Ġob": 2075,
      "Ġoj": 2076,
      "ĠMois": 2077,
      "Ġhaga": 2078,
      "Ġcuida": 2079,
      "Ġcuentas": 2080,
      "got": 2081,
      "ĠPar": 2082,
      "Ġestre": 2083,
      "Ġdif": 2084,
      "ĠCas": 2085,
      "vil": 2086,
      "Ãºbl": 2087,
      "guien": 2088,
      "Ġhablan": 2089,
      "Ġviuda": 2090,
      "Ġverde": 2091,
      "queta": 2092,
      "Ġpaso": 2093,
      "Ġpasan": 2094,
      "irula": 2095,
      "Ġtenia": 2096,
      "Ġtenemos": 2097,
      "Ġhij": 2098,
      "paÃ±a": 2099,
      "tario": 2100,
      "Ġperdon": 2101,
      "ĠFern": 2102,
      "Ġjun": 2103,
      "Ġpensa": 2104,
      "Ġmarcha": 2105,
      "Ġmister": 2106,
      "Ġcostum": 2107,
      "Ġapren": 2108,
      "Ġprop": 2109,
      "Ġbachill": 2110,
      "idades": 2111,
      "Ġhecha": 2112,
      "Ġresul": 2113,
      "Ġseguida": 2114,
      "iego": 2115,
      "ĠechÃ³": 2116,
      "plic": 2117,
      "ĠtÃŃs": 2118,
      "Ġcierta": 2119,
      "Ġcans": 2120,
      "Ġimportante": 2121,
      "fonte": 2122,
      "Ġprimer": 2123,
      "Ġconoce": 2124,
      "Ġempezar": 2125,
      "Ġnueve": 2126,
      "Ġpersonas": 2127,
      "Ġblanco": 2128,
      "Ġplaza": 2129,
      "Ġmorir": 2130,
      "Ġpreocupa": 2131,
      "ĠÃºltimo": 2132,
      "SeÃ±or": 2133,
      "ĠÃ©ste": 2134,
      "Ġnegro": 2135,
      "Ġilus": 2136,
      "Ġonce": 2137,
      "Ġseguramente": 2138,
      "Ġgrues": 2139,
      "Ġalcoba": 2140,
      "ĠTesifonte": 2141,
      "ĠMacario": 2142,
      "gÃ¼enza": 2143,
      "ĠMoisÃ©s": 2144,
      "Ġbachiller": 2145,
      "Las": 2146,
      "TambiÃ©n": 2147,
      "bona": 2148,
      "com": 2149,
      "cando": 2150,
      "dro": 2151,
      "fas": 2152,
      "ide": 2153,
      "mado": 2154,
      "mpar": 2155,
      "rera": 2156,
      "tÃŃn": 2157,
      "udo": 2158,
      "ĠÃ": 2159,
      "Ġem": 2160,
      "Ġja": 2161,
      "Ġden": 2162,
      "Ġdando": 2163,
      "ens": 2164,
      "enco": 2165,
      "Ġce": 2166,
      "Ġcla": 2167,
      "Ġclar": 2168,
      "Ġpien": 2169,
      "ervi": 2170,
      "Ġdef": 2171,
      "Ġmel": 2172,
      "Ġqui": 2173,
      "Ġtab": 2174,
      "Ġtern": 2175,
      "unda": 2176,
      "Ġnar": 2177,
      "Ġhones": 2178,
      "Ġhambre": 2179,
      "Ġesquina": 2180,
      "Ġesfuer": 2181,
      "Ġentor": 2182,
      "rada": 2183,
      "cie": 2184,
      "ciente": 2185,
      "Ġbicar": 2186,
      "Ġcontrar": 2187,
      "rios": 2188,
      "rido": 2189,
      "Ġsucia": 2190,
      "Ġsuyo": 2191,
      "Ġflam": 2192,
      "Ġalguien": 2193,
      "Ġmueb": 2194,
      "istas": 2195,
      "lag": 2196,
      "Ġojo": 2197,
      "Ġhaciendo": 2198,
      "Ġcura": 2199,
      "Ġsitio": 2200,
      "ĠPirula": 2201,
      "ĠestÃ©": 2202,
      "Ġpoquito": 2203,
      "adora": 2204,
      "ĠCh": 2205,
      "Ġdescan": 2206,
      "Ġmiedo": 2207,
      "Ġmilag": 2208,
      "resuelo": 2209,
      "Ġrecor": 2210,
      "ĠMarib": 2211,
      "ĠMaruj": 2212,
      "ĠMargot": 2213,
      "imos": 2214,
      "Ġcasada": 2215,
      "Ġvio": 2216,
      "Ġequi": 2217,
      "Ġsobr": 2218,
      "bir": 2219,
      "ices": 2220,
      "Ġtenga": 2221,
      "ulina": 2222,
      "Ġservi": 2223,
      "Ġhombro": 2224,
      "rano": 2225,
      "Ġchi": 2226,
      "Ġcolo": 2227,
      "Ġsalen": 2228,
      "Ġestamos": 2229,
      "Ġllaman": 2230,
      "ĠRobles": 2231,
      "Ġpropi": 2232,
      "ĠÃ©sa": 2233,
      "bertad": 2234,
      "Ġcree": 2235,
      "Ġvenga": 2236,
      "aray": 2237,
      "Ġimprenta": 2238,
      "ĠBar": 2239,
      "ĠBern": 2240,
      "Ġempie": 2241,
      "Ġdistra": 2242,
      "Ġquerer": 2243,
      "ĠIsab": 2244,
      "Ġentresuelo": 2245,
      "Ġpresent": 2246,
      "Ġinstantes": 2247,
      "Ġprimera": 2248,
      "Ġdoce": 2249,
      "ĠpequeÃ±": 2250,
      "ĠAstilla": 2251,
      "Ġlevantar": 2252,
      "Ġmomentos": 2253,
      "ĠpodrÃŃa": 2254,
      "CuÃ¡n": 2255,
      "Ġfumar": 2256,
      "Ġblanca": 2257,
      "Ġviolin": 2258,
      "Ġjuez": 2259,
      "Ġacuerda": 2260,
      "ĠcariÃ±o": 2261,
      "Ġrubio": 2262,
      "Ġenfermo": 2263,
      "Ġhumil": 2264,
      "ĠlÃ¡grim": 2265,
      "Ġsentimenta": 2266,
      "Ġnovela": 2267,
      "Ġencargado": 2268,
      "Ġcomprom": 2269,
      "Ġquince": 2270,
      "Ġencanta": 2271,
      "dillas": 2272,
      "dulio": 2273,
      "ĠArce": 2274,
      "eneral": 2275,
      "Ġhermos": 2276,
      "ĠsonreÃŃr": 2277,
      "Ġcapaz": 2278,
      "Ġlavab": 2279,
      "Ġbril": 2280,
      "Ġprefier": 2281,
      "ĠObdulio": 2282,
      "Ġpantal": 2283,
      "Ġcuidado": 2284,
      "bonato": 2285,
      "Ġbicarbonato": 2286,
      "Ġflamenco": 2287,
      "ĠMaribel": 2288,
      "ĠMarujita": 2289,
      "ĠIsabel": 2290,
      "ĠlÃ¡grimas": 2291,
      "Caray": 2292,
      "Don": 2293,
      "Mi": 2294,
      "bos": 2295,
      "bable": 2296,
      "caba": 2297,
      "dÃ©": 2298,
      "dÃ³n": 2299,
      "efa": 2300,
      "fo": 2301,
      "fic": 2302,
      "iones": 2303,
      "jadas": 2304,
      "migo": 2305,
      "mpl": 2306,
      "pos": 2307,
      "pados": 2308,
      "ror": 2309,
      "sor": 2310,
      "sito": 2311,
      "tz": 2312,
      "trim": 2313,
      "vin": 2314,
      "viendo": 2315,
      "Â°": 2316,
      "ĠU": 2317,
      "ĠQue": 2318,
      "Ġdor": 2319,
      "Ġdol": 2320,
      "Ġloro": 2321,
      "Ġsanto": 2322,
      "Ġcir": 2323,
      "Ġaca": 2324,
      "Ġapa": 2325,
      "Ġpis": 2326,
      "ares": 2327,
      "quier": 2328,
      "onso": 2329,
      "orita": 2330,
      "Ġtim": 2331,
      "tales": 2332,
      "Ġseca": 2333,
      "ĠsegÃºn": 2334,
      "Ġesas": 2335,
      "Ġval": 2336,
      "damos": 2337,
      "ral": 2338,
      "rados": 2339,
      "Ã¡ez": 2340,
      "Ã©rez": 2341,
      "cial": 2342,
      "omb": 2343,
      "Ġbeb": 2344,
      "chero": 2345,
      "Ġsue": 2346,
      "Ġfres": 2347,
      "Ġfil": 2348,
      "Ġfrun": 2349,
      "cog": 2350,
      "Ġgarg": 2351,
      "Ġmue": 2352,
      "ĠLle": 2353,
      "Ġmemor": 2354,
      "ĠDorita": 2355,
      "cados": 2356,
      "Ġsilla": 2357,
      "Ġsimp": 2358,
      "ierra": 2359,
      "ĠPues": 2360,
      "ĠPÃ©rez": 2361,
      "Ġdices": 2362,
      "ĠRÃ³m": 2363,
      "Ġmiran": 2364,
      "Ġretre": 2365,
      "cula": 2366,
      "cular": 2367,
      "Ġhabia": 2368,
      "Ġcasar": 2369,
      "tran": 2370,
      "daderamente": 2371,
      "Ġejemp": 2372,
      "ĠVal": 2373,
      "Ġveremos": 2374,
      "Ġinf": 2375,
      "ulos": 2376,
      "Ġcaliente": 2377,
      "Ġsonrisa": 2378,
      "Ġserio": 2379,
      "Ġcarca": 2380,
      "Ġcapi": 2381,
      "Ġsino": 2382,
      "ĠpaÃ±": 2383,
      "ĠparecÃŃa": 2384,
      "entado": 2385,
      "Ġquiera": 2386,
      "Ġras": 2387,
      "Ġacera": 2388,
      "Ġmatrim": 2389,
      "Este": 2390,
      "Esto": 2391,
      "Ġprobable": 2392,
      "ĠAlonso": 2393,
      "tillas": 2394,
      "Ġcomple": 2395,
      "Ġcine": 2396,
      "ĠSegu": 2397,
      "bed": 2398,
      "Ġmuchacho": 2399,
      "Ġresig": 2400,
      "Ġdistin": 2401,
      "ermin": 2402,
      "Ġorgan": 2403,
      "Ġâİ¯Â¡": 2404,
      "Ġrodillas": 2405,
      "Ġcolillas": 2406,
      "ĠMauri": 2407,
      "Ġguardias": 2408,
      "Ġentera": 2409,
      "ĠFidel": 2410,
      "Ġfuerte": 2411,
      "ciende": 2412,
      "Mucho": 2413,
      "Ġenfrente": 2414,
      "ĠAntes": 2415,
      "fec": 2416,
      "Ġeran": 2417,
      "Ġandaba": 2418,
      "Ġlargo": 2419,
      "Ġlarga": 2420,
      "Ġcliente": 2421,
      "Ġposible": 2422,
      "Ġlibertad": 2423,
      "ĠpapÃ¡": 2424,
      "ĠpequeÃ±o": 2425,
      "ĠpodÃŃa": 2426,
      "ĠmarchÃ³": 2427,
      "ĠdÃ©j": 2428,
      "Ġencontra": 2429,
      "ĠextraÃ±a": 2430,
      "Ġcenar": 2431,
      "Ġtemprano": 2432,
      "Ġ.Â°": 2433,
      "Ġcontesta": 2434,
      "ĠacabÃ³": 2435,
      "Ġembargo": 2436,
      "Ġdulce": 2437,
      "Ġmerece": 2438,
      "Ġdesnuda": 2439,
      "Ġhistoria": 2440,
      "ĠMorrazo": 2441,
      "ĠJuana": 2442,
      "ĠconversaciÃ³n": 2443,
      "ĠcuÃ±ado": 2444,
      "Ġzapatos": 2445,
      "Ġfuese": 2446,
      "Ġrecuerdo": 2447,
      "Ġartista": 2448,
      "Mami": 2449,
      "ĠTrinidad": 2450,
      "Ġsombrero": 2451,
      "Ġempieza": 2452,
      "Ġviolinista": 2453,
      "Ġgarganta": 2454,
      "ĠRÃ³mulo": 2455,
      "ĠcapitÃ¡n": 2456,
      "ĠMauricio": 2457,
      ".)": 2458,
      "Ah": 2459,
      "DÃ©j": 2460,
      "Has": 2461,
      "Hay": 2462,
      "Pa": 2463,
      "Sab": 2464,
      "To": 2465,
      "Ten": 2466,
      "Ven": 2467,
      "ac": 2468,
      "bu": 2469,
      "cel": 2470,
      "cÃ³mo": 2471,
      "dera": 2472,
      "dora": 2473,
      "diendo": 2474,
      "eo": 2475,
      "fle": 2476,
      "gor": 2477,
      "gando": 2478,
      "ior": 2479,
      "jes": 2480,
      "pero": 2481,
      "pir": 2482,
      "sto": 2483,
      "tÃ¡s": 2484,
      "uis": 2485,
      "vent": 2486,
      "Ġw": 2487,
      "Ġdoy": 2488,
      "ĠsÃ¡b": 2489,
      "Ġcrim": 2490,
      "Ġaf": 2491,
      "Ġata": 2492,
      "Ġasegu": 2493,
      "Ġpl": 2494,
      "Ġpri": 2495,
      "ose": 2496,
      "erv": 2497,
      "erro": 2498,
      "erio": 2499,
      "Ġdedos": 2500,
      "arÃŃa": 2501,
      "Ġmen": 2502,
      "ores": 2503,
      "Ġtum": 2504,
      "Ġtonto": 2505,
      "anda": 2506,
      "unta": 2507,
      "ellos": 2508,
      "Ġnervi": 2509,
      "Ġhu": 2510,
      "Ġhemos": 2511,
      "Ġvent": 2512,
      "Ã³ma": 2513,
      "Ġenciende": 2514,
      "Ã±e": 2515,
      "ables": 2516,
      "Ġconven": 2517,
      "Ġconfi": 2518,
      "rir": 2519,
      "Ġletra": 2520,
      "Ġfla": 2521,
      "ĠfrÃŃa": 2522,
      "leg": 2523,
      "tiva": 2524,
      "ticos": 2525,
      "ticas": 2526,
      "dito": 2527,
      "dedor": 2528,
      "Ġparti": 2529,
      "Ġocu": 2530,
      "Ġofre": 2531,
      "ĠMal": 2532,
      "Ġcome": 2533,
      "Ġcomida": 2534,
      "Ġhago": 2535,
      "caciÃ³n": 2536,
      "Ġcumpl": 2537,
      "Ġsiga": 2538,
      "ĠPal": 2539,
      "bado": 2540,
      "ĠCor": 2541,
      "ĠCom": 2542,
      "Ġreun": 2543,
      "Ġreti": 2544,
      "culos": 2545,
      "ilba": 2546,
      "ĠhabÃŃan": 2547,
      "ima": 2548,
      "Ġvivir": 2549,
      "ĠverÃ¡s": 2550,
      "ĠvergÃ¼enza": 2551,
      "Ġsob": 2552,
      "Ġsobra": 2553,
      "bido": 2554,
      "Ġserie": 2555,
      "ĠllegÃ³": 2556,
      "Ġchu": 2557,
      "Ġhijas": 2558,
      "Ġcaje": 2559,
      "ĠsintiÃ³": 2560,
      "turas": 2561,
      "tarÃŃa": 2562,
      "Ġpared": 2563,
      "Ġcambio": 2564,
      "Ġtrae": 2565,
      "Ġamable": 2566,
      "Ġsalido": 2567,
      "ĠTen": 2568,
      "Ġren": 2569,
      "Ġtipo": 2570,
      "Ġtiemb": 2571,
      "Ġarm": 2572,
      "ĠEste": 2573,
      "ĠEsper": 2574,
      "Ġasom": 2575,
      "Esta": 2576,
      "Ġpreci": 2577,
      "Ġprepar": 2578,
      "Ġabs": 2579,
      "ĠAlgun": 2580,
      "Ġpensado": 2581,
      "Ġespal": 2582,
      "ĠBan": 2583,
      "ĠBra": 2584,
      "Ġempa": 2585,
      "tencia": 2586,
      "Ġbotel": 2587,
      "Ġdiscur": 2588,
      "ĠsabÃŃa": 2589,
      "Ġquerida": 2590,
      "Ġorgu": 2591,
      "Ġropa": 2592,
      "ĠPaquito": 2593,
      "ĠPaquita": 2594,
      "ĠPaulina": 2595,
      "Ġdecirle": 2596,
      "ĠPedro": 2597,
      "Ġllevan": 2598,
      "Ġtaza": 2599,
      "Ġpudo": 2600,
      "Ġrepres": 2601,
      "Ġrico": 2602,
      "Ġquienes": 2603,
      "Ġbeso": 2604,
      "Ġaquello": 2605,
      "Ġquedado": 2606,
      "Ġestuvo": 2607,
      "adores": 2608,
      "Ġfelici": 2609,
      "Ġpose": 2610,
      "Ġlitera": 2611,
      "Ġesperar": 2612,
      "Ġcabo": 2613,
      "Ġfaltaba": 2614,
      "Ġsomos": 2615,
      "Ġfumando": 2616,
      "Ġnego": 2617,
      "Ġnuestro": 2618,
      "Ġregal": 2619,
      "Ġregalo": 2620,
      "Ġbolsillos": 2621,
      "Ġtemporada": 2622,
      "Ġsentido": 2623,
      "Ġcruz": 2624,
      "Ġprincipal": 2625,
      "Ġprincipio": 2626,
      "Ġatreve": 2627,
      "Ġtemblor": 2628,
      "Ġvarios": 2629,
      "Ġleyendo": 2630,
      "ĠmÃºsicos": 2631,
      "ĠalegrÃŃa": 2632,
      "Quieres": 2633,
      "AllÃ¡": 2634,
      "Ġocurre": 2635,
      "Ġbroma": 2636,
      "Ġninguna": 2637,
      "Ġazules": 2638,
      "Ġtonta": 2639,
      "Ġprocura": 2640,
      "ĠlecherÃŃa": 2641,
      "ĠcastaÃ±as": 2642,
      "Ġdesgraciado": 2643,
      "Verdaderamente": 2644,
      "Ġduerme": 2645,
      "Ġlengua": 2646,
      "Ġhijita": 2647,
      "Ġmilagro": 2648,
      "Ġequivo": 2649,
      "Ġsentimental": 2650,
      "Ġbrillan": 2651,
      "Ġmemoria": 2652,
      "Ġretrete": 2653,
      "ĠpaÃ±uelo": 2654,
      "Ġmatrimonio": 2655,
      "Ġprobablemente": 2656,
      "Ġcajetilla": 2657,
      "Ġliteratura": 2658,
      "AquÃŃ": 2659,
      "Di": 2660,
      "Nos": 2661,
      "Nunca": 2662,
      "Oiga": 2663,
      "Tiene": 2664,
      "cÃ³n": 2665,
      "cÃŃan": 2666,
      "dÃŃa": 2667,
      "drÃŃ": 2668,
      "dura": 2669,
      "gres": 2670,
      "ila": 2671,
      "lom": 2672,
      "mero": 2673,
      "mientos": 2674,
      "pÃ³": 2675,
      "pues": 2676,
      "rÃ¡s": 2677,
      "rum": 2678,
      "sÃŃ": 2679,
      "sabe": 2680,
      "sche": 2681,
      "vuel": 2682,
      "vamente": 2683,
      "ĠZ": 2684,
      "Ġu": 2685,
      "ĠUsted": 2686,
      "Ġdado": 2687,
      "Ġdarse": 2688,
      "Ġlla": 2689,
      "Ġcem": 2690,
      "esa": 2691,
      "esiÃ³n": 2692,
      "Ġace": 2693,
      "Ġacu": 2694,
      "ard": 2695,
      "Ġmin": 2696,
      "Ġmol": 2697,
      "Ġmona": 2698,
      "Ġquita": 2699,
      "oros": 2700,
      "unto": 2701,
      "Ġquedan": 2702,
      "Ġlata": 2703,
      "ĠnÃº": 2704,
      "Ġhier": 2705,
      "Ġsem": 2706,
      "remos": 2707,
      "Ġvel": 2708,
      "Ġense": 2709,
      "damente": 2710,
      "ines": 2711,
      "inos": 2712,
      "Ã¡tico": 2713,
      "cidas": 2714,
      "ciales": 2715,
      "cieron": 2716,
      "Ġbal": 2717,
      "Ġbomb": 2718,
      "Ġconten": 2719,
      "Ġconmigo": 2720,
      "ritu": 2721,
      "Ġlejos": 2722,
      "Ġsubor": 2723,
      "Ġfar": 2724,
      "Ġfran": 2725,
      "Ġfras": 2726,
      "Ġale": 2727,
      "Ġalto": 2728,
      "Ġalma": 2729,
      "ĠEra": 2730,
      "Ġlocal": 2731,
      "Ġgal": 2732,
      "Ġgru": 2733,
      "dice": 2734,
      "ditos": 2735,
      "demos": 2736,
      "decÃŃa": 2737,
      "ĠoÃŃr": 2738,
      "Ġportal": 2739,
      "ĠDos": 2740,
      "Ġcump": 2741,
      "Ġcurios": 2742,
      "Ġdelica": 2743,
      "Ġestr": 2744,
      "ĠestÃ³ma": 2745,
      "Ġdig": 2746,
      "ĠCi": 2747,
      "ĠCo": 2748,
      "Ġdespa": 2749,
      "Ġdestino": 2750,
      "ĠSÃŃ": 2751,
      "ĠSal": 2752,
      "ĠSierra": 2753,
      "Ãºp": 2754,
      "Ġrem": 2755,
      "guaya": 2756,
      "culas": 2757,
      "enterio": 2758,
      "Ġecha": 2759,
      "Ġedu": 2760,
      "...!": 2761,
      "Ġindi": 2762,
      "Ġinten": 2763,
      "Ġinmen": 2764,
      "Ġcalla": 2765,
      "Ġservir": 2766,
      "Ã©ndose": 2767,
      "Ġchicos": 2768,
      "Ġ\"Â¿": 2769,
      "Ġcaj": 2770,
      "Ġcated": 2771,
      "taron": 2772,
      "tarse": 2773,
      "Ġpaga": 2774,
      "Ġtraer": 2775,
      "Ġmalas": 2776,
      "ĠTambiÃ©n": 2777,
      "ĠEso": 2778,
      "ĠEspaÃ±a": 2779,
      "Ġpide": 2780,
      "ĠRodrÃŃ": 2781,
      "Ġpedir": 2782,
      "EstÃ¡s": 2783,
      "Ġapre": 2784,
      "Ġproble": 2785,
      "Ġprovin": 2786,
      "Ġabur": 2787,
      "ĠabriÃ³": 2788,
      "ĠpensiÃ³n": 2789,
      "Ġcompra": 2790,
      "ĠOiga": 2791,
      "ĠHerm": 2792,
      "Ġcines": 2793,
      "Una": 2794,
      "Ġdiscre": 2795,
      "Ġrode": 2796,
      "Ġbarbar": 2797,
      "Ġpeseta": 2798,
      "ruguaya": 2799,
      "Ġgrandes": 2800,
      "Ġtoma": 2801,
      "ĠtomÃ³": 2802,
      "Ġhubieran": 2803,
      "Ġpuro": 2804,
      "Ġechar": 2805,
      "Ġechador": 2806,
      "Ġrisa": 2807,
      "Ġconsi": 2808,
      "Ġconsigo": 2809,
      "Ġbesa": 2810,
      "duvo": 2811,
      "guez": 2812,
      "alquiera": 2813,
      "ficio": 2814,
      "Ġiguales": 2815,
      "Ġprimero": 2816,
      "Ġdoctor": 2817,
      "Ġcaball": 2818,
      "ĠdueÃ±o": 2819,
      "Ġvienen": 2820,
      "Ġmarchar": 2821,
      "Ãīs": 2822,
      "Ġespejos": 2823,
      "Ġbebe": 2824,
      "ĠSobre": 2825,
      "Ġjugar": 2826,
      "Ġoscu": 2827,
      "Ġacuerdo": 2828,
      "Ġacuerdas": 2829,
      "ĠencontrÃ³": 2830,
      "ĠJavier": 2831,
      "ĠcariÃ±os": 2832,
      "Ġpalabra": 2833,
      "Ġpesar": 2834,
      "Ġamigas": 2835,
      "Ġidea": 2836,
      "Ġharta": 2837,
      "ĠMetro": 2838,
      "Ġenfermos": 2839,
      "Ġrespir": 2840,
      "ĠallÃ¡": 2841,
      "Ġpueblos": 2842,
      "sabes": 2843,
      "Ġsienta": 2844,
      "ĠsentÃ³": 2845,
      "Ġautor": 2846,
      "Ġterc": 2847,
      "Ġcultura": 2848,
      "Ġllorar": 2849,
      "Ġdomin": 2850,
      "ĠmÃºsica": 2851,
      "Ġapoya": 2852,
      "Ġrespeto": 2853,
      "pital": 2854,
      "Ġagrade": 2855,
      "Ġvecinos": 2856,
      "Ġvecindad": 2857,
      "ĠatenciÃ³n": 2858,
      "ĠquizÃ¡": 2859,
      "ĠquizÃ¡s": 2860,
      "Ġbarrio": 2861,
      "Ġcigarrillo": 2862,
      "Ġanimal": 2863,
      "Ġsuave": 2864,
      "Ġsirve": 2865,
      "ĠrÃŃe": 2866,
      "Ġescalera": 2867,
      "Ġtranquila": 2868,
      "Ġclase": 2869,
      "ĠacompaÃ±": 2870,
      "Ġbigote": 2871,
      "ĠFernando": 2872,
      "Ġmisterios": 2873,
      "Ġgruesa": 2874,
      "ĠÃģ": 2875,
      "Ġemo": 2876,
      "ciedad": 2877,
      "Ġmueble": 2878,
      "Ġservicio": 2879,
      "ĠBernardo": 2880,
      "Ġlavabos": 2881,
      "ĠpantalÃ³n": 2882,
      "tzsche": 2883,
      "ĠUruguaya": 2884,
      "Sabes": 2885,
      "ĠsÃ¡banas": 2886,
      "ilbao": 2887,
      "ĠEsperanza": 2888,
      "Ġfelicidad": 2889,
      "Ġcementerio": 2890,
      "Ġsubordin": 2891,
      "Ġcuriosidad": 2892,
      "ĠestÃ³mago": 2893,
      "ĠRodrÃŃguez": 2894,
      "Ġprovincia": 2895,
      ").": 2896,
      "AsÃŃ": 2897,
      "Ch": 2898,
      "Ps": 2899,
      "Pue": 2900,
      "ater": 2901,
      "aje": 2902,
      "cle": 2903,
      "ctu": 2904,
      "ctÃ¡": 2905,
      "como": 2906,
      "fÃ³n": 2907,
      "gada": 2908,
      "gaba": 2909,
      "hona": 2910,
      "icia": 2911,
      "jero": 2912,
      "jera": 2913,
      "mena": 2914,
      "micos": 2915,
      "oco": 2916,
      "pen": 2917,
      "pes": 2918,
      "rÃ³": 2919,
      "tero": 2920,
      "tÃº": 2921,
      "udar": 2922,
      "vera": 2923,
      "vÃ¡ez": 2924,
      "zquier": 2925,
      "Ġido": 2926,
      "Ġdas": 2927,
      "Ġdientes": 2928,
      "ĠlÃŃ": 2929,
      "Ġlentes": 2930,
      "ĠsoÃ±a": 2931,
      "Ġcien": 2932,
      "Ġcris": 2933,
      "esen": 2934,
      "esti": 2935,
      "estra": 2936,
      "Ġag": 2937,
      "Ġaj": 2938,
      "Ġabre": 2939,
      "Ġadem": 2940,
      "Ġpus": 2941,
      "ĠpÃ¡r": 2942,
      "eric": 2943,
      "arvÃ¡ez": 2944,
      "Ġmenti": 2945,
      "asa": 2946,
      "ĠtÃ©": 2947,
      "ĠtrÃ¡": 2948,
      "Ġtren": 2949,
      "Ġtermin": 2950,
      "anes": 2951,
      "Ġquej": 2952,
      "elante": 2953,
      "Ġhel": 2954,
      "reci": 2955,
      "rededor": 2956,
      "Ġesco": 2957,
      "Ġesti": 2958,
      "Ġenga": 2959,
      "Ã±ar": 2960,
      "aldo": 2961,
      "Ġben": 2962,
      "Ġbre": 2963,
      "Ġcontin": 2964,
      "Ġconsegu": 2965,
      "chÃ©": 2966,
      "rig": 2967,
      "rica": 2968,
      "Ġsub": 2969,
      "Ġsuce": 2970,
      "Ġsuje": 2971,
      "Ġalum": 2972,
      "Ġalbor": 2973,
      "ĠEm": 2974,
      "ĠEx": 2975,
      "Ġgalle": 2976,
      "ismo": 2977,
      "lem": 2978,
      "ledad": 2979,
      "ĠLuis": 2980,
      "usti": 2981,
      "tidos": 2982,
      "titud": 2983,
      "Ġolor": 2984,
      "ĠoÃŃdo": 2985,
      "Ġcual": 2986,
      "Ġcuad": 2987,
      "Ġdelante": 2988,
      "ĠAquÃŃ": 2989,
      "ĠPer": 2990,
      "ĠElla": 2991,
      "Ġtoalla": 2992,
      "Ġdias": 2993,
      "Ġdire": 2994,
      "Ġdiver": 2995,
      "Ġdije": 2996,
      "Ġpodido": 2997,
      "ĠRa": 2998,
      "Ġdesay": 2999,
      "Ġdespi": 3000,
      "viese": 3001,
      "Ġrepe": 3002,
      "Ġreme": 3003,
      "Ġrefle": 3004,
      "Ġusur": 3005,
      "ilio": 3006,
      "Ġhabido": 3007,
      "Ġcasas": 3008,
      "ĠvivÃŃa": 3009,
      "Ġvete": 3010,
      "Ġedi": 3011,
      "Ġevi": 3012,
      "Ġejer": 3013,
      "Ġsolem": 3014,
      "bia": 3015,
      "jate": 3016,
      "Ġinvi": 3017,
      "Ġintel": 3018,
      "quete": 3019,
      "uesto": 3020,
      "Ġllen": 3021,
      "Ġpasos": 3022,
      "uena": 3023,
      "Ġcalles": 3024,
      "oraciÃ³n": 3025,
      "Ġtecho": 3026,
      "toso": 3027,
      "Ġchicas": 3028,
      "Ġcaras": 3029,
      "Ġcaridad": 3030,
      "Ġcartera": 3031,
      "Ġcarrera": 3032,
      "Ġcaja": 3033,
      "tarle": 3034,
      "tarÃŃas": 3035,
      "Ġparecen": 3036,
      "Ġperro": 3037,
      "tancia": 3038,
      "ĠtraÃŃdo": 3039,
      "Ġamar": 3040,
      "ĠsalÃ³n": 3041,
      "Ġestaban": 3042,
      "Ġtira": 3043,
      "Ġarte": 3044,
      "Ġarro": 3045,
      "Ġarras": 3046,
      "ĠEsta": 3047,
      "Ġacar": 3048,
      "Ġpiel": 3049,
      "Ġpico": 3050,
      "Ġpiano": 3051,
      "Ġmatar": 3052,
      "Ġpegar": 3053,
      "Ġizquier": 3054,
      "Ġbuenos": 3055,
      "medad": 3056,
      "inaciÃ³n": 3057,
      "Ġapro": 3058,
      "ĠÃ©se": 3059,
      "ĠGran": 3060,
      "Ġpension": 3061,
      "Ġcompas": 3062,
      "Ġcompla": 3063,
      "ĠOsto": 3064,
      "ĠCazuela": 3065,
      "ĠHi": 3066,
      "ĠHoy": 3067,
      "Ġespera": 3068,
      "ĠBien": 3069,
      "ĠBuen": 3070,
      "ĠBilbao": 3071,
      "ĠNi": 3072,
      "ĠNie": 3073,
      "ĠNarvÃ¡ez": 3074,
      "cencia": 3075,
      "Ġtuviera": 3076,
      "Ġboba": 3077,
      "Ġalguno": 3078,
      "Ġdisgus": 3079,
      "venir": 3080,
      "Ġquerido": 3081,
      "Ġcolilla": 3082,
      "Ġcolmena": 3083,
      "ĠMaÃ±ana": 3084,
      "Ġdejas": 3085,
      "ĠNotarÃŃas": 3086,
      "ĠllevÃ³": 3087,
      "Ġhermanos": 3088,
      "Ġtahona": 3089,
      "Ġaguan": 3090,
      "Ġaguanta": 3091,
      "Ġecharse": 3092,
      "Ġecharon": 3093,
      "Ġviejas": 3094,
      "Ġfigu": 3095,
      "ĠMadera": 3096,
      "Ġtrabaja": 3097,
      "fecto": 3098,
      "Ġcamareros": 3099,
      "Ġvestido": 3100,
      "Ġvestida": 3101,
      "ĠpequeÃ±os": 3102,
      "Ġesperanza": 3103,
      "Ġpelu": 3104,
      "Ġcorazones": 3105,
      "Ġsombra": 3106,
      "Ġvienes": 3107,
      "vieron": 3108,
      "Ġconfor": 3109,
      "Ġconform": 3110,
      "ĠSoledad": 3111,
      "Ġarreglo": 3112,
      "Ande": 3113,
      "Ġadm": 3114,
      "ĠviolÃŃn": 3115,
      "Ġpaseando": 3116,
      "Ġjuro": 3117,
      "Ġjuegan": 3118,
      "Ġencuentro": 3119,
      "Ġencontrar": 3120,
      "Ġtristeza": 3121,
      "Ġmayores": 3122,
      "ĠÃºltima": 3123,
      "Ġchaqueta": 3124,
      "Ġrespon": 3125,
      "Ġrespaldo": 3126,
      "Ġpregunta": 3127,
      "Ġdeben": 3128,
      "Ġpunto": 3129,
      "Ġtembl": 3130,
      "Ġdesgracia": 3131,
      "Ġponerse": 3132,
      "Ġaut": 3133,
      "Ġbande": 3134,
      "Ġllorando": 3135,
      "Ġhonrado": 3136,
      "Ġdesapar": 3137,
      "Quiere": 3138,
      "Ġpatadas": 3139,
      "Ġligera": 3140,
      "Ġbonito": 3141,
      "Ġchinos": 3142,
      "Ġguapa": 3143,
      "Ġpudiera": 3144,
      "Ġtremendo": 3145,
      "ĠÃ¡ngel": 3146,
      "ĠHace": 3147,
      "Ġexpres": 3148,
      "Ġmadru": 3149,
      "Ġcuello": 3150,
      "Ġacordar": 3151,
      "Ġabierto": 3152,
      "Ġcorriente": 3153,
      "Ġentender": 3154,
      "Ġmiserable": 3155,
      "Ġcriatura": 3156,
      "Ġcantaba": 3157,
      "Ġnoticia": 3158,
      "ĠdifÃŃ": 3159,
      "Ġperdone": 3160,
      "Ġternura": 3161,
      "Ġcontrario": 3162,
      "Ġpropias": 3163,
      "Ġcompromiso": 3164,
      "Ġprefiere": 3165,
      "Ġdolor": 3166,
      "ĠLleva": 3167,
      "Ġcarcajadas": 3168,
      "Ġresigna": 3169,
      "Ġcrimen": 3170,
      "Ġventana": 3171,
      "ĠTenÃŃa": 3172,
      "Ġtiembla": 3173,
      "ĠBanco": 3174,
      "Ġposeer": 3175,
      "Ġaceite": 3176,
      "Ġestrel": 3177,
      "ĠcajÃ³n": 3178,
      "Ġbarbaridad": 3179,
      "Ġsubordinados": 3180,
      "PschÃ©": 3181,
      "Ġalboro": 3182,
      "Ġremedio": 3183,
      "ĠOstolaza": 3184,
      "ĠNietzsche": 3185,
      "-.": 3186,
      "Ahora": 3187,
      "Calla": 3188,
      "Hoy": 3189,
      "Huy": 3190,
      "Per": 3191,
      "cÃŃ": 3192,
      "dero": 3193,
      "dese": 3194,
      "ea": 3195,
      "eas": 3196,
      "eto": 3197,
      "eza": 3198,
      "etas": 3199,
      "fos": 3200,
      "fer": 3201,
      "fico": 3202,
      "gÃ³n": 3203,
      "gamos": 3204,
      "hi": 3205,
      "ial": 3206,
      "izo": 3207,
      "jan": 3208,
      "lu": 3209,
      "lita": 3210,
      "lica": 3211,
      "nes": 3212,
      "nidad": 3213,
      "pin": 3214,
      "ple": 3215,
      "sas": 3216,
      "sin": 3217,
      "tÃŃ": 3218,
      "tÃŃa": 3219,
      "tiene": 3220,
      "tul": 3221,
      "tina": 3222,
      "tona": 3223,
      "uma": 3224,
      "viene": 3225,
      "vÃŃas": 3226,
      "yas": 3227,
      "Ãĵ": 3228,
      "Ġ,": 3229,
      "Ġ...": 3230,
      "Ġjer": 3231,
      "Ġlenta": 3232,
      "ender": 3233,
      "eneg": 3234,
      "Ġsos": 3235,
      "Ġcel": 3236,
      "Ġatra": 3237,
      "Ġagar": 3238,
      "Ġavis": 3239,
      "ĠpÃ¡": 3240,
      "Ġpur": 3241,
      "ĠpÃºbl": 3242,
      "osos": 3243,
      "erno": 3244,
      "Ġdejo": 3245,
      "aro": 3246,
      "arÃ¡": 3247,
      "arlo": 3248,
      "quer": 3249,
      "quilla": 3250,
      "Ġmas": 3251,
      "Ġmita": 3252,
      "Ġmando": 3253,
      "Ġquiso": 3254,
      "onda": 3255,
      "onca": 3256,
      "Ġtus": 3257,
      "Ġtem": 3258,
      "anero": 3259,
      "andon": 3260,
      "Ġ-\"": 3261,
      "elas": 3262,
      "Ġnu": 3263,
      "Ġnena": 3264,
      "ÃŃdos": 3265,
      "ÃŃjate": 3266,
      "tam": 3267,
      "Ġsepa": 3268,
      "Ġescen": 3269,
      "Ġvues": 3270,
      "Ġviendo": 3271,
      "Ġvale": 3272,
      "Ã³x": 3273,
      "Ġenvi": 3274,
      "Ã±Ã³": 3275,
      "Ã±al": 3276,
      "cier": 3277,
      "ciosa": 3278,
      "ciles": 3279,
      "cientos": 3280,
      "ienta": 3281,
      "Ġbara": 3282,
      "Ġbrillo": 3283,
      "Ġconse": 3284,
      "Ġcontar": 3285,
      "Ġcontri": 3286,
      "chando": 3287,
      "chino": 3288,
      "amiento": 3289,
      "ria": 3290,
      "ritos": 3291,
      "Ġletras": 3292,
      "Ġsuya": 3293,
      "Ġsuplic": 3294,
      "Ġfor": 3295,
      "Ġfre": 3296,
      "ĠfÃ¡": 3297,
      "Ġfino": 3298,
      "Ġalim": 3299,
      "Ġalrededor": 3300,
      "ĠElo": 3301,
      "col": 3302,
      "Ġgem": 3303,
      "Ġgrita": 3304,
      "Ġgris": 3305,
      "Ġmus": 3306,
      "ditas": 3307,
      "Ġocas": 3308,
      "Ġofic": 3309,
      "ĠoÃŃdos": 3310,
      "ĠMan": 3311,
      "ierta": 3312,
      "ierto": 3313,
      "log": 3314,
      "ĠAu": 3315,
      "ĠAy": 3316,
      "ĠPlaza": 3317,
      "ĠestÃŃo": 3318,
      "bata": 3319,
      "Ġtoca": 3320,
      "Ġdiv": 3321,
      "Ġdiciendo": 3322,
      "Ġpodemos": 3323,
      "ĠRu": 3324,
      "ĠRos": 3325,
      "ĠCre": 3326,
      "ĠCada": 3327,
      "Ġdespe": 3328,
      "Ġdescar": 3329,
      "ĠSa": 3330,
      "vidad": 3331,
      "respon": 3332,
      "Ġrecon": 3333,
      "Ġrecado": 3334,
      "Ġrecog": 3335,
      "ildo": 3336,
      "ĠcasÃ³": 3337,
      "ĠVa": 3338,
      "ĠniÃ±as": 3339,
      "Ġverm": 3340,
      "ĠverÃ¡": 3341,
      "Ġverano": 3342,
      "...\"": 3343,
      "Ġino": 3344,
      "Ġinvier": 3345,
      "icÃŃa": 3346,
      "tase": 3347,
      "ull": 3348,
      "Ġsonr": 3349,
      "Ġanun": 3350,
      "Ġseria": 3351,
      "cerÃŃa": 3352,
      "Ġchar": 3353,
      "Ġcae": 3354,
      "Ġcap": 3355,
      "Ġcafe": 3356,
      "Ġcob": 3357,
      "Ġcoin": 3358,
      "Ġcoleg": 3359,
      "tulo": 3360,
      "tuoso": 3361,
      "tarÃ¡": 3362,
      "Ġpago": 3363,
      "Ġpagan": 3364,
      "Ġcampo": 3365,
      "Ġperder": 3366,
      "Ġperdido": 3367,
      "Ġtratar": 3368,
      "Ġameric": 3369,
      "Ġsalga": 3370,
      "Ġquieren": 3371,
      "terÃŃas": 3372,
      "ĠToros": 3373,
      "Ġrosa": 3374,
      "Ġrara": 3375,
      "Ġraro": 3376,
      "ĠFuen": 3377,
      "ĠEstos": 3378,
      "ciocho": 3379,
      "Ġases": 3380,
      "Ġmata": 3381,
      "ĠmaÃ±": 3382,
      "Ġpeda": 3383,
      "ĠEntonces": 3384,
      "Ġaho": 3385,
      "umin": 3386,
      "Ġapu": 3387,
      "Ġprodu": 3388,
      "Ġvuelven": 3389,
      "Ġabandon": 3390,
      "ĠAlfon": 3391,
      "Ġhacerlo": 3392,
      "Ġmejillas": 3393,
      "Ġcrees": 3394,
      "Ġcreer": 3395,
      "Ġvende": 3396,
      "ĠGlor": 3397,
      "ĠGeneral": 3398,
      "Ġbauti": 3399,
      "tillo": 3400,
      "Ġcompren": 3401,
      "igue": 3402,
      "ĠHas": 3403,
      "ĠHab": 3404,
      "Ġimpos": 3405,
      "Ġimper": 3406,
      "Ġesposo": 3407,
      "ĠLeÃ³n": 3408,
      "Ġexig": 3409,
      "Ġsac": 3410,
      "Ġsatis": 3411,
      "ĠprÃ³x": 3412,
      "Ġnovios": 3413,
      "Ġcorta": 3414,
      "Ġcorrespon": 3415,
      "ĠponÃŃa": 3416,
      "Ġsaben": 3417,
      "Ġqueremos": 3418,
      "ĠquerÃŃan": 3419,
      "Buenas": 3420,
      "Ġroto": 3421,
      "Ġrojo": 3422,
      "Ġdudas": 3423,
      "grafa": 3424,
      "Ġdejarse": 3425,
      "Ġvolun": 3426,
      "Ġverdadero": 3427,
      "rÃ¡tico": 3428,
      "Ġmoda": 3429,
      "Ġmozo": 3430,
      "Ġmoder": 3431,
      "ĠseguÃŃa": 3432,
      "Ġpalom": 3433,
      "ieta": 3434,
      "Ġfueran": 3435,
      "Ġrica": 3436,
      "Ġsolos": 3437,
      "Ġsoltera": 3438,
      "Ġconsol": 3439,
      "Ġconsul": 3440,
      "Ġviejos": 3441,
      "ĠbesÃ³": 3442,
      "Ġgafas": 3443,
      "Ġhablado": 3444,
      "ĠtÃŃm": 3445,
      "ĠJosefa": 3446,
      "Ġaquellas": 3447,
      "fecti": 3448,
      "cisÃ©is": 3449,
      "mento": 3450,
      "Ġfelices": 3451,
      "Ġescribir": 3452,
      "Ġgolfa": 3453,
      "Ġgolpes": 3454,
      "cinas": 3455,
      "Ġdocen": 3456,
      "Ġhorror": 3457,
      "Ġbusca": 3458,
      "Ġesperando": 3459,
      "ĠpelÃŃ": 3460,
      "ĠpodrÃ¡": 3461,
      "Entonces": 3462,
      "Ġpied": 3463,
      "Ġtranquil": 3464,
      "ĠtranvÃŃas": 3465,
      "ĠConsor": 3466,
      "ĠSocor": 3467,
      "Ġarregla": 3468,
      "Ġarreglar": 3469,
      "Ġlibros": 3470,
      "Ġadqui": 3471,
      "Ã¡rb": 3472,
      "Ġderecha": 3473,
      "cionales": 3474,
      "Ġsuelen": 3475,
      "ĠMontes": 3476,
      "ĠextraÃ±as": 3477,
      "Ġjefe": 3478,
      "Ġenfermedad": 3479,
      "Ġborra": 3480,
      "Ġrompe": 3481,
      "ĠdebÃŃa": 3482,
      "Ġrealmente": 3483,
      "Ġrealidad": 3484,
      "tirse": 3485,
      "Ġmeterse": 3486,
      "Ġsienes": 3487,
      "ĠcomprÃ³": 3488,
      "utaciÃ³n": 3489,
      "ĠreciÃ©n": 3490,
      "Ġacostum": 3491,
      "Ġolvida": 3492,
      "Ġdecente": 3493,
      "Ġpermiso": 3494,
      "Hace": 3495,
      "Ġsentado": 3496,
      "Ġprofundo": 3497,
      "minis": 3498,
      "Ġescapara": 3499,
      "Ġcambiar": 3500,
      "ĠvendrÃ¡": 3501,
      "ĠbajÃ³": 3502,
      "Ġtremenda": 3503,
      "Ġninguno": 3504,
      "gni": 3505,
      "ĠÃ¡nimo": 3506,
      "ĠÃīl": 3507,
      "Ġquedarse": 3508,
      "Ġdieciocho": 3509,
      "ĠdiecisÃ©is": 3510,
      "Ġimpresor": 3511,
      "ĠpÃ¡lido": 3512,
      "ĠpÃ¡lida": 3513,
      "Ġelegante": 3514,
      "Ġsiguiente": 3515,
      "ĠpanaderÃŃa": 3516,
      "Ġtranquilo": 3517,
      "Ġpreocupado": 3518,
      "Ġantigu": 3519,
      "Ġdesprecio": 3520,
      "ĠencendiÃ³": 3521,
      "Ġgitanillo": 3522,
      "ĠojÃ©n": 3523,
      "Ġcostumbre": 3524,
      "ĠtÃŃsico": 3525,
      "Ġilustre": 3526,
      "Ġesfuerzos": 3527,
      "Ġentorn": 3528,
      "ĠBarto": 3529,
      "ĠpequeÃ±ito": 3530,
      "Ġhermoso": 3531,
      "Ġtimbre": 3532,
      "ĠsueÃ±o": 3533,
      "Ġfresco": 3534,
      "Ġmueve": 3535,
      "Ġejemplo": 3536,
      "Estoy": 3537,
      "bedrÃŃo": 3538,
      "Ġorganiz": 3539,
      "Ġencontrado": 3540,
      "Tengo": 3541,
      "Ġwater": 3542,
      "Ġparticular": 3543,
      "ĠAlgunas": 3544,
      "Ġespaldas": 3545,
      "Ġrepresenta": 3546,
      "Ġnegocio": 3547,
      "greso": 3548,
      "ĠnÃºmero": 3549,
      "Ġbombilla": 3550,
      "Ġcontento": 3551,
      "Ġgrupo": 3552,
      "ĠcatedrÃ¡tico": 3553,
      "ĠHermeneg": 3554,
      "Ġcaballero": 3555,
      "estiÃ³n": 3556,
      "ĠpÃ¡rpados": 3557,
      "Ġgallego": 3558,
      "Ġusurero": 3559,
      "Ġizquierda": 3560,
      "ĠBueno": 3561,
      "Ġpeluqu": 3562,
      "Ġestrellas": 3563,
      "Ġmitad": 3564,
      "ĠEloy": 3565,
      "Ġamericana": 3566,
      "ĠConsorcio": 3567,
      "ĠHermenegildo": 3568,
      "!\",": 3569,
      "-;": 3570,
      "Adel": 3571,
      "CI": 3572,
      "Calle": 3573,
      "Ja": 3574,
      "Ma": 3575,
      "Mar": 3576,
      "Mal": 3577,
      "Par": 3578,
      "Quer": 3579,
      "Sin": 3580,
      "TA": 3581,
      "Toma": 3582,
      "TÃ³m": 3583,
      "bel": 3584,
      "bÃ©": 3585,
      "bil": 3586,
      "ctos": 3587,
      "dÃŃ": 3588,
      "drÃŃa": 3589,
      "for": 3590,
      "gles": 3591,
      "gamente": 3592,
      "hÃŃ": 3593,
      "iar": 3594,
      "iza": 3595,
      "iver": 3596,
      "iciones": 3597,
      "iditos": 3598,
      "li": 3599,
      "lones": 3600,
      "lito": 3601,
      "lista": 3602,
      "mb": 3603,
      "mÃ³n": 3604,
      "melo": 3605,
      "ni": 3606,
      "otÃ³": 3607,
      "pel": 3608,
      "pren": 3609,
      "ron": 3610,
      "rÃºp": 3611,
      "selo": 3612,
      "tc": 3613,
      "tus": 3614,
      "tenta": 3615,
      "tonio": 3616,
      "ug": 3617,
      "udos": 3618,
      "udas": 3619,
      "van": 3620,
      "xito": 3621,
      "zÃ³": 3622,
      "zada": 3623,
      "zado": 3624,
      "Ġ)": 3625,
      "ĠriÃ³": 3626,
      "Ġzar": 3627,
      "Ġdro": 3628,
      "Ġdenta": 3629,
      "Ġdura": 3630,
      "Ġdadas": 3631,
      "Ġduele": 3632,
      "Ġdieron": 3633,
      "Ġlan": 3634,
      "Ġlista": 3635,
      "Ġluna": 3636,
      "endar": 3637,
      "encias": 3638,
      "enudo": 3639,
      "Ġses": 3640,
      "Ġsanta": 3641,
      "Ġsiendo": 3642,
      "Ġcr": 3643,
      "eses": 3644,
      "este": 3645,
      "Ġado": 3646,
      "Ġador": 3647,
      "Ġafi": 3648,
      "Ġpicar": 3649,
      "osamente": 3650,
      "ercia": 3651,
      "arro": 3652,
      "arista": 3653,
      "Ġmoles": 3654,
      "Ġtas": 3655,
      "Ġtur": 3656,
      "ancia": 3657,
      "unf": 3658,
      "uno": 3659,
      "unque": 3660,
      "Ġquedo": 3661,
      "Ġlad": 3662,
      "Ġyendo": 3663,
      "ÃŃritu": 3664,
      "Ġhin": 3665,
      "Ġhuel": 3666,
      "Ġseme": 3667,
      "Ġsecre": 3668,
      "Ġsemin": 3669,
      "ĠseÃ±al": 3670,
      "ĠespaÃ±": 3671,
      "Ġvin": 3672,
      "Ġvosotros": 3673,
      "Ã³g": 3674,
      "Ã³ven": 3675,
      "Ġenam": 3676,
      "dac": 3677,
      "ramos": 3678,
      "ing": 3679,
      "Ã±osa": 3680,
      "Ã±ido": 3681,
      "Ã©c": 3682,
      "cir": 3683,
      "cioso": 3684,
      "cilla": 3685,
      "Ġnoble": 3686,
      "alta": 3687,
      "ienes": 3688,
      "ienda": 3689,
      "Ġbl": 3690,
      "Ġbab": 3691,
      "Ġbil": 3692,
      "Ġbras": 3693,
      "Ġconti": 3694,
      "Ġconve": 3695,
      "Ġconcep": 3696,
      "chita": 3697,
      "chados": 3698,
      "amar": 3699,
      "aman": 3700,
      "ampoco": 3701,
      "rio": 3702,
      "Ġsuf": 3703,
      "ĠsubiÃ³": 3704,
      "Ġfun": 3705,
      "Ġfra": 3706,
      "Ġfle": 3707,
      "Ġform": 3708,
      "Ġfort": 3709,
      "Ġalem": 3710,
      "Ġalmo": 3711,
      "Ġaliento": 3712,
      "Ġalcan": 3713,
      "ĠalbedrÃŃo": 3714,
      "ĠEche": 3715,
      "Ġloco": 3716,
      "Ġgen": 3717,
      "Ġgoma": 3718,
      "Ġgrito": 3719,
      "Ġgeneral": 3720,
      "istencia": 3721,
      "ĠLA": 3722,
      "tim": 3723,
      "tivas": 3724,
      "tifica": 3725,
      "Ġmetida": 3726,
      "digo": 3727,
      "diese": 3728,
      "Ġpartida": 3729,
      "Ġoy": 3730,
      "ĠoÃŃa": 3731,
      "Ġobra": 3732,
      "Ġoper": 3733,
      "ĠoyÃ³": 3734,
      "Ġoficio": 3735,
      "ĠMer": 3736,
      "ĠMira": 3737,
      "Ġhagas": 3738,
      "ĠhacÃŃan": 3739,
      "ĠDentro": 3740,
      "Ġsig": 3741,
      "ĠsifÃ³n": 3742,
      "Ġsigni": 3743,
      "govia": 3744,
      "ĠAdiÃ³s": 3745,
      "ĠAmpar": 3746,
      "ĠPro": 3747,
      "Ġestra": 3748,
      "ueve": 3749,
      "ĠseÃ±oras": 3750,
      "ĠseÃ±oritas": 3751,
      "Ġtocar": 3752,
      "Ġdiablo": 3753,
      "ĠdirÃ©": 3754,
      "Ġpoca": 3755,
      "Ġpocos": 3756,
      "Ġpodamos": 3757,
      "ĠRes": 3758,
      "ĠRanero": 3759,
      "ĠCam": 3760,
      "ĠComo": 3761,
      "Ġdesh": 3762,
      "Ġdesal": 3763,
      "Ġdesdi": 3764,
      "ĠSin": 3765,
      "ĠSanta": 3766,
      "Ġmire": 3767,
      "Ġmiras": 3768,
      "Ġredon": 3769,
      "Ġredac": 3770,
      "Ġusar": 3771,
      "gues": 3772,
      "gual": 3773,
      "ilar": 3774,
      "Ġhabi": 3775,
      "imiento": 3776,
      "trÃ³n": 3777,
      "traron": 3778,
      "Ġvivi": 3779,
      "Ġviviendo": 3780,
      "Ġvea": 3781,
      "ĠveÃŃa": 3782,
      "Ġedad": 3783,
      "Ġeva": 3784,
      "Ġeche": 3785,
      "ĠediciÃ³n": 3786,
      "Ġefecto": 3787,
      "Ġetc": 3788,
      "ĠVir": 3789,
      "Ġverlo": 3790,
      "Ġverdes": 3791,
      "Ġsofo": 3792,
      "bias": 3793,
      "bida": 3794,
      "biza": 3795,
      "Ġinva": 3796,
      "Ġingen": 3797,
      "Ġinercia": 3798,
      "gao": 3799,
      "Ġpasando": 3800,
      "Ġpasaba": 3801,
      "ulio": 3802,
      "Ġcalam": 3803,
      "Ġcalce": 3804,
      "Ġcalent": 3805,
      "Ġcallar": 3806,
      "Ġcalma": 3807,
      "Ġcallado": 3808,
      "Ġande": 3809,
      "Ġanduvo": 3810,
      "Ã©ndez": 3811,
      "Ġllegan": 3812,
      "Ġcarne": 3813,
      "Ġmandar": 3814,
      "Ġcau": 3815,
      "Ġcach": 3816,
      "torce": 3817,
      "Ġcola": 3818,
      "Ġcodos": 3819,
      "Ġcopita": 3820,
      "paca": 3821,
      "tarte": 3822,
      "tarios": 3823,
      "Ġvais": 3824,
      "Ġvago": 3825,
      "Ġpague": 3826,
      "ĠpatrÃ³n": 3827,
      "Ġcamel": 3828,
      "Ġperf": 3829,
      "ĠperdiÃ³": 3830,
      "ĠtradiciÃ³n": 3831,
      "Ġama": 3832,
      "Ġmalos": 3833,
      "lares": 3834,
      "terior": 3835,
      "ĠTe": 3836,
      "ĠTom": 3837,
      "ĠFotÃ³": 3838,
      "Ġllamo": 3839,
      "ĠjÃ³ven": 3840,
      "Ġtibio": 3841,
      "ĠEsto": 3842,
      "ĠEstÃ¡n": 3843,
      "dase": 3844,
      "Ġmarco": 3845,
      "Ġsusto": 3846,
      "ĠpidiÃ³": 3847,
      "Ġmisa": 3848,
      "Ġvoce": 3849,
      "Ġvoces": 3850,
      "ĠalgodÃ³n": 3851,
      "Ġprecip": 3852,
      "ĠcostÃ³": 3853,
      "Ġapunta": 3854,
      "Ġvuelto": 3855,
      "Ġabor": 3856,
      "carral": 3857,
      "ĠÃ©xito": 3858,
      "ĠGu": 3859,
      "ĠGuti": 3860,
      "ĠdaÃ±o": 3861,
      "ĠpensÃ³": 3862,
      "Ġpensaba": 3863,
      "Ġhechos": 3864,
      "Ġtanta": 3865,
      "Ġespan": 3866,
      "Ġespina": 3867,
      "ĠSegovia": 3868,
      "Ġempuj": 3869,
      "Ġpros": 3870,
      "Ġcorbata": 3871,
      "Ġbotones": 3872,
      "Ġgustan": 3873,
      "Ġrespira": 3874,
      "Ġponiendo": 3875,
      "Ġradi": 3876,
      "izos": 3877,
      "Ġdiscul": 3878,
      "Ġsabemos": 3879,
      "Ġescon": 3880,
      "ĠescrÃºp": 3881,
      "Ġqueramos": 3882,
      "ibles": 3883,
      "ĠIbiza": 3884,
      "Ġcolab": 3885,
      "ĠPadilla": 3886,
      "tantemente": 3887,
      "destino": 3888,
      "grada": 3889,
      "ĠNota": 3890,
      "Ġgrave": 3891,
      "Ġgrabado": 3892,
      "ĠdarÃŃa": 3893,
      "Ġmover": 3894,
      "Ġseguro": 3895,
      "Ġtomado": 3896,
      "ĠestarÃŃa": 3897,
      "Ġpresente": 3898,
      "Ġtapa": 3899,
      "Ġaguas": 3900,
      "Ġrepar": 3901,
      "Ġinstin": 3902,
      "Mujer": 3903,
      "Ġsolar": 3904,
      "Ġsolares": 3905,
      "erna": 3906,
      "Ġconstantemente": 3907,
      "Ġmuerte": 3908,
      "Ġfijo": 3909,
      "Ġfidel": 3910,
      "ĠAntonio": 3911,
      "Ġtrabaje": 3912,
      "Ġquedaba": 3913,
      "ĠNadie": 3914,
      "Ġcantar": 3915,
      "Ġcantando": 3916,
      "Ġestuviera": 3917,
      "gasta": 3918,
      "ĠPorvenir": 3919,
      "ĠirÃ©": 3920,
      "Ġirse": 3921,
      "tines": 3922,
      "Ġcivil": 3923,
      "Porque": 3924,
      "ĠpequeÃ±as": 3925,
      "Ġesperan": 3926,
      "ĠAsÃŃ": 3927,
      "iraciÃ³n": 3928,
      "Ġcriadas": 3929,
      "Ġpelig": 3930,
      "Ġmamita": 3931,
      "ĠpolicÃŃa": 3932,
      "Ġnombres": 3933,
      "Cuando": 3934,
      "Cualquiera": 3935,
      "ÃŃsimo": 3936,
      "ĠespectÃ¡": 3937,
      "ĠbebiÃ³": 3938,
      "Ġfuman": 3939,
      "ĠinterÃ©s": 3940,
      "Ġinterrum": 3941,
      "Ġplato": 3942,
      "Ġmons": 3943,
      "ĠmontÃ³n": 3944,
      "Ġcolores": 3945,
      "cionada": 3946,
      "ĠcariÃ±osa": 3947,
      "Ġmillones": 3948,
      "ĠextraÃ±o": 3949,
      "Ġpapeles": 3950,
      "Ġcenado": 3951,
      "ĠgastÃ³": 3952,
      "ĠSanz": 3953,
      "Ġapare": 3954,
      "ĠimbÃ©": 3955,
      "Ġmerienda": 3956,
      "Ġtrasno": 3957,
      "Ġtrastien": 3958,
      "ĠTodos": 3959,
      "ĠlÃ¡p": 3960,
      "ĠRep": 3961,
      "ĠGonzalo": 3962,
      "Ġpuntos": 3963,
      "ĠtirÃ³": 3964,
      "Ġtirando": 3965,
      "ĠcontestÃ³": 3966,
      "ĠatreviÃ³": 3967,
      "Ġnoventa": 3968,
      "Ġmandado": 3969,
      "ĠÃ©sta": 3970,
      "Ġtritones": 3971,
      "Ġtriunf": 3972,
      "ionero": 3973,
      "Ġbanco": 3974,
      "Ġgorda": 3975,
      "Ġdormirse": 3976,
      "ĠdomÃ©s": 3977,
      "ĠdecÃŃr": 3978,
      "Ġencanto": 3979,
      "Ġpermi": 3980,
      "Ġsentados": 3981,
      "Ġagradar": 3982,
      "Ġtierna": 3983,
      "Ġenteros": 3984,
      "charros": 3985,
      "ĠJuan": 3986,
      "Ġcambia": 3987,
      "Ġexplica": 3988,
      "Ġbarriga": 3989,
      "Ġcigarro": 3990,
      "ĠpolÃŃtica": 3991,
      "ĠpolÃŃticos": 3992,
      "iputaciÃ³n": 3993,
      "Ġzum": 3994,
      "Ġsegundo": 3995,
      "Ġsegunda": 3996,
      "Ġsegundos": 3997,
      "cultad": 3998,
      "Ġimpresion": 3999,
      "tiende": 4000,
      "Ġsiguen": 4001,
      "ĠCarmen": 4002,
      "ĠcamisÃ³n": 4003,
      "Ġcamiseta": 4004,
      "Ġescaleras": 4005,
      "Ġtrabajando": 4006,
      "Ġpanadero": 4007,
      "Ã©rrez": 4008,
      "Ġantigua": 4009,
      "ĠrelÃ³": 4010,
      "Ġmerendar": 4011,
      "Ġmerengao": 4012,
      "Descu": 4013,
      "Ġnoticias": 4014,
      "Ġbuf": 4015,
      "ĠParece": 4016,
      "Ġpensativo": 4017,
      "Ġpensativa": 4018,
      "Ġcostumbres": 4019,
      "ĠtÃŃsicos": 4020,
      "Ġclaras": 4021,
      "Ġpienso": 4022,
      "Ġtaberna": 4023,
      "Ġnariz": 4024,
      "Ġesfuerzo": 4025,
      "Ġdescans": 4026,
      "Ġchicharros": 4027,
      "ĠBarcel": 4028,
      "Ġhumilde": 4029,
      "Ġencantada": 4030,
      "dÃ©micos": 4031,
      "Ġcirco": 4032,
      "ĠacadÃ©micos": 4033,
      "ĠsimpÃ¡": 4034,
      "ĠValencia": 4035,
      "ĠSegura": 4036,
      "Ġdistingu": 4037,
      "ĠdÃ©jame": 4038,
      "Todo": 4039,
      "Venga": 4040,
      "buciÃ³n": 4041,
      "Ġatavis": 4042,
      "Ġprima": 4043,
      "Ġnervioso": 4044,
      "Ġcumplir": 4045,
      "Ġsobran": 4046,
      "ĠtipografÃŃa": 4047,
      "Ġarmario": 4048,
      "Ġpreciso": 4049,
      "Ġabsol": 4050,
      "Ġempaque": 4051,
      "Ġorgul": 4052,
      "Ġuva": 4053,
      "Ġproblema": 4054,
      "Ġconsidera": 4055,
      "Ãīste": 4056,
      "ĠcariÃ±oso": 4057,
      "Ġrespirar": 4058,
      "Ġmisterioso": 4059,
      "ĠÃģn": 4060,
      "Puede": 4061,
      "ĠademÃ¡n": 4062,
      "Ġestilo": 4063,
      "Ġcontinu": 4064,
      "ĠEmilio": 4065,
      "Ġdivertirse": 4066,
      "Ġpensionista": 4067,
      "Ġaguantar": 4068,
      "ĠadmiraciÃ³n": 4069,
      "ĠdifÃŃcil": 4070,
      "ĠresignaciÃ³n": 4071,
      "Ġposeerlo": 4072,
      "ÃĵN": 4073,
      "Ġlentamente": 4074,
      "Ġavisar": 4075,
      "ĠpÃ¡g": 4076,
      "ĠpÃºblico": 4077,
      "Ġescena": 4078,
      "Ġoficina": 4079,
      "ĠManuel": 4080,
      "ĠvermÃº": 4081,
      "Ġinvierno": 4082,
      "Ġcoinci": 4083,
      "ĠFuencarral": 4084,
      "ĠmaÃ±anas": 4085,
      "Ġpedazos": 4086,
      "Ġsatisfe": 4087,
      "Ġvoluntad": 4088,
      "Ġacostumbra": 4089,
      "Adelante": 4090,
      "CIÃĵN": 4091,
      "MaÃ±ana": 4092,
      "Ġdrogu": 4093,
      "Ġdentadura": 4094,
      "Ġseminarista": 4095,
      "Ġalmoh": 4096,
      "tificado": 4097,
      "ĠAmparo": 4098,
      "ĠVirgen": 4099,
      "ĠFotÃ³grafa": 4100,
      "ĠjÃ³venes": 4101,
      "ĠGutiÃ©rrez": 4102,
      "ĠescrÃºpulos": 4103,
      "Ġfidelidad": 4104,
      "ĠespectÃ¡culo": 4105,
      "Ġtrastienda": 4106,
      "?\"": 4107,
      "Com": 4108,
      "DI": 4109,
      "Dos": 4110,
      "DoÃ±a": 4111,
      "Eres": 4112,
      "Hab": 4113,
      "In": 4114,
      "Lle": 4115,
      "LÃ³pez": 4116,
      "MÃ¡s": 4117,
      "Na": 4118,
      "Ni": 4119,
      "Oh": 4120,
      "OTA": 4121,
      "Pe": 4122,
      "Su": 4123,
      "aÃ±os": 4124,
      "acultad": 4125,
      "bun": 4126,
      "bus": 4127,
      "brar": 4128,
      "buj": 4129,
      "cante": 4130,
      "cano": 4131,
      "cÃ©s": 4132,
      "cciones": 4133,
      "clado": 4134,
      "delo": 4135,
      "diente": 4136,
      "ego": 4137,
      "etario": 4138,
      "ectu": 4139,
      "fÃ¡": 4140,
      "fia": 4141,
      "gia": 4142,
      "gante": 4143,
      "gna": 4144,
      "iro": 4145,
      "ires": 4146,
      "igu": 4147,
      "ique": 4148,
      "iÃ¡n": 4149,
      "iva": 4150,
      "icias": 4151,
      "iez": 4152,
      "jor": 4153,
      "jada": 4154,
      "jante": 4155,
      "ky": 4156,
      "len": 4157,
      "ler": 4158,
      "lio": 4159,
      "liz": 4160,
      "listas": 4161,
      "mal": 4162,
      "mosa": 4163,
      "mpa": 4164,
      "mados": 4165,
      "mentos": 4166,
      "oque": 4167,
      "pu": 4168,
      "pera": 4169,
      "pul": 4170,
      "pica": 4171,
      "piÃ³": 4172,
      "roso": 4173,
      "san": 4174,
      "sim": 4175,
      "tÃ©": 4176,
      "tent": 4177,
      "tela": 4178,
      "uch": 4179,
      "uja": 4180,
      "ugn": 4181,
      "vita": 4182,
      "yamos": 4183,
      "zon": 4184,
      "zca": 4185,
      "zadas": 4186,
      "ĠW": 4187,
      "ĠÃ³": 4188,
      "Ġran": 4189,
      "Ġur": 4190,
      "ĠÃ¡rb": 4191,
      "Ġdame": 4192,
      "Ġlim": 4193,
      "Ġlento": 4194,
      "enus": 4195,
      "Ġsiste": 4196,
      "Ġsard": 4197,
      "Ġcie": 4198,
      "Ġciento": 4199,
      "ĠcÃ¡l": 4200,
      "ĠcrÃ©": 4201,
      "Ġcientos": 4202,
      "Ġcelos": 4203,
      "estro": 4204,
      "Ġat": 4205,
      "ĠaÃ±a": 4206,
      "Ġaga": 4207,
      "Ġape": 4208,
      "ĠadiÃ³s": 4209,
      "Ġpra": 4210,
      "Ġpido": 4211,
      "Ġpiso": 4212,
      "Ġpinta": 4213,
      "ospital": 4214,
      "erc": 4215,
      "ersin": 4216,
      "Ġdevuel": 4217,
      "Ġdecencia": 4218,
      "Ġdetiene": 4219,
      "arme": 4220,
      "arios": 4221,
      "quel": 4222,
      "quera": 4223,
      "quÃ©s": 4224,
      "ĠmÃ¡": 4225,
      "ĠmÃ¡r": 4226,
      "asen": 4227,
      "astre": 4228,
      "onte": 4229,
      "onia": 4230,
      "Ġtuer": 4231,
      "antas": 4232,
      "unci": 4233,
      "Ġquem": 4234,
      "Ġquede": 4235,
      "Ġ-...": 4236,
      "Ġlate": 4237,
      "Ġlados": 4238,
      "Ġlava": 4239,
      "Ġlabor": 4240,
      "eles": 4241,
      "elle": 4242,
      "Ġyerno": 4243,
      "Ġnen": 4244,
      "Ġnorm": 4245,
      "taca": 4246,
      "Ġham": 4247,
      "Ġhue": 4248,
      "Ġhuy": 4249,
      "Ġsex": 4250,
      "Ġsepar": 4251,
      "Ġvul": 4252,
      "Ġvisi": 4253,
      "Ã³lo": 4254,
      "Ġencer": 4255,
      "ĠentrÃ³": 4256,
      "Ġenvuel": 4257,
      "Ġenhi": 4258,
      "dal": 4259,
      "tear": 4260,
      "Ã±ones": 4261,
      "Ã©culas": 4262,
      "Ã©ramos": 4263,
      "ciÃ©n": 4264,
      "citos": 4265,
      "ciona": 4266,
      "ciante": 4267,
      "ĠnotÃ³": 4268,
      "omÃ³": 4269,
      "Ġbio": 4270,
      "Ġbru": 4271,
      "Ġbici": 4272,
      "Ġbuta": 4273,
      "Ġbella": 4274,
      "abri": 4275,
      "abil": 4276,
      "abela": 4277,
      "abinero": 4278,
      "aball": 4279,
      "Ġcondu": 4280,
      "Ġconcur": 4281,
      "tofa": 4282,
      "chu": 4283,
      "chÃ³n": 4284,
      "amas": 4285,
      "rieta": 4286,
      "Ġlej": 4287,
      "ĠleÃŃdo": 4288,
      "Ġsuena": 4289,
      "Ġsuizo": 4290,
      "Ġsuminis": 4291,
      "Ġsuizos": 4292,
      "Ġflo": 4293,
      "Ġfir": 4294,
      "Ġfur": 4295,
      "Ġfina": 4296,
      "Ġfunda": 4297,
      "Ġfritos": 4298,
      "Ġalba": 4299,
      "Ġalias": 4300,
      "Ġalambre": 4301,
      "ĠEse": 4302,
      "ĠEDI": 4303,
      "Ġmuere": 4304,
      "isla": 4305,
      "ister": 4306,
      "lemente": 4307,
      "leaÃ±os": 4308,
      "ĠLol": 4309,
      "uste": 4310,
      "titu": 4311,
      "rope": 4312,
      "Ġmez": 4313,
      "Ġmetido": 4314,
      "dicos": 4315,
      "dieron": 4316,
      "deo": 4317,
      "lada": 4318,
      "Ġop": 4319,
      "Ġobe": 4320,
      "Ġoiga": 4321,
      "Ġobed": 4322,
      "ĠMu": 4323,
      "ĠMire": 4324,
      "ĠMientras": 4325,
      "Ġcomen": 4326,
      "Ġcomun": 4327,
      "Ġcomido": 4328,
      "ĠcomÃºn": 4329,
      "Ġportales": 4330,
      "Ġhaz": 4331,
      "Ġhaces": 4332,
      "ĠDel": 4333,
      "ĠDiputaciÃ³n": 4334,
      "Ġcur": 4335,
      "Ġcurar": 4336,
      "Ġcuern": 4337,
      "Ġcueros": 4338,
      "Ġcuesta": 4339,
      "ĠcuestiÃ³n": 4340,
      "Ġdelgado": 4341,
      "ĠAgus": 4342,
      "ĠPre": 4343,
      "ĠPien": 4344,
      "ĠPrim": 4345,
      "ĠPoco": 4346,
      "bados": 4347,
      "Ġdiga": 4348,
      "Ġdicha": 4349,
      "Ġdivier": 4350,
      "ĠRi": 4351,
      "ĠRabela": 4352,
      "ĠCal": 4353,
      "Ġdesin": 4354,
      "Ġdesper": 4355,
      "Ġdescom": 4356,
      "Ġdeslom": 4357,
      "Ġdesierto": 4358,
      "ĠSus": 4359,
      "ĠSol": 4360,
      "vido": 4361,
      "Ãºcar": 4362,
      "resura": 4363,
      "Ġreo": 4364,
      "Ġretor": 4365,
      "Ġrepi": 4366,
      "Ġreales": 4367,
      "Ġrezar": 4368,
      "Ġrebos": 4369,
      "Ġrecados": 4370,
      "Ġuso": 4371,
      "guillo": 4372,
      "gueras": 4373,
      "cuatro": 4374,
      "cuencia": 4375,
      "ĠmÃ¡scar": 4376,
      "Ġhablas": 4377,
      "ĠhabrÃŃa": 4378,
      "imas": 4379,
      "imÃ©n": 4380,
      "Ġcasarse": 4381,
      "tru": 4382,
      "trena": 4383,
      "dados": 4384,
      "Ġviva": 4385,
      "Ġviaje": 4386,
      "Ġeu": 4387,
      "Ġeter": 4388,
      "ĠVamos": 4389,
      "ĠVenus": 4390,
      "Ġverso": 4391,
      "Ġsociedad": 4392,
      "ĠsofÃ¡": 4393,
      "...,": 4394,
      "...?": 4395,
      "Ġinde": 4396,
      "Ġincon": 4397,
      "Ġincier": 4398,
      "uesta": 4399,
      "icen": 4400,
      "Ġllora": 4401,
      "Ġpasillo": 4402,
      "Ġpastel": 4403,
      "ultÃ¡n": 4404,
      "Ġcalefa": 4405,
      "uelas": 4406,
      "Ġano": 4407,
      "ĠanÃŃs": 4408,
      "Ġandan": 4409,
      "Ġandando": 4410,
      "Ġanterior": 4411,
      "Ġseres": 4412,
      "Ġhombr": 4413,
      "cerle": 4414,
      "Ġllevo": 4415,
      "Ġllegado": 4416,
      "Ġcarnes": 4417,
      "Ġcarabinero": 4418,
      "Ġmande": 4419,
      "ĠcayÃ³": 4420,
      "Ġcapital": 4421,
      "Ġcatorce": 4422,
      "tores": 4423,
      "torio": 4424,
      "Ġcoch": 4425,
      "Ġcope": 4426,
      "Ġcojera": 4427,
      "tuvo": 4428,
      "turÃ³n": 4429,
      "tara": 4430,
      "Ġvah": 4431,
      "Ġvagos": 4432,
      "Ġvagamente": 4433,
      "Ġvayamos": 4434,
      "Ã¡ndez": 4435,
      "Ġpais": 4436,
      "Ġpatas": 4437,
      "ĠpaÃŃs": 4438,
      "Ġpaciencia": 4439,
      "Ġpaquete": 4440,
      "Ġparecido": 4441,
      "Ġcamp": 4442,
      "ĠcambiÃ³": 4443,
      "Ġperras": 4444,
      "Ġperros": 4445,
      "Ġperfec": 4446,
      "Ġperple": 4447,
      "tano": 4448,
      "Ġtraj": 4449,
      "Ġtraje": 4450,
      "Ġtradu": 4451,
      "Ġamables": 4452,
      "vejero": 4453,
      "Ġsaluda": 4454,
      "ĠTa": 4455,
      "ĠTu": 4456,
      "ĠTÃº": 4457,
      "Ġrin": 4458,
      "Ġrum": 4459,
      "Ġrela": 4460,
      "Ġrose": 4461,
      "gundo": 4462,
      "ĠFil": 4463,
      "ĠFlor": 4464,
      "ĠFacultad": 4465,
      "Ġllame": 4466,
      "Ġllames": 4467,
      "Ġjusti": 4468,
      "Ġtiro": 4469,
      "urro": 4470,
      "urora": 4471,
      "Ġarde": 4472,
      "Ġmarques": 4473,
      "Ġmarip": 4474,
      "Ġsuspir": 4475,
      "Ġasus": 4476,
      "Ġasist": 4477,
      "Ġasunto": 4478,
      "Ġmaestro": 4479,
      "ĠEntre": 4480,
      "ĠEntrena": 4481,
      "Ġiban": 4482,
      "Ġign": 4483,
      "Ġmismos": 4484,
      "Ġmismas": 4485,
      "Ġmisionero": 4486,
      "Ġprecio": 4487,
      "Ġpreten": 4488,
      "garto": 4489,
      "garse": 4490,
      "inato": 4491,
      "Ġcose": 4492,
      "umersin": 4493,
      "Ġapun": 4494,
      "Ġaprieta": 4495,
      "Ġapresura": 4496,
      "Ġvuela": 4497,
      "Ġvuelva": 4498,
      "Ġabun": 4499,
      "Ġabra": 4500,
      "ĠAlcal": 4501,
      "Ġhacerla": 4502,
      "Ġhacerse": 4503,
      "bern": 4504,
      "berculos": 4505,
      "Ġvengo": 4506,
      "Ġvenia": 4507,
      "ĠGoy": 4508,
      "ĠGimÃ©n": 4509,
      "ĠGumersin": 4510,
      "Ġmiraba": 4511,
      "ĠpensÃ©": 4512,
      "Ġcompos": 4513,
      "ĠcompÃ¡s": 4514,
      "Ġcomplica": 4515,
      "ĠOvejero": 4516,
      "igame": 4517,
      "Ġtantas": 4518,
      "Ġtantos": 4519,
      "ĠespÃŃritu": 4520,
      "ĠcinturÃ³n": 4521,
      "ĠSegundo": 4522,
      "ĠBus": 4523,
      "ĠBur": 4524,
      "ĠLecl": 4525,
      "brado": 4526,
      "tÃ³rica": 4527,
      "ĠNada": 4528,
      "ĠNOTA": 4529,
      "Ġempiez": 4530,
      "Ġtuve": 4531,
      "yecto": 4532,
      "Ġsaco": 4533,
      "Ġsacas": 4534,
      "Ġmuchachita": 4535,
      "Ġcorno": 4536,
      "Ġboda": 4537,
      "Siempre": 4538,
      "Ġponen": 4539,
      "Ġpongo": 4540,
      "Ġradio": 4541,
      "ĠraÃŃda": 4542,
      "ĠCafÃ©s": 4543,
      "ubÃŃn": 4544,
      "Ġdisim": 4545,
      "ĠquerrÃ¡": 4546,
      "ĠquerubÃŃn": 4547,
      "ĠnaciÃ³": 4548,
      "Ġmedias": 4549,
      "ĠIn": 4550,
      "Ġore": 4551,
      "Ġorla": 4552,
      "jeando": 4553,
      "Ġrojos": 4554,
      "Ġduques": 4555,
      "Ġbarra": 4556,
      "Ġbarba": 4557,
      "gracia": 4558,
      "pidez": 4559,
      "pieza": 4560,
      "Ġdejando": 4561,
      "Ġdejado": 4562,
      "Ġdejaba": 4563,
      "Ġtarda": 4564,
      "Ġtarje": 4565,
      "ĠguardÃ³": 4566,
      "isiÃ³n": 4567,
      "Ġgracia": 4568,
      "Ġgracioso": 4569,
      "Ġcogen": 4570,
      "Ġcogiendo": 4571,
      "Ġcogiditos": 4572,
      "Ġverdaderamente": 4573,
      "Ġllevado": 4574,
      "ĠdarÃ©": 4575,
      "Ġentiendo": 4576,
      "Ġgrano": 4577,
      "riste": 4578,
      "Ġmoj": 4579,
      "Ġmodo": 4580,
      "Ġmodes": 4581,
      "Ġluto": 4582,
      "Ġlujo": 4583,
      "Ġlugar": 4584,
      "Ġtome": 4585,
      "ĠestarÃ¡": 4586,
      "ĠfaltÃ³": 4587,
      "Ġpresenta": 4588,
      "Ġpresencia": 4589,
      "Ġtazas": 4590,
      "Ġpude": 4591,
      "Ġpuchero": 4592,
      "Ġfuerzas": 4593,
      "Ġcuartel": 4594,
      "Ġrepon": 4595,
      "Ġrepugn": 4596,
      "Ġricos": 4597,
      "Ġbollo": 4598,
      "Ġinspira": 4599,
      "Ġcerrar": 4600,
      "Ġcertificado": 4601,
      "ĠsoltÃ³": 4602,
      "quiÃ©n": 4603,
      "Ġconserv": 4604,
      "Ġconsigue": 4605,
      "Ġgatos": 4606,
      "Ġmuertos": 4607,
      "ĠtÃŃtulo": 4608,
      "Ġaquellos": 4609,
      "ducho": 4610,
      "ĠAntofa": 4611,
      "Ġfuma": 4612,
      "ĠcafÃ©s": 4613,
      "Ġerror": 4614,
      "Ġandamos": 4615,
      "ficiales": 4616,
      "Ġabriguillo": 4617,
      "Ġcielo": 4618,
      "Ġlargas": 4619,
      "Ġconocer": 4620,
      "ĠconociÃ³": 4621,
      "Ġconocida": 4622,
      "cinco": 4623,
      "Ġdob": 4624,
      "Ġdocu": 4625,
      "ĠbuscÃ³": 4626,
      "Ġbuscando": 4627,
      "ĠpequeÃ±a": 4628,
      "Ġcabal": 4629,
      "Ġcabrito": 4630,
      "Ġjovencito": 4631,
      "Ġpelliz": 4632,
      "Ġtenerlos": 4633,
      "clam": 4634,
      "ĠDetrÃ¡s": 4635,
      "Ġcomerciante": 4636,
      "CuÃ¡ndo": 4637,
      "CuÃ¡l": 4638,
      "Ġpelota": 4639,
      "Ġtristes": 4640,
      "Ġcuerno": 4641,
      "Ġmarchan": 4642,
      "ÃŃsima": 4643,
      "Ġbea": 4644,
      "Ġbecer": 4645,
      "Ġbebida": 4646,
      "ĠconfesiÃ³n": 4647,
      "ĠSobr": 4648,
      "Ġadelante": 4649,
      "Ġnuestra": 4650,
      "Ġnuestras": 4651,
      "Ã¡rs": 4652,
      "Ġviolencia": 4653,
      "Ġinteresa": 4654,
      "Ġjuego": 4655,
      "Ġmorib": 4656,
      "Ġcolorado": 4657,
      "ĠazÃºcar": 4658,
      "tadora": 4659,
      "ĠolÃŃa": 4660,
      "Ġruin": 4661,
      "Ġpitillos": 4662,
      "ĠharÃŃa": 4663,
      "ĠÃºltimos": 4664,
      "icilio": 4665,
      "Ġlimpio": 4666,
      "Ġhumor": 4667,
      "Ġaparta": 4668,
      "Ġaparte": 4669,
      "Ġaparece": 4670,
      "Ġborde": 4671,
      "Ġfatal": 4672,
      "Ġmirarla": 4673,
      "Ġpreguntar": 4674,
      "Ġveinticinco": 4675,
      "Ġdebil": 4676,
      "ĠReal": 4677,
      "sivo": 4678,
      "Ġcruzar": 4679,
      "Ġpunta": 4680,
      "Ġtiran": 4681,
      "Ġprincipios": 4682,
      "Ġtorpe": 4683,
      "Ġtemblar": 4684,
      "Ġsientan": 4685,
      "Ġtertul": 4686,
      "Ġvarias": 4687,
      "Ġculto": 4688,
      "Ġrevista": 4689,
      "ĠrevÃ©s": 4690,
      "ĠMatildita": 4691,
      "Ġentiendes": 4692,
      "ctiva": 4693,
      "Ġgordo": 4694,
      "Ġhablaba": 4695,
      "Ġacostar": 4696,
      "Ġacabar": 4697,
      "Ġdomicilio": 4698,
      "Ġdulz": 4699,
      "Ġalegre": 4700,
      "Ġalegro": 4701,
      "Ġpermite": 4702,
      "ĠfotografÃŃa": 4703,
      "Ġayer": 4704,
      "Ġayudar": 4705,
      "Ġocurren": 4706,
      "Ġprofes": 4707,
      "Ġprofun": 4708,
      "Ġplanch": 4709,
      "Ġtierno": 4710,
      "Ġenterarse": 4711,
      "Ġbonita": 4712,
      "Ġdescuide": 4713,
      "Ġchinito": 4714,
      "ĠvendÃŃa": 4715,
      "ĠvendrÃŃa": 4716,
      "Ġbajando": 4717,
      "Ġguape": 4718,
      "Ġexplico": 4719,
      "ĠpolÃŃtico": 4720,
      "Ġnecesario": 4721,
      "Ġzur": 4722,
      "ĠtonterÃŃas": 4723,
      "Ġgobern": 4724,
      "ĠcuÃ±ada": 4725,
      "Ġcapaces": 4726,
      "Ġprocuraba": 4727,
      "Ġnaturalmente": 4728,
      "Ġpersonajes": 4729,
      "dinar": 4730,
      "Ġpintado": 4731,
      "ortun": 4732,
      "Ġsuavidad": 4733,
      "Ġcuelga": 4734,
      "ĠrÃŃen": 4735,
      "Ġabierta": 4736,
      "Ġcorriendo": 4737,
      "Ġfijamente": 4738,
      "ĠQuisiera": 4739,
      "Ġhoja": 4740,
      "ĠcompaÃ±eros": 4741,
      "Ġestudiante": 4742,
      "ĠimaginaciÃ³n": 4743,
      "Ġtropieza": 4744,
      "Ġescupe": 4745,
      "Ġobse": 4746,
      "Ġojitos": 4747,
      "ĠParÃŃs": 4748,
      "Ġestreme": 4749,
      "Ãºblica": 4750,
      "Ġjuntos": 4751,
      "Ġmisterio": 4752,
      "Ġcansada": 4753,
      "SeÃ±ora": 4754,
      "SeÃ±orita": 4755,
      "ĠilusiÃ³n": 4756,
      "ensar": 4757,
      "Ġcejas": 4758,
      "Ġmelena": 4759,
      "Ġmelenudo": 4760,
      "Ġentorna": 4761,
      "Ġdescanse": 4762,
      "Ġrecordar": 4763,
      "Ġsobrinas": 4764,
      "Ġchiquilla": 4765,
      "ĠdistraÃŃda": 4766,
      "CuÃ¡ntas": 4767,
      "Ġencantado": 4768,
      "Ġhermosos": 4769,
      "Donde": 4770,
      "Ġdorado": 4771,
      "Ġdorados": 4772,
      "Ġbeben": 4773,
      "Ġrasca": 4774,
      "Ġcompletamente": 4775,
      "DÃ©jala": 4776,
      "Hasta": 4777,
      "Ġconfianza": 4778,
      "rirlo": 4779,
      "Ġocupa": 4780,
      "ĠCorre": 4781,
      "ĠreuniÃ³n": 4782,
      "Ġseriedad": 4783,
      "ĠBragado": 4784,
      "ĠBraulio": 4785,
      "Ġorgullo": 4786,
      "lomÃ©": 4787,
      "Ġllave": 4788,
      "Ġminu": 4789,
      "ĠminÃºs": 4790,
      "ĠmolÃ©culas": 4791,
      "Ġhierro": 4792,
      "Ġfarol": 4793,
      "Ġfrances": 4794,
      "Ġfrases": 4795,
      "Ġaleja": 4796,
      "ĠcumpleaÃ±os": 4797,
      "Ġdespacio": 4798,
      "ĠSalaman": 4799,
      "Ġinmensa": 4800,
      "Ġtercero": 4801,
      "Ġtercera": 4802,
      "Chico": 4803,
      "cleta": 4804,
      "ĠlÃŃos": 4805,
      "Ġcristales": 4806,
      "Ġmentir": 4807,
      "Ġescote": 4808,
      "Ġbreve": 4809,
      "ĠconseguÃŃa": 4810,
      "Ġalumbra": 4811,
      "Ġdesayuna": 4812,
      "Ġsolemne": 4813,
      "Ġintelectu": 4814,
      "Ġacaricia": 4815,
      "ĠcompasiÃ³n": 4816,
      "Ġcomplaciente": 4817,
      "ĠautomÃ³": 4818,
      "Ġdesapare": 4819,
      "ĠexpresiÃ³n": 4820,
      "Ġvuestra": 4821,
      "Ġenvidia": 4822,
      "Ġsuplicante": 4823,
      "ĠfÃ¡cil": 4824,
      "logÃŃa": 4825,
      "ĠAux": 4826,
      "ĠRubio": 4827,
      "Ġrecono": 4828,
      "Ġanuncios": 4829,
      "Ġcobista": 4830,
      "Ġasesinato": 4831,
      "Ġapures": 4832,
      "ĠAlfonsito": 4833,
      "Ġbautizar": 4834,
      "Ġcomprender": 4835,
      "ĠHasta": 4836,
      "Ġimposible": 4837,
      "Ġcorresponder": 4838,
      "Ġmodales": 4839,
      "Ġmoderno": 4840,
      "ĠtÃŃmida": 4841,
      "fectivamente": 4842,
      "Ġdocenas": 4843,
      "ĠpelÃŃculas": 4844,
      "Ġtranquilos": 4845,
      "ĠSocorrito": 4846,
      "ĠBartolomÃ©": 4847,
      "Ġparticulares": 4848,
      "ĠpeluquerÃŃa": 4849,
      "ivers": 4850,
      "Ġcruel": 4851,
      "Ġhuelen": 4852,
      "ĠespaÃ±ol": 4853,
      "Ġenamor": 4854,
      "Ġblusa": 4855,
      "Ġbrasero": 4856,
      "Ġconcepto": 4857,
      "Ġfortuna": 4858,
      "Ġsignifica": 4859,
      "Ġestraper": 4860,
      "Ġhabitu": 4861,
      "Ġvivimos": 4862,
      "Ġcalamidades": 4863,
      "Ġprecipita": 4864,
      "Ġespantoso": 4865,
      "Ġdisculpa": 4866,
      "Ġreparte": 4867,
      "Ġinstinto": 4868,
      "Ġmonser": 4869,
      "ĠimbÃ©cil": 4870,
      "ĠRepÃºblica": 4871,
      "Ġtriunfador": 4872,
      "Descuide": 4873,
      "Ġbufanda": 4874,
      "ĠBarcelona": 4875,
      "Ġempaquetadora": 4876,
      "ĠdroguerÃŃa": 4877,
      "Petrita": 4878,
      "Ġsistema": 4879,
      "Ġsardinas": 4880,
      "Ġciega": 4881,
      "ĠmÃ¡quina": 4882,
      "ĠmÃ¡rm": 4883,
      "Ġvulgar": 4884,
      "Ġbicicleta": 4885,
      "Ġbutaca": 4886,
      "ĠEDICIÃĵN": 4887,
      "ĠLolita": 4888,
      "ĠAgustÃŃn": 4889,
      "ĠRabelais": 4890,
      "Ġdespertar": 4891,
      "ĠcalefacciÃ³n": 4892,
      "ĠAlcalÃ¡": 4893,
      "ĠGoya": 4894,
      "ĠGimÃ©nez": 4895,
      "ĠGumersindo": 4896,
      "Ġcomplicaciones": 4897,
      "ĠLeclerc": 4898,
      "Ġempiezan": 4899,
      "ĠinspiraciÃ³n": 4900,
      "ĠAntofagasta": 4901,
      "Ġtertulia": 4902,
      "ĠSalamanca": 4903,
      ".,": 4904,
      "Ar": 4905,
      "Aurora": 4906,
      "Ba": 4907,
      "Bo": 4908,
      "Bes": 4909,
      "Ca": 4910,
      "CÃ¡": 4911,
      "CÃ¡l": 4912,
      "Dios": 4913,
      "Destino": 4914,
      "Dame": 4915,
      "ER": 4916,
      "Huele": 4917,
      "Igual": 4918,
      "Mientras": 4919,
      "Nosotros": 4920,
      "Oj": 4921,
      "Re": 4922,
      "Ser": 4923,
      "Son": 4924,
      "Sois": 4925,
      "TrÃ¡": 4926,
      "Tienes": 4927,
      "Ve": 4928,
      "ahora": 4929,
      "bien": 4930,
      "bita": 4931,
      "bella": 4932,
      "cun": 4933,
      "cta": 4934,
      "cera": 4935,
      "cÃ¡n": 4936,
      "cemos": 4937,
      "cÃ¡ndose": 4938,
      "cÃŃo": 4939,
      "dÃ©n": 4940,
      "dur": 4941,
      "dona": 4942,
      "dante": 4943,
      "drÃ¡": 4944,
      "ear": 4945,
      "eda": 4946,
      "eva": 4947,
      "fes": 4948,
      "far": 4949,
      "fil": 4950,
      "ficar": 4951,
      "gr": 4952,
      "ger": 4953,
      "gal": 4954,
      "gÃ¡n": 4955,
      "gale": 4956,
      "gdal": 4957,
      "his": 4958,
      "hÃŃn": 4959,
      "if": 4960,
      "ice": 4961,
      "ive": 4962,
      "iese": 4963,
      "iciÃ³": 4964,
      "idente": 4965,
      "itis": 4966,
      "iestra": 4967,
      "ju": 4968,
      "jez": 4969,
      "lÃŃ": 4970,
      "lÃ¡s": 4971,
      "losa": 4972,
      "litos": 4973,
      "luta": 4974,
      "lines": 4975,
      "mi": 4976,
      "mu": 4977,
      "mar": 4978,
      "mada": 4979,
      "muer": 4980,
      "mundo": 4981,
      "mientras": 4982,
      "mela": 4983,
      "meros": 4984,
      "nal": 4985,
      "nada": 4986,
      "ob": 4987,
      "oces": 4988,
      "pp": 4989,
      "pre": 4990,
      "pÃ¡": 4991,
      "pro": 4992,
      "pando": 4993,
      "pada": 4994,
      "pres": 4995,
      "pado": 4996,
      "pelo": 4997,
      "piendo": 4998,
      "pere": 4999,
      "pens": 5000,
      "rero": 5001,
      "rando": 5002,
      "rÃŃn": 5003,
      "rÃ©s": 5004,
      "siÃ³n": 5005,
      "soles": 5006,
      "stitu": 5007,
      "tÃ©n": 5008,
      "tler": 5009,
      "ua": 5010,
      "ure": 5011,
      "ual": 5012,
      "uciÃ³n": 5013,
      "udÃ³": 5014,
      "ujar": 5015,
      "uper": 5016,
      "uterÃŃa": 5017,
      "vel": 5018,
      "val": 5019,
      "vol": 5020,
      "vino": 5021,
      "vamos": 5022,
      "viso": 5023,
      "zque": 5024,
      "zarse": 5025,
      "zgado": 5026,
      "Ġ.\"": 5027,
      "Ġdra": 5028,
      "Ġdent": 5029,
      "ĠdÃ¡ndole": 5030,
      "Ġderro": 5031,
      "Ġlin": 5032,
      "ĠlÃŃa": 5033,
      "Ġlis": 5034,
      "ensa": 5035,
      "enzuela": 5036,
      "Ġsar": 5037,
      "Ġsana": 5038,
      "Ġsiento": 5039,
      "Ġsarg": 5040,
      "Ġsastre": 5041,
      "Ġces": 5042,
      "Ġcic": 5043,
      "ĠcÃ©n": 5044,
      "ĠcrÃ³n": 5045,
      "Ġciego": 5046,
      "estes": 5047,
      "Ġadi": 5048,
      "Ġatar": 5049,
      "Ġatro": 5050,
      "Ġacep": 5051,
      "Ġajadas": 5052,
      "Ġaires": 5053,
      "Ġaviso": 5054,
      "ĠpÃŃ": 5055,
      "Ġpris": 5056,
      "Ġpela": 5057,
      "osita": 5058,
      "ospe": 5059,
      "erse": 5060,
      "erva": 5061,
      "Ġdecia": 5062,
      "Ġdemos": 5063,
      "Ġdetal": 5064,
      "Ġdepen": 5065,
      "are": 5066,
      "arda": 5067,
      "arle": 5068,
      "quiera": 5069,
      "quella": 5070,
      "Ġmier": 5071,
      "aste": 5072,
      "Ġquisi": 5073,
      "Ġquite": 5074,
      "Ġquieta": 5075,
      "ond": 5076,
      "onos": 5077,
      "orro": 5078,
      "orquera": 5079,
      "Ġtio": 5080,
      "Ġtall": 5081,
      "Ġtron": 5082,
      "anim": 5083,
      "anidad": 5084,
      "Ġlame": 5085,
      "ell": 5086,
      "elÃ©ndez": 5087,
      "Ġnoso": 5088,
      "Ġnub": 5089,
      "dote": 5090,
      "dole": 5091,
      "ÃŃto": 5092,
      "ÃŃso": 5093,
      "ÃŃgale": 5094,
      "tate": 5095,
      "tame": 5096,
      "ĠhuÃ©s": 5097,
      "Ġhondo": 5098,
      "Ġhuelo": 5099,
      "Ġhall": 5100,
      "Ġhospital": 5101,
      "Ġsean": 5102,
      "Ġseda": 5103,
      "ĠsecÃ³": 5104,
      "ĠsecciÃ³n": 5105,
      "reo": 5106,
      "recis": 5107,
      "Ġescar": 5108,
      "ĠvÃŃ": 5109,
      "Ġvelo": 5110,
      "Ġviente": 5111,
      "Ã³l": 5112,
      "Ã³so": 5113,
      "Ã³sito": 5114,
      "Ġenca": 5115,
      "Ġensa": 5116,
      "Ġenve": 5117,
      "Ġenanos": 5118,
      "Ġentran": 5119,
      "Ġengor": 5120,
      "Ġentraron": 5121,
      "daca": 5122,
      "dalo": 5123,
      "davÃŃa": 5124,
      "temp": 5125,
      "rag": 5126,
      "rata": 5127,
      "inar": 5128,
      "inal": 5129,
      "into": 5130,
      "ingun": 5131,
      "inario": 5132,
      "inister": 5133,
      "Ã¡is": 5134,
      "Ã¡zque": 5135,
      "Ã±ez": 5136,
      "Ã©vo": 5137,
      "Ã©lla": 5138,
      "ciera": 5139,
      "cidos": 5140,
      "cicio": 5141,
      "cipl": 5142,
      "cimiento": 5143,
      "cimientos": 5144,
      "ciÃ©ndose": 5145,
      "Ġnotario": 5146,
      "Ġnotarios": 5147,
      "ald": 5148,
      "alÃ¡": 5149,
      "Ġbis": 5150,
      "Ġbue": 5151,
      "Ġbrin": 5152,
      "Ġbellos": 5153,
      "Ġbelle": 5154,
      "abÃ©": 5155,
      "abÃ³n": 5156,
      "Ġcone": 5157,
      "Ġconqu": 5158,
      "Ġcondi": 5159,
      "Ġconcl": 5160,
      "Ġcontando": 5161,
      "tocha": 5162,
      "chi": 5163,
      "chada": 5164,
      "chado": 5165,
      "amba": 5166,
      "amora": 5167,
      "ril": 5168,
      "rida": 5169,
      "ridad": 5170,
      "ridos": 5171,
      "rique": 5172,
      "ritas": 5173,
      "rieron": 5174,
      "rificio": 5175,
      "Ġsul": 5176,
      "Ġsup": 5177,
      "Ġsupo": 5178,
      "Ġsupl": 5179,
      "Ġsufi": 5180,
      "Ġsuper": 5181,
      "ĠfÃŃ": 5182,
      "Ġfol": 5183,
      "ĠfrÃŃ": 5184,
      "ĠfÃŃjate": 5185,
      "Ġfantas": 5186,
      "Ġalmor": 5187,
      "Ġalmuer": 5188,
      "ĠEulo": 5189,
      "ĠEfectivamente": 5190,
      "coge": 5191,
      "Ġlocos": 5192,
      "Ġgla": 5193,
      "Ġglo": 5194,
      "Ġgir": 5195,
      "Ġgira": 5196,
      "Ġgrillo": 5197,
      "Ġgener": 5198,
      "isem": 5199,
      "isten": 5200,
      "istir": 5201,
      "ĠLuego": 5202,
      "usos": 5203,
      "tig": 5204,
      "tias": 5205,
      "tija": 5206,
      "tiza": 5207,
      "titas": 5208,
      "titos": 5209,
      "timo": 5210,
      "tible": 5211,
      "tivos": 5212,
      "tivamente": 5213,
      "tificiales": 5214,
      "Ġmeten": 5215,
      "dica": 5216,
      "deante": 5217,
      "late": 5218,
      "Ġpartes": 5219,
      "Ġparsim": 5220,
      "Ġobr": 5221,
      "Ġobl": 5222,
      "Ġopaca": 5223,
      "ĠMay": 5224,
      "ĠMelÃ©ndez": 5225,
      "ĠMinister": 5226,
      "Ġcoment": 5227,
      "Ġcomidas": 5228,
      "Ġportada": 5229,
      "Ġhagan": 5230,
      "ĠDire": 5231,
      "ĠDÃ©j": 5232,
      "ĠDiego": 5233,
      "Ġcub": 5234,
      "Ġcuece": 5235,
      "ĠsiÃ©n": 5236,
      "Ġsimpa": 5237,
      "Ġsiquiera": 5238,
      "goza": 5239,
      "lota": 5240,
      "ĠApo": 5241,
      "ĠAqui": 5242,
      "ĠAhÃŃ": 5243,
      "ĠAtocha": 5244,
      "cejo": 5245,
      "ĠPel": 5246,
      "ĠPab": 5247,
      "ĠPrado": 5248,
      "Ġestarse": 5249,
      "ĠestÃºp": 5250,
      "Ġestrope": 5251,
      "itaba": 5252,
      "ĠseÃ±oritos": 5253,
      "baciÃ³n": 5254,
      "Ġdij": 5255,
      "Ġdijer": 5256,
      "ĠdirÃ¡": 5257,
      "Ġdigas": 5258,
      "Ġdirig": 5259,
      "Ġdipu": 5260,
      "ĠpoÃ©": 5261,
      "Ġpoem": 5262,
      "ĠRom": 5263,
      "ĠRonda": 5264,
      "ĠCin": 5265,
      "ĠCort": 5266,
      "ĠCaball": 5267,
      "Ġdesco": 5268,
      "Ġdesma": 5269,
      "Ġdescos": 5270,
      "Ġdesanim": 5271,
      "ĠSil": 5272,
      "ĠSub": 5273,
      "ĠSard": 5274,
      "ĠSuena": 5275,
      "ĠSisem": 5276,
      "Ġparado": 5277,
      "Ġmimos": 5278,
      "Ġmimosa": 5279,
      "Ãºtil": 5280,
      "Ġrey": 5281,
      "Ġretra": 5282,
      "Ġreina": 5283,
      "Ġrecom": 5284,
      "Ġreac": 5285,
      "Ġrebel": 5286,
      "ĠLagarto": 5287,
      "guo": 5288,
      "gura": 5289,
      "gular": 5290,
      "cua": 5291,
      "cuda": 5292,
      "iles": 5293,
      "ilando": 5294,
      "Ġhable": 5295,
      "Ġhables": 5296,
      "ĠhabÃŃas": 5297,
      "ĠMari": 5298,
      "ĠMargar": 5299,
      "Ġcastel": 5300,
      "Ġcascada": 5301,
      "trando": 5302,
      "Ġviven": 5303,
      "Ġvivia": 5304,
      "Ġveter": 5305,
      "Ġvejez": 5306,
      "Ġecho": 5307,
      "Ġecon": 5308,
      "ĠVÃŃa": 5309,
      "ĠVay": 5310,
      "Ġnieto": 5311,
      "secre": 5312,
      "Ġverme": 5313,
      "Ġsota": 5314,
      "Ġsopl": 5315,
      "Ġsocial": 5316,
      "ĠestÃ¡te": 5317,
      "bito": 5318,
      "Ġinta": 5319,
      "Ġinvent": 5320,
      "Ġincomo": 5321,
      "Ġingles": 5322,
      "Ġintent": 5323,
      "ĠinÃºtil": 5324,
      "gate": 5325,
      "icÃ³": 5326,
      "ĠllÃ©": 5327,
      "Ġllanto": 5328,
      "Ġpasada": 5329,
      "Ġpasaron": 5330,
      "Ġtengamos": 5331,
      "ĠcallÃ³": 5332,
      "Ġcalendar": 5333,
      "uelve": 5334,
      "Ġandas": 5335,
      "Ġanivers": 5336,
      "Ġanestes": 5337,
      "oraciones": 5338,
      "Ġserenos": 5339,
      "ÃŃneas": 5340,
      "Ġteatro": 5341,
      "cerdote": 5342,
      "ĠJorquera": 5343,
      "Ġllegas": 5344,
      "Ġllegaba": 5345,
      "Ġcho": 5346,
      "Ġchoco": 5347,
      "Ġcartas": 5348,
      "Ġmandil": 5349,
      "Ġmangante": 5350,
      "Ġhilo": 5351,
      "Ġhicieron": 5352,
      "Ġcaen": 5353,
      "Ġcate": 5354,
      "ĠcaÃ±a": 5355,
      "Ġcaiga": 5356,
      "torcha": 5357,
      "Ġcodo": 5358,
      "Ġcoba": 5359,
      "Ġcoja": 5360,
      "Ġcobr": 5361,
      "Ġcopas": 5362,
      "Ġcojeando": 5363,
      "Ġvaga": 5364,
      "ĠvacÃŃa": 5365,
      "ĠvacÃŃ": 5366,
      "ĠvacÃŃo": 5367,
      "Ã¡ndalo": 5368,
      "Ġpagado": 5369,
      "Ġpatio": 5370,
      "Ġparecer": 5371,
      "Ġparejas": 5372,
      "Ġperdida": 5373,
      "Ġtrataba": 5374,
      "Ġtrage": 5375,
      "ĠtraiciÃ³n": 5376,
      "ĠamÃ©n": 5377,
      "Ġamane": 5378,
      "Ġsala": 5379,
      "Ġsalida": 5380,
      "Ġsaludar": 5381,
      "teras": 5382,
      "ternidad": 5383,
      "ĠTel": 5384,
      "ĠTampoco": 5385,
      "Ġdoscientos": 5386,
      "Ġron": 5387,
      "Ġrub": 5388,
      "ĠrÃŃo": 5389,
      "Ġrosas": 5390,
      "Ġronca": 5391,
      "ĠFu": 5392,
      "ĠFru": 5393,
      "Ġllamaban": 5394,
      "ĠllamÃ¡ndole": 5395,
      "trem": 5396,
      "tremo": 5397,
      "Ġjar": 5398,
      "Ġjur": 5399,
      "Ġjura": 5400,
      "Ġtitu": 5401,
      "Ġpuedes": 5402,
      "urel": 5403,
      "joso": 5404,
      "Ġargu": 5405,
      "Ġarran": 5406,
      "Ġarrim": 5407,
      "Ġartificiales": 5408,
      "ĠEstuvo": 5409,
      "Ġmare": 5410,
      "Ġmarca": 5411,
      "Ġmarica": 5412,
      "Ġmareo": 5413,
      "ĠacÃ¡": 5414,
      "ĠacciÃ³n": 5415,
      "Ġacabe": 5416,
      "Ġactitud": 5417,
      "Ġpica": 5418,
      "Ġpipp": 5419,
      "Ġasun": 5420,
      "Ġasco": 5421,
      "Ġascen": 5422,
      "Ġasiento": 5423,
      "Ġasquer": 5424,
      "Ġasalta": 5425,
      "Ġmato": 5426,
      "Ġpechos": 5427,
      "Ġpedido": 5428,
      "ĠpedÃŃa": 5429,
      "Ġpetaca": 5430,
      "ĠEncima": 5431,
      "ĠEngracia": 5432,
      "Ġahi": 5433,
      "media": 5434,
      "ĠaquÃ©lla": 5435,
      "Ġprecios": 5436,
      "Ġapos": 5437,
      "Ġapara": 5438,
      "Ġpropor": 5439,
      "Ġabuela": 5440,
      "rÃŃamos": 5441,
      "carse": 5442,
      "ĠÃ©po": 5443,
      "ĠÃ©sos": 5444,
      "ĠAlba": 5445,
      "ĠAlgÃºn": 5446,
      "Ġhacerte": 5447,
      "Ġmejilla": 5448,
      "Ġcrea": 5449,
      "ĠcreyÃ³": 5450,
      "Ġvena": 5451,
      "ĠGabri": 5452,
      "Ġbajar": 5453,
      "aragoza": 5454,
      "Ġcompon": 5455,
      "ĠOl": 5456,
      "ĠOn": 5457,
      "ĠHe": 5458,
      "Ġimpreci": 5459,
      "Ġimprecis": 5460,
      "Ġesposa": 5461,
      "Ġespabil": 5462,
      "Ġcintura": 5463,
      "icolÃ¡s": 5464,
      "ĠLeo": 5465,
      "bramos": 5466,
      "ĠNingun": 5467,
      "ĠNicolÃ¡s": 5468,
      "Ġexa": 5469,
      "Ġexiste": 5470,
      "Ġextiende": 5471,
      "Ġextremo": 5472,
      "cencias": 5473,
      "Ġempujar": 5474,
      "Ġtuviese": 5475,
      "Ġtuvieron": 5476,
      "Ġtuberculos": 5477,
      "Ġsacerdote": 5478,
      "Ġprom": 5479,
      "Ġprue": 5480,
      "Ġprender": 5481,
      "ĠmÃŃos": 5482,
      "Ġcorder": 5483,
      "Ġguste": 5484,
      "Ġresto": 5485,
      "ĠraquÃŃ": 5486,
      "Ġrazones": 5487,
      "ubl": 5488,
      "Ġdispar": 5489,
      "Ġdisplic": 5490,
      "Ġdiscipl": 5491,
      "Ġsabio": 5492,
      "Ġsabido": 5493,
      "ĠsabrÃ¡": 5494,
      "ĠsabÃ©is": 5495,
      "Ġescasa": 5496,
      "ĠescÃ¡ndalo": 5497,
      "Ġcabezas": 5498,
      "Ġcabecera": 5499,
      "Ġnacido": 5500,
      "Ġnacieron": 5501,
      "Ġmedicinas": 5502,
      "ĠIgna": 5503,
      "ĠJuliÃ¡n": 5504,
      "Ġroja": 5505,
      "Ġrobar": 5506,
      "Ġropero": 5507,
      "Ġdure": 5508,
      "ĠcolgÃ³": 5509,
      "Ġbares": 5510,
      "ĠMagdal": 5511,
      "raron": 5512,
      "Ġdejan": 5513,
      "Ġdejemos": 5514,
      "Ġdejaban": 5515,
      "Ġtarima": 5516,
      "Ġguardan": 5517,
      "Ġvolviendo": 5518,
      "Ġdecirte": 5519,
      "Ġentriste": 5520,
      "rista": 5521,
      "Ġmovi": 5522,
      "Ġmodelo": 5523,
      "ĠmohÃŃn": 5524,
      "Ġtrescientos": 5525,
      "Ġtienda": 5526,
      "Ġpalos": 5527,
      "Ġpalmas": 5528,
      "Ġtoman": 5529,
      "Ġtomando": 5530,
      "Ġhubo": 5531,
      "ĠestarÃ¡n": 5532,
      "Ġfaltan": 5533,
      "ĠUno": 5534,
      "ĠUnos": 5535,
      "Ġdurm": 5536,
      "Ġdurar": 5537,
      "Ġpresta": 5538,
      "Ġpresur": 5539,
      "Ġpresenti": 5540,
      "Ġhermosa": 5541,
      "Ġentrecejo": 5542,
      "Ġfing": 5543,
      "Ġfinos": 5544,
      "Ġfinada": 5545,
      "ĠFigueras": 5546,
      "Ġpuente": 5547,
      "Ġrepas": 5548,
      "Ġeches": 5549,
      "Ġechan": 5550,
      "Ġechaba": 5551,
      "ĠriÃ±": 5552,
      "cienda": 5553,
      "Ġbasura": 5554,
      "lorca": 5555,
      "Ġbollos": 5556,
      "Ġinsom": 5557,
      "Ġinsig": 5558,
      "Ġcerdo": 5559,
      "Ġ(Â¡": 5560,
      "Ġsoli": 5561,
      "Ġsolas": 5562,
      "quila": 5563,
      "quiosa": 5564,
      "igaciÃ³n": 5565,
      "ĠbesÃ©": 5566,
      "Ġmuertas": 5567,
      "ĠtÃŃos": 5568,
      "ĠtÃŃter": 5569,
      "Ġfiesta": 5570,
      "parte": 5571,
      "llate": 5572,
      "Ġenferm": 5573,
      "ĠAnde": 5574,
      "ĠAnduvo": 5575,
      "ĠsonrÃŃen": 5576,
      "Ġcierre": 5577,
      "Ġcierra": 5578,
      "Ġciertos": 5579,
      "Ġciertamente": 5580,
      "Ġfumo": 5581,
      "Ġfutura": 5582,
      "ĠNavar": 5583,
      "Ġcantan": 5584,
      "Ġestuvier": 5585,
      "Ġestupidez": 5586,
      "adoras": 5587,
      "illada": 5588,
      "Ġimportar": 5589,
      "gase": 5590,
      "ĠmirÃ¡ndose": 5591,
      "Ġescrito": 5592,
      "ĠlarÃ¡n": 5593,
      "Ġlargos": 5594,
      "Ġclien": 5595,
      "ĠclÃ¡s": 5596,
      "Ġpostre": 5597,
      "Ġpostura": 5598,
      "Ġpostiza": 5599,
      "Ġgolfe": 5600,
      "Ġgolfas": 5601,
      "Ġgolfos": 5602,
      "Ġprimeros": 5603,
      "Ġprimicias": 5604,
      "Ġconoces": 5605,
      "Ġconocido": 5606,
      "cinueve": 5607,
      "Ġlila": 5608,
      "Ġliter": 5609,
      "Ġbuscaba": 5610,
      "Ġhablarla": 5611,
      "Ġlevantando": 5612,
      "ĠpasarÃ©": 5613,
      "Ġpollo": 5614,
      "Ġnuevos": 5615,
      "Ġnuevas": 5616,
      "Ġcomercio": 5617,
      "ĠtranvÃŃa": 5618,
      "Ġcuerda": 5619,
      "Ġconfun": 5620,
      "ĠCongreso": 5621,
      "ĠSociedad": 5622,
      "Ġbocacal": 5623,
      "ĠarreglÃ³": 5624,
      "port": 5625,
      "Ġblancos": 5626,
      "Ġviolenta": 5627,
      "Ġviolentos": 5628,
      "Ġpasea": 5629,
      "Ġjug": 5630,
      "Ġjugando": 5631,
      "Ġjuvent": 5632,
      "Ġjuzgado": 5633,
      "Ġjuegos": 5634,
      "calip": 5635,
      "ĠdÃ©bil": 5636,
      "Ġderechas": 5637,
      "Ġplata": 5638,
      "Ġmonja": 5639,
      "Ġmonjas": 5640,
      "Ġmorales": 5641,
      "Ġregis": 5642,
      "Ġpensarlo": 5643,
      "Ġcolorada": 5644,
      "mpara": 5645,
      "Ġazor": 5646,
      "Ġencuen": 5647,
      "cionamiento": 5648,
      "Ġhaberse": 5649,
      "Ġdormido": 5650,
      "Ġpesa": 5651,
      "Ġsuelto": 5652,
      "Ġfoca": 5653,
      "Ġfotos": 5654,
      "Ġrubios": 5655,
      "Ġtristemente": 5656,
      "Ġmosca": 5657,
      "Ġdespierta": 5658,
      "ĠÃºltimas": 5659,
      "ĠcenÃ³": 5660,
      "Ġvisita": 5661,
      "ĠSans": 5662,
      "Ġchapa": 5663,
      "Ġbordado": 5664,
      "Ġmirarle": 5665,
      "Ġroman": 5666,
      "Ġromper": 5667,
      "ĠpreguntÃ³": 5668,
      "Ġpreguntaba": 5669,
      "ĠlÃ¡mpar": 5670,
      "ĠlÃ¡mpara": 5671,
      "Ġdebemos": 5672,
      "Ġflores": 5673,
      "ĠRey": 5674,
      "Ġandares": 5675,
      "siones": 5676,
      "triz": 5677,
      "Ġcruza": 5678,
      "estamento": 5679,
      "ĠmÃ©dicos": 5680,
      "Ġcontestar": 5681,
      "dirse": 5682,
      "Ġatrevido": 5683,
      "Ġnovel": 5684,
      "Ġmeterme": 5685,
      "Ġmeternos": 5686,
      "Ġpeores": 5687,
      "Ġahorrar": 5688,
      "Ġahorrando": 5689,
      "Ġsentaron": 5690,
      "ĠtritÃ³n": 5691,
      "ĠleyÃ³": 5692,
      "Ġculpa": 5693,
      "Ġrevol": 5694,
      "Ġcomprarse": 5695,
      "mentaciÃ³n": 5696,
      "Ġsorpres": 5697,
      "Ġsortija": 5698,
      "Ġbancos": 5699,
      "Ġrecibi": 5700,
      "Ġlloraba": 5701,
      "Ġacostado": 5702,
      "turalmente": 5703,
      "Ġolvidar": 5704,
      "Ġolvides": 5705,
      "Ġdulces": 5706,
      "ĠdecÃŃan": 5707,
      "Ġdesapren": 5708,
      "Ġdesagrada": 5709,
      "Ġdesnu": 5710,
      "Ġapoyada": 5711,
      "Ġrespeta": 5712,
      "Ġdejarla": 5713,
      "Ġayuda": 5714,
      "dillos": 5715,
      "Ġocurrido": 5716,
      "Ġprofunda": 5717,
      "varrÃŃa": 5718,
      "Ġilumin": 5719,
      "Ġligeramente": 5720,
      "Ġtiernos": 5721,
      "ĠescapÃ³": 5722,
      "Ġenteras": 5723,
      "Ġbronca": 5724,
      "Ġbondad": 5725,
      "ĠganÃ³": 5726,
      "Ġganando": 5727,
      "Ġganado": 5728,
      "Ġdescub": 5729,
      "Ġchinitos": 5730,
      "Ġguapas": 5731,
      "ĠÃīse": 5732,
      "Ġgozo": 5733,
      "Ġdiecinueve": 5734,
      "ĠsonreÃŃa": 5735,
      "ĠexprÃ©s": 5736,
      "Ġzapatillas": 5737,
      "tienes": 5738,
      "Ġdedica": 5739,
      "Ġdedicaba": 5740,
      "Ġelegantes": 5741,
      "Ġsirven": 5742,
      "ceptible": 5743,
      "ĠSonsoles": 5744,
      "Ġcamisa": 5745,
      "ĠartÃŃ": 5746,
      "Ġabiertos": 5747,
      "Ġcorrientes": 5748,
      "Ġfijado": 5749,
      "Ġfijador": 5750,
      "Ġtrabajador": 5751,
      "Ġpreocupes": 5752,
      "MamÃ¡": 5753,
      "Ġsencillo": 5754,
      "ĠsensaciÃ³n": 5755,
      "Ġclases": 5756,
      "Ġtose": 5757,
      "Ġhogar": 5758,
      "Ġhojas": 5759,
      "Ġentendido": 5760,
      "ĠentrarÃ¡": 5761,
      "ĠcompaÃ±ero": 5762,
      "ĠcompaÃ±era": 5763,
      "Ġdeseo": 5764,
      "Ġvirtu": 5765,
      "Ġsolapa": 5766,
      "ĠtendrÃ¡": 5767,
      "ĠtendrÃŃa": 5768,
      "ĠtendrÃ¡n": 5769,
      "ĠTrini": 5770,
      "Ġrelu": 5771,
      "Ġmiseria": 5772,
      "Ġmiserables": 5773,
      "ĠvolverÃ©": 5774,
      "Ġbuscarla": 5775,
      "Ġsombrer": 5776,
      "Ġdespreci": 5777,
      "Ġimagin": 5778,
      "Ġdesgraciada": 5779,
      "Ġduermen": 5780,
      "Ġpuls": 5781,
      "Ġpulso": 5782,
      "ĠdeberÃŃan": 5783,
      "quilib": 5784,
      "Ġtrozo": 5785,
      "Ġbigotu": 5786,
      "Ġgritos": 5787,
      "Ġgritan": 5788,
      "Ġobs": 5789,
      "Ġobras": 5790,
      "Ġdifunto": 5791,
      "ĠCastilla": 5792,
      "Ġhijito": 5793,
      "Ġjuntas": 5794,
      "ĠaprendiÃ³": 5795,
      "ĠpropÃ³sito": 5796,
      "Ġresulta": 5797,
      "Ġcansado": 5798,
      "Ġmorirme": 5799,
      "ĠpreocupaciÃ³n": 5800,
      "Ġgrueso": 5801,
      "ĠÃĵ": 5802,
      "Ġjadeante": 5803,
      "Ġpiensas": 5804,
      "Ġdefen": 5805,
      "ĠquitÃ³": 5806,
      "Ġnarices": 5807,
      "Ġhonesto": 5808,
      "Ġcontraria": 5809,
      "Ġmuebles": 5810,
      "ĠChur": 5811,
      "ĠChina": 5812,
      "Ġcoloca": 5813,
      "Ġcolocar": 5814,
      "Ġpropietario": 5815,
      "ĠBernabÃ©": 5816,
      "Ġpresentaron": 5817,
      "Ġlevantara": 5818,
      "CuÃ¡nto": 5819,
      "Ġhumildad": 5820,
      "Ġhumildes": 5821,
      "Ġcomprome": 5822,
      "Ġpantalones": 5823,
      "posiciÃ³n": 5824,
      "Ġcircula": 5825,
      "ĠapagÃ³": 5826,
      "quieres": 5827,
      "Ġbebiendo": 5828,
      "ĠsueÃ±os": 5829,
      "ĠfilÃ³so": 5830,
      "ĠfrunciÃ³": 5831,
      "Ġejemplar": 5832,
      "Ġcarcajada": 5833,
      "ĠSeguridad": 5834,
      "ermint": 5835,
      "fectante": 5836,
      "Ġencontraba": 5837,
      "AhÃŃ": 5838,
      "Padilla": 5839,
      "actamente": 5840,
      "Ġwhis": 5841,
      "Ġafortun": 5842,
      "Ġaseguro": 5843,
      "Ġaseguraba": 5844,
      "Ġtumba": 5845,
      "elloso": 5846,
      "Ġhubi": 5847,
      "Ġflaco": 5848,
      "Ġofrecido": 5849,
      "ĠMallorca": 5850,
      "Ġcumplido": 5851,
      "ĠPalma": 5852,
      "ĠPalenzuela": 5853,
      "Ġreticencias": 5854,
      "Ġsobrar": 5855,
      "Ġrendida": 5856,
      "ĠarmÃ³": 5857,
      "Estamos": 5858,
      "Ġprecisa": 5859,
      "Ġpreparando": 5860,
      "Ġpreparado": 5861,
      "Ġabstra": 5862,
      "ĠAlgunos": 5863,
      "Ġespalda": 5864,
      "Ġbotella": 5865,
      "Ġbotellas": 5866,
      "Ġbotellines": 5867,
      "Ġdiscurre": 5868,
      "Ġnegocios": 5869,
      "Ġequivocado": 5870,
      "Ġbrillantes": 5871,
      "pÃ³sito": 5872,
      "ĠZamora": 5873,
      "ĠZaragoza": 5874,
      "Ġllaves": 5875,
      "Ġacuesta": 5876,
      "Ġsemana": 5877,
      "ĠenseÃ±ar": 5878,
      "ĠfrancÃ©s": 5879,
      "Ġfrase": 5880,
      "Ġgalante": 5881,
      "Ġcumpla": 5882,
      "ĠCivil": 5883,
      "Ġeducada": 5884,
      "ĠeducaciÃ³n": 5885,
      "Ġindifer": 5886,
      "ĠintenciÃ³n": 5887,
      "Ġinmenso": 5888,
      "Ġdiscreta": 5889,
      "Ġrodeada": 5890,
      "Ġrodeado": 5891,
      "Ġoscuro": 5892,
      "Ġoscuras": 5893,
      "ĠrespirÃ³": 5894,
      "Ġdomingo": 5895,
      "Ġagradecido": 5896,
      "Ġagradecimiento": 5897,
      "ĠacompaÃ±aba": 5898,
      "ĠemociÃ³n": 5899,
      "Ġemocionada": 5900,
      "ctuosa": 5901,
      "ĠsoÃ±ador": 5902,
      "ĠsoÃ±adores": 5903,
      "ĠtrÃ¡eme": 5904,
      "Ġhelado": 5905,
      "ĠengaÃ±": 5906,
      "ĠExuper": 5907,
      "Ġdespide": 5908,
      "Ġrepetir": 5909,
      "Ġreflejo": 5910,
      "Ġevitar": 5911,
      "Ġevidente": 5912,
      "Ġejercer": 5913,
      "Ġejercicio": 5914,
      "Ġsolemnidad": 5915,
      "Ġintelig": 5916,
      "Ġllenas": 5917,
      "Ġarrastrando": 5918,
      "ĠacariciÃ³": 5919,
      "Ġpegaron": 5920,
      "Ġaprove": 5921,
      "ĠaprobaciÃ³n": 5922,
      "Ġcompases": 5923,
      "ĠHitler": 5924,
      "Ġdisgusto": 5925,
      "Ġfiguraba": 5926,
      "Ġconformaba": 5927,
      "ĠrespondiÃ³": 5928,
      "Ġresponder": 5929,
      "Ġtemblaba": 5930,
      "Ġbandeja": 5931,
      "Ġbandejas": 5932,
      "Ġmadruga": 5933,
      "Perdona": 5934,
      "Ġsosiego": 5935,
      "Ġcele": 5936,
      "Ġagarro": 5937,
      "ĠmasÃ³n": 5938,
      "Ġnudillos": 5939,
      "Ġconsecu": 5940,
      "ĠcontribuciÃ³n": 5941,
      "Ġfrecuencia": 5942,
      "Ġgemel": 5943,
      "Ġmuslos": 5944,
      "ĠocasiÃ³n": 5945,
      "Ġocasiones": 5946,
      "ĠdivÃ¡n": 5947,
      "Ġrecoger": 5948,
      "Ġinocencia": 5949,
      "Ġsonriente": 5950,
      "Ġsonriendo": 5951,
      "Ġcafetera": 5952,
      "Ġcafetito": 5953,
      "Ġahogado": 5954,
      "ĠGlorieta": 5955,
      "ĠHabÃŃa": 5956,
      "ĠHabla": 5957,
      "Ġimpertin": 5958,
      "Ġimperceptible": 5959,
      "Ġsacrificio": 5960,
      "ĠprÃ³ximas": 5961,
      "Ġpalomino": 5962,
      "Ġconsultorio": 5963,
      "Ġpiedra": 5964,
      "Ġpiedras": 5965,
      "Ġadquirirlo": 5966,
      "ĠMontesa": 5967,
      "Ġenfermedades": 5968,
      "Ġescaparate": 5969,
      "Ġescaparates": 5970,
      "Ġantiguos": 5971,
      "Ġentornados": 5972,
      "Marco": 5973,
      "Parece": 5974,
      "TÃ³malo": 5975,
      "mbulos": 5976,
      "Ġsesenta": 5977,
      "Ġadop": 5978,
      "Ġsemejante": 5979,
      "Ã³gica": 5980,
      "Ġbaboso": 5981,
      "Ġbillares": 5982,
      "Ġcontigo": 5983,
      "Ġalemanes": 5984,
      "ĠEchevarrÃŃa": 5985,
      "Ġgenio": 5986,
      "Ġoperar": 5987,
      "ĠMerce": 5988,
      "Ġsiglo": 5989,
      "Ġdesalmados": 5990,
      "Ġmirase": 5991,
      "Ġredactar": 5992,
      "Ġevadido": 5993,
      "Ġinvadir": 5994,
      "Ġcalcetines": 5995,
      "Ġcachonda": 5996,
      "Ġcamelia": 5997,
      "Ġperfum": 5998,
      "ĠTomelloso": 5999,
      "Ġradiante": 6000,
      "ĠcolaboraciÃ³n": 6001,
      "Ġmoverse": 6002,
      "ĠlÃ¡piz": 6003,
      "ĠdecÃŃrselo": 6004,
      "ĠsimpÃ¡tica": 6005,
      "Ġdistinguir": 6006,
      "Ġatavismo": 6007,
      "Ġprimavera": 6008,
      "Ġabsoluta": 6009,
      "Ġorgullosa": 6010,
      "ĠconsideraciÃ³n": 6011,
      "ĠcontinuÃ³": 6012,
      "ĠpÃ¡ginas": 6013,
      "Ġcoincide": 6014,
      "Ġsatisfecho": 6015,
      "Ġacostumbrada": 6016,
      "Ġalmohada": 6017,
      "Comer": 6018,
      "Llevas": 6019,
      "Naturalmente": 6020,
      "picaz": 6021,
      "ĠÃ¡rboles": 6022,
      "Ġlimbo": 6023,
      "Ġnenes": 6024,
      "Ġnormal": 6025,
      "Ġhambr": 6026,
      "Ġhuevo": 6027,
      "Ġvisitar": 6028,
      "Ġenhiesto": 6029,
      "Ġsuministro": 6030,
      "Ġfurcia": 6031,
      "Ġmezclado": 6032,
      "Ġobediente": 6033,
      "Ġcuernos": 6034,
      "ĠPienso": 6035,
      "ĠPrimero": 6036,
      "Ġdesinfectante": 6037,
      "Ġdeslomado": 6038,
      "Ġreojo": 6039,
      "ĠmÃ¡scara": 6040,
      "Ġeucalip": 6041,
      "Ġhombros": 6042,
      "Ġvahos": 6043,
      "Ġsaludable": 6044,
      "ĠTauste": 6045,
      "ĠrincÃ³n": 6046,
      "Ġrelaciones": 6047,
      "Ġrosetones": 6048,
      "Ġmariposita": 6049,
      "ĠsuspirÃ³": 6050,
      "Ġasistentas": 6051,
      "Ġorejas": 6052,
      "Ġrepugnancia": 6053,
      "ĠdocumentaciÃ³n": 6054,
      "clamÃ³": 6055,
      "Ġbecerro": 6056,
      "Ġdebilidad": 6057,
      "Ġtemblaron": 6058,
      "Ġdulzura": 6059,
      "Ġprofesor": 6060,
      "Ġplanchadoras": 6061,
      "Ġguapetona": 6062,
      "Ġobsequiosa": 6063,
      "ĠdistraÃŃdamente": 6064,
      "Ġfrancesas": 6065,
      "Ġintelectuales": 6066,
      "ĠmÃ¡rmol": 6067,
      "Bah": 6068,
      "CÃ¡llate": 6069,
      "OjalÃ¡": 6070,
      "lutada": 6071,
      "Ġdentista": 6072,
      "Ġatropel": 6073,
      "Ġmierda": 6074,
      "Ġnosotras": 6075,
      "ĠhuÃ©spe": 6076,
      "Ġvientecillo": 6077,
      "Ġenveje": 6078,
      "Ã¡zquez": 6079,
      "Ã©volo": 6080,
      "ĠbisuterÃŃa": 6081,
      "Ġbuey": 6082,
      "Ġbelleza": 6083,
      "Ġconclus": 6084,
      "Ġalmorzar": 6085,
      "ĠEulogia": 6086,
      "Ġgladi": 6087,
      "Ġgenerales": 6088,
      "Ġparsimonia": 6089,
      "ĠobligaciÃ³n": 6090,
      "ĠMayor": 6091,
      "ĠsimpatÃŃa": 6092,
      "ĠApodaca": 6093,
      "Ġdiputado": 6094,
      "ĠCortÃ©s": 6095,
      "Ġdescosido": 6096,
      "ĠSubsecre": 6097,
      "ĠSardina": 6098,
      "ĠSisemÃ³n": 6099,
      "Ġretrato": 6100,
      "ĠMargarita": 6101,
      "Ġcastellan": 6102,
      "ĠeconÃ³m": 6103,
      "ĠVayase": 6104,
      "Ġcalendario": 6105,
      "Ġanestesia": 6106,
      "Ġcobrando": 6107,
      "ĠvacÃŃos": 6108,
      "Ġtragedias": 6109,
      "Ġrubor": 6110,
      "ĠFructuosa": 6111,
      "Ġpippermint": 6112,
      "Ġascensor": 6113,
      "Ġasquerosa": 6114,
      "ĠÃ©poca": 6115,
      "ĠGabriel": 6116,
      "ĠraquÃŃtico": 6117,
      "ĠIgnacio": 6118,
      "ĠMagdalena": 6119,
      "ĠNavarre": 6120,
      "Ġestuvieran": 6121,
      "Ġbocacalle": 6122,
      "Ġjuventud": 6123,
      "ĠlÃ¡mparas": 6124,
      "Ġsorpresa": 6125,
      "Ġdesaprensivo": 6126,
      "ĠcirculaciÃ³n": 6127,
      "Ġwhisky": 6128,
      "Ġeucaliptus": 6129,
      "ĠSubsecretario": 6130,
      "!)": 6131,
      "!-": 6132,
      "!.": 6133,
      "!...": 6134,
      "\";": 6135,
      "\"?": 6136,
      "?)": 6137,
      "?.": 6138,
      "?\",": 6139,
      "Ano": 6140,
      "AquÃ©": 6141,
      "Asi": 6142,
      "Aunque": 6143,
      "Burro": 6144,
      "Cer": 6145,
      "Cas": 6146,
      "Cre": 6147,
      "CÃ³": 6148,
      "Diga": 6149,
      "Dale": 6150,
      "DÃŃgale": 6151,
      "Era": 6152,
      "Gu": 6153,
      "He": 6154,
      "IL": 6155,
      "IM": 6156,
      "IN": 6157,
      "Jo": 6158,
      "JabÃ³n": 6159,
      "LA": 6160,
      "Llam": 6161,
      "Luis": 6162,
      "Luch": 6163,
      "Lond": 6164,
      "Mor": 6165,
      "Mad": 6166,
      "Madre": 6167,
      "Menos": 6168,
      "OS": 6169,
      "Pro": 6170,
      "Pier": 6171,
      "Pasa": 6172,
      "Roque": 6173,
      "Suer": 6174,
      "Sabe": 6175,
      "Santa": 6176,
      "Soy": 6177,
      "SerÃŃa": 6178,
      "Servi": 6179,
      "SultÃ¡n": 6180,
      "Tan": 6181,
      "Tra": 6182,
      "Tres": 6183,
      "Trin": 6184,
      "Tampoco": 6185,
      "UE": 6186,
      "Villa": 6187,
      "Vea": 6188,
      "aqu": 6189,
      "ato": 6190,
      "ajo": 6191,
      "acciÃ³n": 6192,
      "ajes": 6193,
      "bÃŃ": 6194,
      "bora": 6195,
      "bras": 6196,
      "bara": 6197,
      "biendo": 6198,
      "bena": 6199,
      "billa": 6200,
      "bÃºs": 6201,
      "bunda": 6202,
      "buena": 6203,
      "binaciÃ³n": 6204,
      "cra": 6205,
      "cri": 6206,
      "cro": 6207,
      "cla": 6208,
      "cue": 6209,
      "cente": 6210,
      "cosa": 6211,
      "cter": 6212,
      "ctro": 6213,
      "clas": 6214,
      "camos": 6215,
      "ctura": 6216,
      "cable": 6217,
      "ccion": 6218,
      "ctamente": 6219,
      "ccidas": 6220,
      "dre": 6221,
      "dista": 6222,
      "drez": 6223,
      "dÃ³nde": 6224,
      "drado": 6225,
      "drÃ©": 6226,
      "dremos": 6227,
      "dÃŃsimo": 6228,
      "dmundo": 6229,
      "ef": 6230,
      "edad": 6231,
      "ecido": 6232,
      "edores": 6233,
      "fen": 6234,
      "fam": 6235,
      "fier": 6236,
      "fita": 6237,
      "fug": 6238,
      "gon": 6239,
      "gÃ¡": 6240,
      "gente": 6241,
      "gico": 6242,
      "gados": 6243,
      "grÃ¡": 6244,
      "gadas": 6245,
      "ha": 6246,
      "hr": 6247,
      "har": 6248,
      "has": 6249,
      "hor": 6250,
      "hum": 6251,
      "hay": 6252,
      "ij": 6253,
      "it": 6254,
      "ies": 6255,
      "ilo": 6256,
      "iÃ±a": 6257,
      "ijo": 6258,
      "itar": 6259,
      "idar": 6260,
      "ibe": 6261,
      "ieg": 6262,
      "ilado": 6263,
      "iadora": 6264,
      "iritu": 6265,
      "iducho": 6266,
      "idur": 6267,
      "jon": 6268,
      "jando": 6269,
      "jir": 6270,
      "jones": 6271,
      "jito": 6272,
      "jitas": 6273,
      "juri": 6274,
      "justi": 6275,
      "king": 6276,
      "lÃ³n": 6277,
      "lando": 6278,
      "lera": 6279,
      "laba": 6280,
      "lese": 6281,
      "lomo": 6282,
      "ltitud": 6283,
      "mer": 6284,
      "mÃ³": 6285,
      "mÃ¡": 6286,
      "mÃ©": 6287,
      "mando": 6288,
      "mbre": 6289,
      "mul": 6290,
      "mio": 6291,
      "mÃ©n": 6292,
      "mones": 6293,
      "mese": 6294,
      "merÃŃa": 6295,
      "muy": 6296,
      "mÃ¡tico": 6297,
      "ner": 6298,
      "nÃ¡": 6299,
      "nido": 6300,
      "neg": 6301,
      "nillo": 6302,
      "nillada": 6303,
      "oh": 6304,
      "olo": 6305,
      "ofar": 6306,
      "pan": 6307,
      "pra": 6308,
      "pis": 6309,
      "pÃŃn": 6310,
      "paba": 6311,
      "pia": 6312,
      "pur": 6313,
      "plan": 6314,
      "peros": 6315,
      "rones": 6316,
      "rerÃŃa": 6317,
      "ste": 6318,
      "sita": 6319,
      "sico": 6320,
      "sano": 6321,
      "scur": 6322,
      "suele": 6323,
      "tiendo": 6324,
      "tÃ¡ndose": 6325,
      "tÃ¡ndo": 6326,
      "tÃ¡ndole": 6327,
      "tonas": 6328,
      "uza": 6329,
      "uran": 6330,
      "ume": 6331,
      "uciones": 6332,
      "vÃŃ": 6333,
      "vada": 6334,
      "vora": 6335,
      "vana": 6336,
      "velo": 6337,
      "vanta": 6338,
      "vÃ©s": 6339,
      "veme": 6340,
      "ventado": 6341,
      "visiÃ³n": 6342,
      "xible": 6343,
      "yos": 6344,
      "yente": 6345,
      "yados": 6346,
      "yerÃŃa": 6347,
      "yendo": 6348,
      "zan": 6349,
      "zmente": 6350,
      "zona": 6351,
      "znÃ¡": 6352,
      "Ġ'": 6353,
      "ĠK": 6354,
      "ĠQ": 6355,
      "ĠÃ¡s": 6356,
      "Ġita": 6357,
      "Ġul": 6358,
      "ĠÃŃn": 6359,
      "ĠÃ©n": 6360,
      "ĠÃ¡tico": 6361,
      "ĠoraciÃ³n": 6362,
      "ĠQuer": 6363,
      "Ġisla": 6364,
      "Ġoraciones": 6365,
      "ĠdÃ³": 6366,
      "ĠdÃ¡ndose": 6367,
      "Ġduelo": 6368,
      "Ġdieran": 6369,
      "Ġdamas": 6370,
      "Ġlun": 6371,
      "Ġlus": 6372,
      "Ġllo": 6373,
      "Ġlic": 6374,
      "Ġlul": 6375,
      "Ġlana": 6376,
      "ĠliÃ³": 6377,
      "Ġlenti": 6378,
      "ĠlÃ¡r": 6379,
      "ĠlÃŃo": 6380,
      "Ġlumin": 6381,
      "ĠlÃŃneas": 6382,
      "enzo": 6383,
      "Ġsmo": 6384,
      "Ġsano": 6385,
      "ĠcÃ³": 6386,
      "Ġcad": 6387,
      "ĠcoÃ±a": 6388,
      "Ġclan": 6389,
      "Ġceg": 6390,
      "Ġcere": 6391,
      "Ġcentro": 6392,
      "Ġceno": 6393,
      "Ġczar": 6394,
      "ĠcÃ¡r": 6395,
      "Ġcrin": 6396,
      "Ġcesta": 6397,
      "ĠcÃ³m": 6398,
      "Ġcentra": 6399,
      "eso": 6400,
      "estos": 6401,
      "estar": 6402,
      "estan": 6403,
      "esante": 6404,
      "estran": 6405,
      "Ġaco": 6406,
      "Ġago": 6407,
      "Ġamo": 6408,
      "Ġaje": 6409,
      "ĠatÃ³n": 6410,
      "Ġagos": 6411,
      "Ġaull": 6412,
      "Ġatiende": 6413,
      "ĠpÃ³n": 6414,
      "Ġpad": 6415,
      "Ġpera": 6416,
      "Ġpil": 6417,
      "Ġposa": 6418,
      "Ġpura": 6419,
      "ĠplÃ¡": 6420,
      "eran": 6421,
      "erÃ³n": 6422,
      "erito": 6423,
      "erlos": 6424,
      "erÃŃas": 6425,
      "eresa": 6426,
      "Ġdedo": 6427,
      "Ġdego": 6428,
      "Ġdevo": 6429,
      "Ġdeten": 6430,
      "Ġdeje": 6431,
      "ĠdebiÃ³": 6432,
      "Ġdefec": 6433,
      "arÃ©": 6434,
      "arca": 6435,
      "arÃ¡n": 6436,
      "arlas": 6437,
      "artel": 6438,
      "artz": 6439,
      "arentado": 6440,
      "quisi": 6441,
      "Ġmente": 6442,
      "Ġquis": 6443,
      "Ġquie": 6444,
      "Ġquinta": 6445,
      "ons": 6446,
      "onza": 6447,
      "onales": 6448,
      "onunci": 6449,
      "oral": 6450,
      "orri": 6451,
      "orma": 6452,
      "orme": 6453,
      "ordinar": 6454,
      "orenzo": 6455,
      "Ġtun": 6456,
      "Ġtol": 6457,
      "Ġtru": 6458,
      "Ġtela": 6459,
      "Ġtable": 6460,
      "Ġtestamento": 6461,
      "and": 6462,
      "anita": 6463,
      "anja": 6464,
      "anones": 6465,
      "anista": 6466,
      "ancis": 6467,
      "anencia": 6468,
      "andilla": 6469,
      "anterÃŃa": 6470,
      "ung": 6471,
      "unal": 6472,
      "undos": 6473,
      "unica": 6474,
      "untuoso": 6475,
      "Ġqueja": 6476,
      "Ġquedase": 6477,
      "Ġlatas": 6478,
      "Ġlagar": 6479,
      "Ġlapi": 6480,
      "Ġlabio": 6481,
      "Ġlatido": 6482,
      "Ġlamenta": 6483,
      "Ġlacito": 6484,
      "Ġlaurel": 6485,
      "elu": 6486,
      "ello": 6487,
      "elga": 6488,
      "eliz": 6489,
      "Ġnudo": 6490,
      "ÃŃtas": 6491,
      "ÃŃamos": 6492,
      "ÃŃgado": 6493,
      "ÃŃdico": 6494,
      "tadas": 6495,
      "tador": 6496,
      "tables": 6497,
      "Ġhun": 6498,
      "ĠhÃº": 6499,
      "Ġhil": 6500,
      "Ġhim": 6501,
      "Ġhues": 6502,
      "Ġhura": 6503,
      "Ġhara": 6504,
      "Ġhere": 6505,
      "Ġhorm": 6506,
      "ĠhÃŃgado": 6507,
      "Ġseco": 6508,
      "ĠseÃ±a": 6509,
      "Ġsepas": 6510,
      "Ġsepara": 6511,
      "Ġsetenta": 6512,
      "Ġsepul": 6513,
      "recÃŃa": 6514,
      "reedores": 6515,
      "Ġesqu": 6516,
      "Ġescur": 6517,
      "Ġestir": 6518,
      "Ġesmero": 6519,
      "Ġesbel": 6520,
      "Ġesmal": 6521,
      "Ġesmer": 6522,
      "Ġvam": 6523,
      "Ġvente": 6524,
      "Ġventa": 6525,
      "Ġvina": 6526,
      "Ġviera": 6527,
      "Ġvemos": 6528,
      "Ġvano": 6529,
      "Ġvela": 6530,
      "Ġvalle": 6531,
      "Ã³fer": 6532,
      "Ġeng": 6533,
      "Ġenti": 6534,
      "Ġenro": 6535,
      "Ġenla": 6536,
      "Ġenlo": 6537,
      "Ġentro": 6538,
      "Ġenig": 6539,
      "Ġencan": 6540,
      "Ġendul": 6541,
      "ĠenÃ©r": 6542,
      "Ġencog": 6543,
      "ĠenciÃ©n": 6544,
      "Ġenlutada": 6545,
      "Ġenneg": 6546,
      "Ġenorme": 6547,
      "daba": 6548,
      "daciÃ³n": 6549,
      "dable": 6550,
      "teo": 6551,
      "teis": 6552,
      "teme": 6553,
      "tecita": 6554,
      "tege": 6555,
      "rador": 6556,
      "racionales": 6557,
      "ini": 6558,
      "inte": 6559,
      "inita": 6560,
      "inando": 6561,
      "inado": 6562,
      "inarse": 6563,
      "inados": 6564,
      "Ã¡cti": 6565,
      "Ã¡cano": 6566,
      "Ã±ida": 6567,
      "Ã±Ã¡ndole": 6568,
      "Ã±imiento": 6569,
      "Ã©l": 6570,
      "Ã©p": 6571,
      "Ã©dul": 6572,
      "ciem": 6573,
      "ciado": 6574,
      "citas": 6575,
      "ciese": 6576,
      "cientes": 6577,
      "cientas": 6578,
      "Ġellas": 6579,
      "ĠelÃ©c": 6580,
      "Ġeleva": 6581,
      "Ġnotas": 6582,
      "Ġnotado": 6583,
      "ĠnoctÃ¡": 6584,
      "alÃŃ": 6585,
      "alÃŃa": 6586,
      "alÃ³n": 6587,
      "almente": 6588,
      "alina": 6589,
      "algÃºn": 6590,
      "ienen": 6591,
      "iencias": 6592,
      "omas": 6593,
      "omÃ©": 6594,
      "omento": 6595,
      "omÃ¡tico": 6596,
      "Ġbra": 6597,
      "Ġbro": 6598,
      "Ġbul": 6599,
      "Ġbur": 6600,
      "Ġbuj": 6601,
      "Ġbull": 6602,
      "abro": 6603,
      "abalÃŃ": 6604,
      "Ġcont": 6605,
      "Ġconta": 6606,
      "Ġconvi": 6607,
      "Ġconden": 6608,
      "Ġcontaba": 6609,
      "Ġconviene": 6610,
      "Ġcontenta": 6611,
      "Ġcontemp": 6612,
      "todos": 6613,
      "tobÃºs": 6614,
      "chan": 6615,
      "chel": 6616,
      "chÃ³": 6617,
      "chera": 6618,
      "chitos": 6619,
      "chÃŃs": 6620,
      "amb": 6621,
      "riar": 6622,
      "rias": 6623,
      "rico": 6624,
      "rile": 6625,
      "rimo": 6626,
      "riese": 6627,
      "rioso": 6628,
      "riano": 6629,
      "rige": 6630,
      "ĠleÃŃa": 6631,
      "Ġlecho": 6632,
      "Ġlema": 6633,
      "ĠlecciÃ³n": 6634,
      "Ġlector": 6635,
      "Ġsuba": 6636,
      "Ġsucio": 6637,
      "Ġsuban": 6638,
      "Ġsuici": 6639,
      "Ġsubir": 6640,
      "Ġsubido": 6641,
      "Ġsuyos": 6642,
      "Ġfon": 6643,
      "Ġala": 6644,
      "Ġalu": 6645,
      "Ġalar": 6646,
      "Ġalmen": 6647,
      "Ġalcal": 6648,
      "Ġalturas": 6649,
      "Ġalpaca": 6650,
      "ĠEsa": 6651,
      "ĠEmp": 6652,
      "ĠEbro": 6653,
      "ĠEdmundo": 6654,
      "Ġlosas": 6655,
      "cole": 6656,
      "cojo": 6657,
      "Ġloca": 6658,
      "Ġloque": 6659,
      "Ġlobo": 6660,
      "ĠloterÃŃa": 6661,
      "Ġlocua": 6662,
      "Ġgara": 6663,
      "Ġgaban": 6664,
      "Ġgane": 6665,
      "Ġgarro": 6666,
      "Ġgestos": 6667,
      "Ġmudo": 6668,
      "Ġmuch": 6669,
      "Ġmuros": 6670,
      "Ġmuestra": 6671,
      "Ġmugr": 6672,
      "Ġmultitud": 6673,
      "Ġmuestran": 6674,
      "Ġmuriese": 6675,
      "iss": 6676,
      "leta": 6677,
      "lete": 6678,
      "leÃ³n": 6679,
      "lejo": 6680,
      "levar": 6681,
      "letÃŃn": 6682,
      "leÃ±e": 6683,
      "ĠLi": 6684,
      "ĠLÃ³gica": 6685,
      "ĠLorenzo": 6686,
      "usta": 6687,
      "usco": 6688,
      "usted": 6689,
      "usias": 6690,
      "tiro": 6691,
      "tidad": 6692,
      "timos": 6693,
      "tieron": 6694,
      "tiremos": 6695,
      "tijones": 6696,
      "roe": 6697,
      "rot": 6698,
      "rodu": 6699,
      "Ġmeto": 6700,
      "Ġmechero": 6701,
      "ĠmetÃŃa": 6702,
      "Ġmembre": 6703,
      "diz": 6704,
      "dios": 6705,
      "dile": 6706,
      "didad": 6707,
      "didos": 6708,
      "dillo": 6709,
      "dicina": 6710,
      "didez": 6711,
      "deal": 6712,
      "deado": 6713,
      "laciÃ³n": 6714,
      "lacable": 6715,
      "Ġparar": 6716,
      "Ġparal": 6717,
      "Ġpartido": 6718,
      "ĠparchÃŃs": 6719,
      "Ġof": 6720,
      "Ġove": 6721,
      "Ġocul": 6722,
      "Ġopin": 6723,
      "ĠMen": 6724,
      "ĠMos": 6725,
      "ĠMita": 6726,
      "ĠMada": 6727,
      "ĠMenos": 6728,
      "ĠMuy": 6729,
      "Ġcomenta": 6730,
      "Ġcomiendo": 6731,
      "ĠcombinaciÃ³n": 6732,
      "Ġportera": 6733,
      "ĠporterÃŃa": 6734,
      "Ġhagamos": 6735,
      "ĠDere": 6736,
      "caÃ±a": 6737,
      "caciones": 6738,
      "cadia": 6739,
      "Ġcua": 6740,
      "Ġcue": 6741,
      "Ġcule": 6742,
      "Ġcubre": 6743,
      "Ġcuran": 6744,
      "Ġcuras": 6745,
      "Ġcuidad": 6746,
      "Ġcupl": 6747,
      "Ġcuela": 6748,
      "Ġcuya": 6749,
      "Ġcuento": 6750,
      "Ġcubo": 6751,
      "ĠcuÃ¡l": 6752,
      "Ġcuchar": 6753,
      "Ġcumpar": 6754,
      "Ġcuchi": 6755,
      "Ġcuidar": 6756,
      "ĠcucaÃ±a": 6757,
      "Ġsitu": 6758,
      "Ġsilog": 6759,
      "ierno": 6760,
      "godeo": 6761,
      "Ġdelga": 6762,
      "Ġdelgada": 6763,
      "emente": 6764,
      "ĠAun": 6765,
      "ĠAle": 6766,
      "ĠAÃºn": 6767,
      "ĠAunque": 6768,
      "ĠAquel": 6769,
      "ĠAquella": 6770,
      "cetar": 6771,
      "cedente": 6772,
      "ĠPres": 6773,
      "ĠPim": 6774,
      "ĠPadre": 6775,
      "ĠPida": 6776,
      "ĠPiensa": 6777,
      "ĠPÃŃo": 6778,
      "ĠPala": 6779,
      "ĠPÃºbl": 6780,
      "ĠPens": 6781,
      "ĠPÃ¡ez": 6782,
      "ĠPreci": 6783,
      "ĠPilar": 6784,
      "ĠPsico": 6785,
      "ĠPrimo": 6786,
      "Ġestante": 6787,
      "itador": 6788,
      "ueta": 6789,
      "ueca": 6790,
      "uevos": 6791,
      "olque": 6792,
      "olver": 6793,
      "ĠEllos": 6794,
      "ĠElvÃŃ": 6795,
      "bada": 6796,
      "Ġtoque": 6797,
      "ĠtocÃ³": 6798,
      "Ġtocas": 6799,
      "Ġtocan": 6800,
      "Ġtotal": 6801,
      "Ġtocando": 6802,
      "Ġtocaba": 6803,
      "Ġdiar": 6804,
      "Ġdile": 6805,
      "ĠdirÃŃa": 6806,
      "Ġdigan": 6807,
      "Ġdiario": 6808,
      "Ġdiag": 6809,
      "Ġdimin": 6810,
      "ĠdirÃ¡n": 6811,
      "Ġdiose": 6812,
      "ĠdirÃ¡s": 6813,
      "Ġdijera": 6814,
      "Ġdiesen": 6815,
      "Ġdibuj": 6816,
      "ĠdirÃŃamos": 6817,
      "Ġdiciem": 6818,
      "Ġpola": 6819,
      "Ġpocas": 6820,
      "Ġpoetas": 6821,
      "Ġpopul": 6822,
      "adu": 6823,
      "adra": 6824,
      "adura": 6825,
      "adrique": 6826,
      "ĠCol": 6827,
      "ĠCris": 6828,
      "ĠClaro": 6829,
      "ĠCasi": 6830,
      "ĠCalle": 6831,
      "ĠCrÃ©": 6832,
      "ĠColla": 6833,
      "Ġdesl": 6834,
      "Ġdesas": 6835,
      "Ġdesent": 6836,
      "Ġdesga": 6837,
      "Ġdestor": 6838,
      "Ġdesme": 6839,
      "Ġdesgar": 6840,
      "Ġdescon": 6841,
      "Ġdestel": 6842,
      "Ġdespor": 6843,
      "Ġdesfle": 6844,
      "Ġdesarro": 6845,
      "Ġdesval": 6846,
      "Ġdesbara": 6847,
      "Ġdesabro": 6848,
      "ĠSer": 6849,
      "ĠSiento": 6850,
      "ĠSigue": 6851,
      "ĠSÃ³lo": 6852,
      "ĠSultÃ¡n": 6853,
      "ĠparaÃŃso": 6854,
      "viles": 6855,
      "vidu": 6856,
      "vivir": 6857,
      "Ġmio": 6858,
      "Ġmimo": 6859,
      "Ġmigas": 6860,
      "Ġmichino": 6861,
      "Ãºa": 6862,
      "Ġreza": 6863,
      "Ġrega": 6864,
      "Ġreir": 6865,
      "Ġremo": 6866,
      "Ġrema": 6867,
      "Ġrecos": 6868,
      "Ġrebo": 6869,
      "Ġrecal": 6870,
      "ĠreÃŃr": 6871,
      "Ġrebor": 6872,
      "Ġrequer": 6873,
      "ĠreÃ±ido": 6874,
      "Ġrebus": 6875,
      "Ġrezon": 6876,
      "Ġregular": 6877,
      "Ġregodeo": 6878,
      "Ġrecetar": 6879,
      "Ġusa": 6880,
      "Ġusadas": 6881,
      "ĠLagas": 6882,
      "guas": 6883,
      "guel": 6884,
      "gulo": 6885,
      "guero": 6886,
      "guito": 6887,
      "guiÃ³": 6888,
      "erado": 6889,
      "cuto": 6890,
      "cucha": 6891,
      "cualquiera": 6892,
      "ilero": 6893,
      "iliadora": 6894,
      "ĠhabrÃ¡n": 6895,
      "ĠhabrÃ¡s": 6896,
      "ĠMaruja": 6897,
      "ĠMarquÃ©s": 6898,
      "imados": 6899,
      "Ġdonna": 6900,
      "Ġcase": 6901,
      "Ġcasqui": 6902,
      "Ġcascos": 6903,
      "Ġcasaban": 6904,
      "Ġcasual": 6905,
      "troso": 6906,
      "trarse": 6907,
      "trÃ©s": 6908,
      "dador": 6909,
      "entan": 6910,
      "entÃ³n": 6911,
      "uÃ©r": 6912,
      "Ġvig": 6913,
      "Ġvidas": 6914,
      "Ġvicio": 6915,
      "Ġviese": 6916,
      "Ġvivo": 6917,
      "Ġvictor": 6918,
      "Ġviesen": 6919,
      "Ġviviese": 6920,
      "Ġvieses": 6921,
      "Ġechas": 6922,
      "Ġefica": 6923,
      "dosa": 6924,
      "doselas": 6925,
      "ĠVer": 6926,
      "ĠVan": 6927,
      "ĠVia": 6928,
      "ĠVill": 6929,
      "ĠVentas": 6930,
      "ĠValle": 6931,
      "ĠVÃ¡zquez": 6932,
      "Ġniete": 6933,
      "ĠniÃ±ez": 6934,
      "sey": 6935,
      "Ġverse": 6936,
      "Ġverlos": 6937,
      "ĠverÃŃas": 6938,
      "Ġverbena": 6939,
      "Ġsopa": 6940,
      "Ġsober": 6941,
      "Ġsobres": 6942,
      "Ġsopor": 6943,
      "Ġsociales": 6944,
      "bile": 6945,
      "biguo": 6946,
      "Ġintu": 6947,
      "Ġinye": 6948,
      "Ġindu": 6949,
      "Ġinfi": 6950,
      "Ġincor": 6951,
      "Ġinvis": 6952,
      "Ġincul": 6953,
      "Ġintim": 6954,
      "Ġinvita": 6955,
      "Ġinmu": 6956,
      "Ġinmedia": 6957,
      "Ġinjusti": 6958,
      "Ġinventado": 6959,
      "gajoso": 6960,
      "quecer": 6961,
      "ical": 6962,
      "icÃ³n": 6963,
      "Ġllan": 6964,
      "Ġllueve": 6965,
      "Ġpasmo": 6966,
      "Ġpasadas": 6967,
      "Ġpasmado": 6968,
      "Ġpastillas": 6969,
      "irse": 6970,
      "ĠtenÃŃan": 6971,
      "ĠtenÃ©is": 6972,
      "ulÃ³": 6973,
      "ullo": 6974,
      "ĠcalÃ³": 6975,
      "Ġcallo": 6976,
      "Ġcalidad": 6977,
      "Ġcalder": 6978,
      "Ġcalientes": 6979,
      "Ġcalambre": 6980,
      "Ġcalcular": 6981,
      "Ġcalienta": 6982,
      "Ġcallista": 6983,
      "Ġcalzada": 6984,
      "Ġcalzado": 6985,
      "Ġbienestar": 6986,
      "iodista": 6987,
      "uelto": 6988,
      "Ġsonar": 6989,
      "ĠsonÃ¡": 6990,
      "Ġsonido": 6991,
      "Ġsonros": 6992,
      "Ġsonaban": 6993,
      "Ġsoneto": 6994,
      "Ġand": 6995,
      "Ġando": 6996,
      "Ġanden": 6997,
      "Ġandu": 6998,
      "Ġangel": 6999,
      "Ġantorcha": 7000,
      "ĠserÃ©": 7001,
      "Ġserlo": 7002,
      "ĠsermÃ³n": 7003,
      "ĠserrÃŃn": 7004,
      "ÃŃnica": 7005,
      "Ã©ndo": 7006,
      "Ã©ntico": 7007,
      "ĠteÃ±ido": 7008,
      "Ġtetitas": 7009,
      "ĠteÃ±ida": 7010,
      "trado": 7011,
      "trativo": 7012,
      "pea": 7013,
      "petu": 7014,
      "pefa": 7015,
      "pecto": 7016,
      "pectiva": 7017,
      "cerÃ¡": 7018,
      "ĠJerÃ³n": 7019,
      "Ġlleven": 7020,
      "Ġchas": 7021,
      "Ġchis": 7022,
      "Ġchur": 7023,
      "Ġchill": 7024,
      "Ġchulo": 7025,
      "Ġcharla": 7026,
      "Ġchist": 7027,
      "Ġchamar": 7028,
      "Ġchorro": 7029,
      "ĠchÃ³fer": 7030,
      "Ġcaro": 7031,
      "Ġcardo": 7032,
      "Ġcarre": 7033,
      "Ġcarro": 7034,
      "Ġcargo": 7035,
      "Ġcarita": 7036,
      "Ġcartel": 7037,
      "Ġcartero": 7038,
      "Ġcaramba": 7039,
      "Ġmanta": 7040,
      "ĠmanÃŃa": 7041,
      "Ġmango": 7042,
      "Ġmanga": 7043,
      "Ġmanche": 7044,
      "Ġmanten": 7045,
      "ĠmanÃŃas": 7046,
      "Ġmanchas": 7047,
      "Ġmaneras": 7048,
      "Ġmandase": 7049,
      "Ġmanif": 7050,
      "Ġhice": 7051,
      "Ġhielo": 7052,
      "tese": 7053,
      "Ġcatar": 7054,
      "Ġcache": 7055,
      "ĠcaÃŃdo": 7056,
      "Ġcapita": 7057,
      "Ġcaquita": 7058,
      "Ġsinsab": 7059,
      "Ġsiniestra": 7060,
      "iata": 7061,
      "torga": 7062,
      "torial": 7063,
      "Ġcole": 7064,
      "Ġcojo": 7065,
      "Ġcopa": 7066,
      "Ġcocin": 7067,
      "Ġcobro": 7068,
      "Ġcochino": 7069,
      "Ġcobrado": 7070,
      "ĠcoacciÃ³n": 7071,
      "turo": 7072,
      "turero": 7073,
      "paÃ±o": 7074,
      "tarles": 7075,
      "tarrado": 7076,
      "Ġvaqu": 7077,
      "Ġvagar": 7078,
      "Ġvayas": 7079,
      "Ġpade": 7080,
      "Ġpaque": 7081,
      "Ġpagas": 7082,
      "Ġpatri": 7083,
      "Ġpaciente": 7084,
      "jeros": 7085,
      "jeras": 7086,
      "Ġparedes": 7087,
      "ĠpareciÃ³": 7088,
      "cesa": 7089,
      "Ġcamina": 7090,
      "Ġperra": 7091,
      "Ġperdamos": 7092,
      "Ġperchero": 7093,
      "Ġperdiendo": 7094,
      "Ġperfecto": 7095,
      "Ġperiodista": 7096,
      "tantos": 7097,
      "tanisla": 7098,
      "Ġtraen": 7099,
      "Ġtratan": 7100,
      "ĠtratÃ³": 7101,
      "Ġtratando": 7102,
      "ĠtravÃ©s": 7103,
      "Ġtraguito": 7104,
      "Ġaman": 7105,
      "Ġamantes": 7106,
      "Ġamargo": 7107,
      "Ġambiguo": 7108,
      "Ġmalta": 7109,
      "Ġmalol": 7110,
      "Ġmalito": 7111,
      "Ġmalcom": 7112,
      "ĠmalÃ©volo": 7113,
      "Ġmalsano": 7114,
      "saci": 7115,
      "saciones": 7116,
      "vea": 7117,
      "vecho": 7118,
      "veva": 7119,
      "larmÃ©": 7120,
      "Ġsalta": 7121,
      "ĠsalÃŃa": 7122,
      "Ġsaltar": 7123,
      "Ġsalva": 7124,
      "ĠsaltÃ³": 7125,
      "Ġsaliendo": 7126,
      "Ġsalgan": 7127,
      "Ġsaltando": 7128,
      "teros": 7129,
      "terÃ³n": 7130,
      "teria": 7131,
      "terno": 7132,
      "terias": 7133,
      "ĠTar": 7134,
      "ĠTere": 7135,
      "ĠToma": 7136,
      "ĠTraba": 7137,
      "ĠTrata": 7138,
      "ĠTorri": 7139,
      "Ġdoscientas": 7140,
      "Ġruego": 7141,
      "ĠrÃ¡b": 7142,
      "Ġestatu": 7143,
      "ĠFue": 7144,
      "ĠFalle": 7145,
      "ĠFÃ¼": 7146,
      "ĠFÃŃjate": 7147,
      "ĠFadrique": 7148,
      "Ã±oso": 7149,
      "Ġllamas": 7150,
      "Ġllamado": 7151,
      "Ġllamaron": 7152,
      "Ġjus": 7153,
      "ĠjabalÃŃ": 7154,
      "Ġtila": 7155,
      "Ġtigre": 7156,
      "Ġtirada": 7157,
      "Ġtitul": 7158,
      "Ġtibias": 7159,
      "uros": 7160,
      "uras": 7161,
      "ureros": 7162,
      "Ġartil": 7163,
      "Ġarru": 7164,
      "Ġaroma": 7165,
      "Ġarmas": 7166,
      "Ġarmado": 7167,
      "Ġarrum": 7168,
      "ĠaromÃ¡tico": 7169,
      "ĠEsp": 7170,
      "ĠEstas": 7171,
      "ĠEstando": 7172,
      "ĠEscor": 7173,
      "ĠEstaba": 7174,
      "ĠEstrem": 7175,
      "ĠEstanisla": 7176,
      "ĠpendÃ³n": 7177,
      "Ġmari": 7178,
      "Ġmarcado": 7179,
      "Ġmarquito": 7180,
      "Ġmaricas": 7181,
      "Ġmarcada": 7182,
      "ciopelo": 7183,
      "Ġsuspicaz": 7184,
      "magen": 7185,
      "Ġacci": 7186,
      "Ġaclar": 7187,
      "Ġacaban": 7188,
      "Ġacentos": 7189,
      "Ġaconte": 7190,
      "Ġacreedores": 7191,
      "Ġpila": 7192,
      "Ġpipa": 7193,
      "Ġpiden": 7194,
      "Ġpidamos": 7195,
      "Ġpicados": 7196,
      "Ġpidiendo": 7197,
      "Ġpicuda": 7198,
      "Ġpianista": 7199,
      "Ġasin": 7200,
      "Ġasiente": 7201,
      "Ġasadas": 7202,
      "Ġaspir": 7203,
      "Ġasistir": 7204,
      "Ġaspecto": 7205,
      "ĠRoose": 7206,
      "ĠmatÃ³": 7207,
      "ĠmaÃ±as": 7208,
      "Ġmacuto": 7209,
      "Ġpez": 7210,
      "Ġpegado": 7211,
      "Ġpecados": 7212,
      "ĠpedÃŃ": 7213,
      "Ġpeonza": 7214,
      "Ġpegajoso": 7215,
      "Ġira": 7216,
      "Ġiden": 7217,
      "Ġibas": 7218,
      "Ġigles": 7219,
      "Estu": 7220,
      "Estaba": 7221,
      "Ġahueca": 7222,
      "medo": 7223,
      "mecido": 7224,
      "Ġprecon": 7225,
      "Ġprecis": 7226,
      "Ġprepara": 7227,
      "Ġprevia": 7228,
      "Ġpreju": 7229,
      "Ġpremi": 7230,
      "Ġpregon": 7231,
      "Ġprecedente": 7232,
      "garon": 7233,
      "garay": 7234,
      "ioso": 7235,
      "iosas": 7236,
      "Ġcoser": 7237,
      "Ġcosita": 7238,
      "Ġcosiendo": 7239,
      "Ġcostura": 7240,
      "Ġcostado": 7241,
      "Ġcosturero": 7242,
      "umen": 7243,
      "umero": 7244,
      "umanidad": 7245,
      "esecre": 7246,
      "Ġapla": 7247,
      "Ġaplas": 7248,
      "Ġapura": 7249,
      "Ġapuesto": 7250,
      "Ġaplomo": 7251,
      "Ġapuros": 7252,
      "Ġprodi": 7253,
      "Ġprocer": 7254,
      "Ġprotes": 7255,
      "Ġproye": 7256,
      "Ġpropas": 7257,
      "Ġprotege": 7258,
      "Ġprovecho": 7259,
      "Ġvuelo": 7260,
      "Ġvuelvo": 7261,
      "Ġabus": 7262,
      "Ġabrazo": 7263,
      "Ġabuelo": 7264,
      "rÃŃe": 7265,
      "rÃŃan": 7266,
      "voca": 7267,
      "ĠAlcÃ¡n": 7268,
      "ĠAlmerÃŃa": 7269,
      "Ġhacerle": 7270,
      "Ġcallejero": 7271,
      "loso": 7272,
      "Ġcreen": 7273,
      "ĠcreÃŃ": 7274,
      "ĠvenÃŃa": 7275,
      "Ġvender": 7276,
      "Ġvengan": 7277,
      "ĠGre": 7278,
      "ĠGeno": 7279,
      "ĠGob": 7280,
      "ĠGald": 7281,
      "Ġdais": 7282,
      "Ġbata": 7283,
      "ĠbaÃ±os": 7284,
      "Ġbazo": 7285,
      "ĠbaÃºl": 7286,
      "Ġbaila": 7287,
      "Ġbailar": 7288,
      "Ġbailando": 7289,
      "Ġbailado": 7290,
      "checo": 7291,
      "chebuena": 7292,
      "Ġmiradas": 7293,
      "Ġpensara": 7294,
      "Ġpensaban": 7295,
      "Ġpensamiento": 7296,
      "araciÃ³n": 7297,
      "Ġhebra": 7298,
      "tillita": 7299,
      "Ġcompensar": 7300,
      "Ġcompung": 7301,
      "ĠOro": 7302,
      "ĠOtro": 7303,
      "ĠOeste": 7304,
      "Ġmejores": 7305,
      "igan": 7306,
      "igiosas": 7307,
      "Ġtango": 7308,
      "ĠCatÃ³": 7309,
      "pobre": 7310,
      "poleÃ³n": 7311,
      "ĠHan": 7312,
      "ĠHis": 7313,
      "ĠHern": 7314,
      "ĠHombre": 7315,
      "ĠHartz": 7316,
      "ĠHumanidad": 7317,
      "Ġimpas": 7318,
      "Ġimplacable": 7319,
      "darias": 7320,
      "Ġespanta": 7321,
      "Ġespere": 7322,
      "Ġespiritu": 7323,
      "Ġcinta": 7324,
      "ĠBor": 7325,
      "ĠBrun": 7326,
      "ĠBajo": 7327,
      "ĠBofar": 7328,
      "ĠLee": 7329,
      "ĠLevanta": 7330,
      "ĠNunca": 7331,
      "ĠNego": 7332,
      "osofÃŃa": 7333,
      "Ġexactamente": 7334,
      "landor": 7335,
      "Ġempren": 7336,
      "Ġemparentado": 7337,
      "Ġtute": 7338,
      "Ġtuya": 7339,
      "Ġtuyas": 7340,
      "Ġsagra": 7341,
      "Ġsacado": 7342,
      "Ġprensa": 7343,
      "Ġpronunci": 7344,
      "Ġmuchachas": 7345,
      "Ġmuchachos": 7346,
      "tendido": 7347,
      "Ġcorse": 7348,
      "Ġcorza": 7349,
      "ĠcorriÃ³": 7350,
      "Ġcortado": 7351,
      "Ġcortando": 7352,
      "Ġcorrido": 7353,
      "Ġcorral": 7354,
      "Ġcorroe": 7355,
      "Ġbotas": 7356,
      "Ġbocan": 7357,
      "Ġbocinas": 7358,
      "Ġgusan": 7359,
      "Ġgustas": 7360,
      "Ġgustado": 7361,
      "Ġgustarte": 7362,
      "Sigues": 7363,
      "Ġrestos": 7364,
      "Ġreserv": 7365,
      "Ġresisten": 7366,
      "Ġponga": 7367,
      "ĠpondrÃ©": 7368,
      "ezca": 7369,
      "Ġray": 7370,
      "Ġrabi": 7371,
      "Ġrayas": 7372,
      "Ġracionamiento": 7373,
      "doras": 7374,
      "Ġdecimos": 7375,
      "ĠdecidiÃ³": 7376,
      "Ġdecidiese": 7377,
      "ĠdecisiÃ³n": 7378,
      "Ġdecidirse": 7379,
      "izas": 7380,
      "izÃ¡": 7381,
      "izÃ¡s": 7382,
      "Ġdisf": 7383,
      "Ġdistri": 7384,
      "Ġdispues": 7385,
      "Ġdisuelve": 7386,
      "ĠdisposiciÃ³n": 7387,
      "Ġsabor": 7388,
      "Ġsable": 7389,
      "ĠsabrÃ©": 7390,
      "Ġsabidur": 7391,
      "Ġescrita": 7392,
      "Ġescalo": 7393,
      "Ġqueria": 7394,
      "ĠquerÃŃas": 7395,
      "Ġqueridas": 7396,
      "Ġnace": 7397,
      "vergÃ¼enza": 7398,
      "Ġmedita": 7399,
      "Ġmedida": 7400,
      "Ġmediado": 7401,
      "ĠVicesecre": 7402,
      "ĠIgual": 7403,
      "ĠIdeal": 7404,
      "Ġorador": 7405,
      "Ġordinar": 7406,
      "ĠJulia": 7407,
      "deros": 7408,
      "derete": 7409,
      "jecita": 7410,
      "Ġrota": 7411,
      "Ġrodar": 7412,
      "Ġrozar": 7413,
      "Ġrodando": 7414,
      "Ġrobado": 7415,
      "Ġdudo": 7416,
      "Ġdudes": 7417,
      "Ġdurito": 7418,
      "Ġcolgado": 7419,
      "ĠcolchÃ³n": 7420,
      "ĠPacheco": 7421,
      "destin": 7422,
      "Ġbarrera": 7423,
      "Ġbarbilla": 7424,
      "ĠMaternidad": 7425,
      "ĠMaello": 7426,
      "rarÃ©": 7427,
      "rarme": 7428,
      "rarren": 7429,
      "pitas": 7430,
      "ĠtardÃ³": 7431,
      "Ġtaramb": 7432,
      "Ġguardando": 7433,
      "ĠNochebuena": 7434,
      "ĠvolÃ³": 7435,
      "Ġvolvi": 7436,
      "Ġvolvieron": 7437,
      "Ġvoltear": 7438,
      "Ġvolumen": 7439,
      "Ġgrata": 7440,
      "Ġgracios": 7441,
      "Ġdecirlo": 7442,
      "Ġdecirse": 7443,
      "Ġdecirme": 7444,
      "Ġdecirles": 7445,
      "Ġcogiera": 7446,
      "Ġcogieron": 7447,
      "egan": 7448,
      "ĠPeÃ±a": 7449,
      "Ġverdades": 7450,
      "Ġverdadera": 7451,
      "Ġllevas": 7452,
      "Ġllevara": 7453,
      "Ġllevarse": 7454,
      "Ġllevaron": 7455,
      "Ġllevaban": 7456,
      "brese": 7457,
      "rutas": 7458,
      "Ġdarte": 7459,
      "Ġdarlas": 7460,
      "Ġentero": 7461,
      "Ġentusias": 7462,
      "Ġgranada": 7463,
      "dense": 7464,
      "dencia": 7465,
      "rÃ¡zo": 7466,
      "risita": 7467,
      "Ġmozas": 7468,
      "Ġmotivo": 7469,
      "Ġmoviendo": 7470,
      "Ġmobile": 7471,
      "Ġtientas": 7472,
      "Ġseguido": 7473,
      "Ġseguras": 7474,
      "Ġseguimos": 7475,
      "Ġluce": 7476,
      "Ġlucen": 7477,
      "Ġpalo": 7478,
      "Ġpalad": 7479,
      "Ġpalpa": 7480,
      "Ġpalillo": 7481,
      "Ġpaloma": 7482,
      "Ġpaliducho": 7483,
      "Ġtomo": 7484,
      "Ġtomarse": 7485,
      "ĠtomÃ¡ndose": 7486,
      "ĠestarÃ©": 7487,
      "Ġfalte": 7488,
      "Ġfaltas": 7489,
      "Ġfaltar": 7490,
      "ĠfaltarÃŃa": 7491,
      "iedad": 7492,
      "ieces": 7493,
      "ĠUnas": 7494,
      "Ġpresentado": 7495,
      "Ġprestancia": 7496,
      "Ġprestam": 7497,
      "Ġpresidente": 7498,
      "Ġentreab": 7499,
      "Ġentrecor": 7500,
      "Ġfinas": 7501,
      "Ġtaco": 7502,
      "Ġtapas": 7503,
      "ĠtacÃ³n": 7504,
      "Ġtaimados": 7505,
      "Ġaguja": 7506,
      "Ġaguarda": 7507,
      "Ġpurito": 7508,
      "Ġfuere": 7509,
      "Ġfueras": 7510,
      "Ġcuartillas": 7511,
      "ĠcuarterÃ³n": 7512,
      "Ġrepubl": 7513,
      "Ġreprodu": 7514,
      "ĠreparaciÃ³n": 7515,
      "Ġechado": 7516,
      "rense": 7517,
      "Ġrio": 7518,
      "Ġridi": 7519,
      "Ġrigu": 7520,
      "Ġrigor": 7521,
      "Ġbasta": 7522,
      "Ġbastos": 7523,
      "Ġbastantes": 7524,
      "Ġbasureros": 7525,
      "Ġinsta": 7526,
      "Ġinsist": 7527,
      "Ġinsospe": 7528,
      "Ġcerrados": 7529,
      "ĠcerrÃ³": 7530,
      "ĠsolÃŃa": 7531,
      "Ġsolici": 7532,
      "Ġsoluciones": 7533,
      "ernal": 7534,
      "ernito": 7535,
      "Ġconsuelo": 7536,
      "ĠconsomÃ©": 7537,
      "Ġviejecita": 7538,
      "ormes": 7539,
      "Ġbesar": 7540,
      "Ġgaita": 7541,
      "Ġgatito": 7542,
      "ĠgaznÃ¡": 7543,
      "Ġfies": 7544,
      "Ġfiel": 7545,
      "Ġfila": 7546,
      "Ġfija": 7547,
      "Ġfije": 7548,
      "Ġfichas": 7549,
      "parlo": 7550,
      "parnos": 7551,
      "duidad": 7552,
      "Ġenfoque": 7553,
      "Ġenfriar": 7554,
      "ĠAnita": 7555,
      "ĠAngus": 7556,
      "Ġfurioso": 7557,
      "ĠNaciones": 7558,
      "ĠNacionales": 7559,
      "brarse": 7560,
      "Ġcanal": 7561,
      "Ġcanita": 7562,
      "ĠcanciÃ³n": 7563,
      "Ġcandor": 7564,
      "Ġcanijo": 7565,
      "cismo": 7566,
      "Ġestuvi": 7567,
      "Ġestufa": 7568,
      "Ġestupefa": 7569,
      "Ġimportancia": 7570,
      "Ġfelpa": 7571,
      "Ġirrig": 7572,
      "Ġirracionales": 7573,
      "chosos": 7574,
      "Mejor": 7575,
      "fila": 7576,
      "ĠarreÃ³": 7577,
      "Ġarreado": 7578,
      "rosos": 7579,
      "Ġcitas": 7580,
      "Ġpuesta": 7581,
      "Ġpuestos": 7582,
      "fael": 7583,
      "fato": 7584,
      "tÃ¡is": 7585,
      "ĠjoyerÃŃa": 7586,
      "ĠlargÃ³": 7587,
      "ĠclÃŃnica": 7588,
      "ĠpostÃŃn": 7589,
      "ĠposesiÃ³n": 7590,
      "Ġposibles": 7591,
      "Ġtrece": 7592,
      "Ġgolfo": 7593,
      "Ġgustaba": 7594,
      "Ġgustaban": 7595,
      "abanchel": 7596,
      "ĠconocÃŃa": 7597,
      "Ġconocidas": 7598,
      "Ġcamarones": 7599,
      "Ġcamareras": 7600,
      "cinos": 7601,
      "Ġdoble": 7602,
      "Ġliar": 7603,
      "Ġlibre": 7604,
      "Ġhoriz": 7605,
      "Ġhorno": 7606,
      "Ġhornillo": 7607,
      "Ġvestidos": 7608,
      "Ġvasos": 7609,
      "ĠhablarÃ©": 7610,
      "Ġhablarle": 7611,
      "Ġhablaremos": 7612,
      "Ġesperas": 7613,
      "Ġesperaba": 7614,
      "Ġesperaban": 7615,
      "iÃ©ndose": 7616,
      "perar": 7617,
      "Ġcabos": 7618,
      "Ġcabre": 7619,
      "Ġcabellos": 7620,
      "ĠAstorga": 7621,
      "ĠAstillita": 7622,
      "Ġlevantan": 7623,
      "Ġpelma": 7624,
      "Ġpellejo": 7625,
      "Ġmami": 7626,
      "ĠpasarÃŃa": 7627,
      "Ġempezado": 7628,
      "Ġempezaron": 7629,
      "Ġnueva": 7630,
      "Ġnombrar": 7631,
      "ĠDebe": 7632,
      "ĠDepÃ³sito": 7633,
      "Ġpodrida": 7634,
      "Ġperspectiva": 7635,
      "Entendido": 7636,
      "Ġsomanta": 7637,
      "Ġvientos": 7638,
      "Ġsillas": 7639,
      "Ġpanza": 7640,
      "Ġpanderete": 7641,
      "Ġtranscur": 7642,
      "Ġmarchaba": 7643,
      "Ġmarcharse": 7644,
      "Ġmarcharon": 7645,
      "Ãīl": 7646,
      "Ãīsa": 7647,
      "ÃŃsimos": 7648,
      "Ġespejito": 7649,
      "Ġbebido": 7650,
      "Ġconfia": 7651,
      "Ġconfort": 7652,
      "Ġfumarse": 7653,
      "ĠSocial": 7654,
      "Ġmayo": 7655,
      "ĠmayÃºs": 7656,
      "Ġpringar": 7657,
      "Ġpringado": 7658,
      "Ġprincesa": 7659,
      "Ġarregle": 7660,
      "Ġarreglas": 7661,
      "Ġarreglen": 7662,
      "Ġarreglaba": 7663,
      "ĠlibrerÃŃa": 7664,
      "Ġadentro": 7665,
      "Ġadvier": 7666,
      "Ġadquisi": 7667,
      "Ġnegarse": 7668,
      "Ã¡rdese": 7669,
      "Ġblandos": 7670,
      "Ġfama": 7671,
      "Ġviolento": 7672,
      "Ġinterna": 7673,
      "Ġinterior": 7674,
      "Ġintervenir": 7675,
      "Ġinterviene": 7676,
      "Ġintervino": 7677,
      "Ġinteresante": 7678,
      "Ġpaseo": 7679,
      "Ġpasear": 7680,
      "ĠpaseÃŃto": 7681,
      "Ġjudi": 7682,
      "Ġjuega": 7683,
      "ĠdÃ©me": 7684,
      "Ġderechos": 7685,
      "Ġplate": 7686,
      "Ġplacer": 7687,
      "Ġmonda": 7688,
      "Ġmoneda": 7689,
      "Ġmoren": 7690,
      "Ġregla": 7691,
      "Ġreglas": 7692,
      "Ġregale": 7693,
      "ĠllegarÃ¡": 7694,
      "paÃ±ÃŃa": 7695,
      "Ġpreocuparnos": 7696,
      "Ġazu": 7697,
      "Ġazorada": 7698,
      "cional": 7699,
      "cionado": 7700,
      "Ġcaries": 7701,
      "Ġcaricia": 7702,
      "Ġpalabritas": 7703,
      "Ġfamilias": 7704,
      "Ġpesca": 7705,
      "Ġpesado": 7706,
      "Ġsuelta": 7707,
      "Ġfox": 7708,
      "Ġoli": 7709,
      "Ġruido": 7710,
      "Ġruina": 7711,
      "Ġpitillera": 7712,
      "tillado": 7713,
      "ĠextraÃ±Ã³": 7714,
      "Ġextraordinar": 7715,
      "Ġescritores": 7716,
      "Ġmayorcitos": 7717,
      "Ġharte": 7718,
      "ĠharÃ©": 7719,
      "Ġharto": 7720,
      "ĠharÃŃan": 7721,
      "ĠMedicina": 7722,
      "Ġdespier": 7723,
      "icios": 7724,
      "Ġlimpiar": 7725,
      "ĠcenÃ©": 7726,
      "Ġpierde": 7727,
      "Ġpierden": 7728,
      "Ġtemplado": 7729,
      "Ġhumana": 7730,
      "Ġhumano": 7731,
      "Ġhumanos": 7732,
      "Ġvisillos": 7733,
      "Ġgasta": 7734,
      "Ġgastos": 7735,
      "Ġgastarse": 7736,
      "ĠSantia": 7737,
      "ĠVecino": 7738,
      "Ġchata": 7739,
      "ĠchapÃŃn": 7740,
      "Ġchavea": 7741,
      "Ġapartando": 7742,
      "Ġresplandor": 7743,
      "Ġsilenciosa": 7744,
      "Ġimpe": 7745,
      "Ġimitador": 7746,
      "ĠÃºnica": 7747,
      "Ġsangu": 7748,
      "ĠmercerÃŃa": 7749,
      "Ġtele": 7750,
      "Ġtrasero": 7751,
      "Ġtrastor": 7752,
      "Ġtraspas": 7753,
      "Ġborda": 7754,
      "Ġbordes": 7755,
      "Ġmirares": 7756,
      "ĠTodavÃŃa": 7757,
      "ĠromÃ¡n": 7758,
      "Ġromano": 7759,
      "Ġpreguntas": 7760,
      "Ġveinticuatro": 7761,
      "ĠveintitrÃ©s": 7762,
      "Ġveintitantos": 7763,
      "olado": 7764,
      "Ġflorales": 7765,
      "Ġflorerito": 7766,
      "ĠRed": 7767,
      "ĠRetiro": 7768,
      "Ġamorosas": 7769,
      "Conque": 7770,
      "Conoces": 7771,
      "dancia": 7772,
      "tril": 7773,
      "trica": 7774,
      "Ġcrujir": 7775,
      "estaciones": 7776,
      "Ġpuntera": 7777,
      "Ġpuntillas": 7778,
      "ĠmÃ©rito": 7779,
      "Ġtirar": 7780,
      "Ġtiras": 7781,
      "Poco": 7782,
      "udante": 7783,
      "Ġatrever": 7784,
      "Ġtoros": 7785,
      "Ġtorero": 7786,
      "Ġtortel": 7787,
      "Ġnovelas": 7788,
      "Ġcontrato": 7789,
      "Ġahorra": 7790,
      "Ġahorcar": 7791,
      "Ġahorcan": 7792,
      "Ġahorrado": 7793,
      "ĠÃ©stas": 7794,
      "Ġponerle": 7795,
      "Ġsienten": 7796,
      "Ġsentar": 7797,
      "ĠsentÃŃa": 7798,
      "Ġsentarse": 7799,
      "ĠsentÃ¡ndose": 7800,
      "ĠautobÃºs": 7801,
      "Ġtercie": 7802,
      "Ġterciopelo": 7803,
      "Ġtribu": 7804,
      "Ġtribun": 7805,
      "Ġvari": 7806,
      "Ġvariar": 7807,
      "Ġencargo": 7808,
      "Ġculito": 7809,
      "Ġrevienta": 7810,
      "Ġrevuelto": 7811,
      "Ġentienden": 7812,
      "blÃ³": 7813,
      "ctitud": 7814,
      "cticante": 7815,
      "mentales": 7816,
      "Ġsorda": 7817,
      "Ġsorbe": 7818,
      "Ġsorbo": 7819,
      "Ġsordidez": 7820,
      "Ġbanqueta": 7821,
      "Ġgorri": 7822,
      "Ġgorro": 7823,
      "Ġgordas": 7824,
      "Ġreciba": 7825,
      "ĠrecibiÃ³": 7826,
      "Ġrecibir": 7827,
      "ĠhablÃ³": 7828,
      "Ġacosado": 7829,
      "Ġacostarse": 7830,
      "Ġacabado": 7831,
      "Ġacabaron": 7832,
      "Ġolvidas": 7833,
      "Ġolvidando": 7834,
      "Ġolvidado": 7835,
      "Ġembo": 7836,
      "Ġembria": 7837,
      "Ġdecentes": 7838,
      "Ġmerecer": 7839,
      "Ġmereces": 7840,
      "ĠmerecÃŃa": 7841,
      "Ġquinto": 7842,
      "Ġnegras": 7843,
      "Ġnegros": 7844,
      "Ġhonor": 7845,
      "Ġhonra": 7846,
      "Ġhonrada": 7847,
      "Ġencom": 7848,
      "cillos": 7849,
      "Ġdesnudo": 7850,
      "Ġdesnudas": 7851,
      "Ġpermanencia": 7852,
      "Ġapoyados": 7853,
      "Ġrespetuoso": 7854,
      "Ġordenancis": 7855,
      "ĠdejarÃ¡s": 7856,
      "Quiero": 7857,
      "AllÃŃ": 7858,
      "Ġsentada": 7859,
      "Ġpatada": 7860,
      "Ġasiduidad": 7861,
      "Ġllevarlo": 7862,
      "Ġligero": 7863,
      "Ġligeros": 7864,
      "Ġatento": 7865,
      "Ġatender": 7866,
      "ĠplantÃ³": 7867,
      "Ġtierra": 7868,
      "ĠhistÃ³rica": 7869,
      "Ġescapar": 7870,
      "Ġentere": 7871,
      "ĠMorales": 7872,
      "ĠMorrÃ¡zo": 7873,
      "ĠArmada": 7874,
      "Ġdescuida": 7875,
      "Ġdescuento": 7876,
      "Ġbajaba": 7877,
      "Ġexplic": 7878,
      "Ġexplicar": 7879,
      "Ġexplique": 7880,
      "Ġempleada": 7881,
      "Ġsacarle": 7882,
      "Ġsacarlo": 7883,
      "ĠtomarÃ©": 7884,
      "Ġtomarnos": 7885,
      "Ġpudiese": 7886,
      "Ġpudieron": 7887,
      "Ġabrirle": 7888,
      "Ġcigarra": 7889,
      "Ġtremendas": 7890,
      "ĠpolÃŃticas": 7891,
      "Ġnecesi": 7892,
      "Ġnecesita": 7893,
      "Ġnecesito": 7894,
      "Ġnecesidad": 7895,
      "Ġnecesidades": 7896,
      "Pobrecita": 7897,
      "Ġzor": 7898,
      "ĠÃīsa": 7899,
      "ĠÃītica": 7900,
      "ĠÃīste": 7901,
      "ĠquedarÃ¡": 7902,
      "Ġconversaciones": 7903,
      "ĠMiguel": 7904,
      "Ġanimada": 7905,
      "Ġanimales": 7906,
      "ĠcomprarÃ©": 7907,
      "Ġcomprarle": 7908,
      "Ġcomprarme": 7909,
      "Ġcomprarles": 7910,
      "ĠHacienda": 7911,
      "Ġimpresiones": 7912,
      "Ġexpuesto": 7913,
      "Ġexplota": 7914,
      "dinillo": 7915,
      "Ġpinza": 7916,
      "Ġpintor": 7917,
      "Ġpintar": 7918,
      "Ġdedican": 7919,
      "Ġdedicada": 7920,
      "Ġmadres": 7921,
      "Ġmadera": 7922,
      "ĠentraÃ±": 7923,
      "Ġentraba": 7924,
      "Ġelegir": 7925,
      "Ġsuav": 7926,
      "Ġfea": 7927,
      "Ġfuesen": 7928,
      "Ġfueses": 7929,
      "Ġgrullo": 7930,
      "Ġsirva": 7931,
      "ĠsiguiÃ³": 7932,
      "ĠCarlos": 7933,
      "ĠCarrera": 7934,
      "ĠCarabanchel": 7935,
      "ĠSonrÃŃe": 7936,
      "Ġrecuerdos": 7937,
      "ĠrÃŃÃ±ones": 7938,
      "ĠllamarÃ©": 7939,
      "ĠacordÃ³": 7940,
      "Ġprefer": 7941,
      "Ġvenirse": 7942,
      "Ġvenirnos": 7943,
      "Ġcorrector": 7944,
      "Ġtrabajan": 7945,
      "Ġpanaderos": 7946,
      "Ġpreocupaba": 7947,
      "geles": 7948,
      "gelito": 7949,
      "pone": 7950,
      "pondrÃŃa": 7951,
      "veselo": 7952,
      "ĠQuien": 7953,
      "Ġclasi": 7954,
      "ĠtosiÃ³": 7955,
      "Ġhotel": 7956,
      "Ã¡bamos": 7957,
      "Ã©rmelo": 7958,
      "Ġlechuza": 7959,
      "ĠcompaÃ±ÃŃa": 7960,
      "Ġpoderosos": 7961,
      "Ġdeseos": 7962,
      "Ġdesequilib": 7963,
      "ĠcastaÃ±a": 7964,
      "Ġvirgo": 7965,
      "Ġvirtud": 7966,
      "Ġviruelas": 7967,
      "Ġtendero": 7968,
      "Ġreligiosas": 7969,
      "Ġacompas": 7970,
      "ĠacompaÃ±a": 7971,
      "ĠObras": 7972,
      "Ġestudios": 7973,
      "Ġestudiando": 7974,
      "Ġestudiantes": 7975,
      "Ġgolpecito": 7976,
      "Ġcriadita": 7977,
      "Ġcriaturas": 7978,
      "Ġimagen": 7979,
      "Ġimagino": 7980,
      "Ġmerendando": 7981,
      "Ġfavores": 7982,
      "jemplo": 7983,
      "Ġpulgas": 7984,
      "ĠpulmÃ³n": 7985,
      "ĠdeberÃ¡n": 7986,
      "Ġtropez": 7987,
      "Ġescuchar": 7988,
      "Ġescuchando": 7989,
      "Ġencendida": 7990,
      "Ġbureo": 7991,
      "Ġbulevar": 7992,
      "Ġgritar": 7993,
      "Ġgitana": 7994,
      "Ġgitano": 7995,
      "Ġgitanito": 7996,
      "ĠestreÃ±imiento": 7997,
      "Ġestrechitos": 7998,
      "ĠCasa": 7999,
      "ĠCastro": 8000,
      "Ġverdecito": 8001,
      "ĠFernanda": 8002,
      "ĠFernÃ¡ndez": 8003,
      "Ġjunio": 8004,
      "Ġaprendido": 8005,
      "ĠaprendÃŃ": 8006,
      "Ġpropio": 8007,
      "Ġpropuesto": 8008,
      "ĠresultÃ³": 8009,
      "Ġresultado": 8010,
      "plicando": 8011,
      "Ġmorirse": 8012,
      "SeÃ±ores": 8013,
      "fasis": 8014,
      "Ġjaula": 8015,
      "Ġdenunci": 8016,
      "Ġcep": 8017,
      "Ġceja": 8018,
      "Ġclava": 8019,
      "Ġclavos": 8020,
      "Ġclara": 8021,
      "Ġpiensan": 8022,
      "Ġdeform": 8023,
      "Ġdefender": 8024,
      "Ġdefini": 8025,
      "Ġquicio": 8026,
      "Ġtablas": 8027,
      "Ġtabique": 8028,
      "Ġterneza": 8029,
      "Ġnaranja": 8030,
      "Ġhonesta": 8031,
      "Ġhonestas": 8032,
      "Ġhonestamente": 8033,
      "ĠcuraciÃ³n": 8034,
      "ĠChus": 8035,
      "ĠChamar": 8036,
      "Ġdescansa": 8037,
      "Ġmilagros": 8038,
      "Ġrecorre": 8039,
      "Ġvioleta": 8040,
      "Ġsobrino": 8041,
      "Ġsobrinos": 8042,
      "Ġdistraer": 8043,
      "ĠdistraÃŃdo": 8044,
      "Ġpresentan": 8045,
      "Ġpresentarse": 8046,
      "ĠpequeÃ±ita": 8047,
      "CuÃ¡nta": 8048,
      "CuÃ¡ntos": 8049,
      "Ġsentimentales": 8050,
      "Ġlavabo": 8051,
      "Ġprefiero": 8052,
      "Ġprefieren": 8053,
      "Michino": 8054,
      "dÃ³name": 8055,
      "posiciones": 8056,
      "Ġdoradas": 8057,
      "Ġcircun": 8058,
      "Ġacatarrado": 8059,
      "Ġapaga": 8060,
      "Ġapagar": 8061,
      "Ġapagada": 8062,
      "Ġpisos": 8063,
      "Ġvals": 8064,
      "Ġvalor": 8065,
      "Ġvalgo": 8066,
      "Ġvalores": 8067,
      "Ġfrescas": 8068,
      "Ġfilas": 8069,
      "Ġfiloso": 8070,
      "Ġfrunce": 8071,
      "Ġfruncido": 8072,
      "Ġmuevo": 8073,
      "ĠLlegÃ³": 8074,
      "ĠsimpÃ¡tico": 8075,
      "Ġsimplemente": 8076,
      "ĠcasarÃ©": 8077,
      "ĠValde": 8078,
      "Ġinforma": 8079,
      "Ġinfernal": 8080,
      "Ġrascando": 8081,
      "ĠSeguimos": 8082,
      "Ġresign": 8083,
      "Ġdistingue": 8084,
      "ĠdÃ©jala": 8085,
      "ĠextraÃ±ada": 8086,
      "DÃ©jalo": 8087,
      "PatÃ³n": 8088,
      "Todos": 8089,
      "ioridad": 8090,
      "piros": 8091,
      "Ġcriminal": 8092,
      "Ġasegurar": 8093,
      "Ġpluma": 8094,
      "Ġplumero": 8095,
      "Ġprimo": 8096,
      "Ġmening": 8097,
      "Ġmendigo": 8098,
      "Ġtumbos": 8099,
      "Ġnervios": 8100,
      "Ġhumo": 8101,
      "Ġconvento": 8102,
      "Ġconvencer": 8103,
      "Ġconfidente": 8104,
      "Ġflato": 8105,
      "Ġflaccidas": 8106,
      "legiata": 8107,
      "Ġofrecerle": 8108,
      "ĠMallarmÃ©": 8109,
      "ĠPalom": 8110,
      "ĠCork": 8111,
      "ĠComunica": 8112,
      "ĠCompaÃ±ÃŃa": 8113,
      "Ġreunido": 8114,
      "Ġreunidos": 8115,
      "Ġretirarme": 8116,
      "Ġchupa": 8117,
      "Ġrendido": 8118,
      "Ġtiemblan": 8119,
      "Ġasomaba": 8120,
      "Ġasomaron": 8121,
      "Ġasomaban": 8122,
      "ĠBancos": 8123,
      "Ġdiscurso": 8124,
      "Ġdiscursos": 8125,
      "Ġrepresent": 8126,
      "ĠesperarÃ©": 8127,
      "Ġregalos": 8128,
      "ĠregalÃ³": 8129,
      "Ġcruzadas": 8130,
      "Ġtemblorosa": 8131,
      "Ġtembloroso": 8132,
      "Dile": 8133,
      "Ġuvas": 8134,
      "Ġacueste": 8135,
      "Ġmolesta": 8136,
      "Ġquitaba": 8137,
      "ĠnÃºmeros": 8138,
      "Ġsemanas": 8139,
      "Ġveladores": 8140,
      "ĠenseÃ±a": 8141,
      "ĠenseÃ±Ã¡ndole": 8142,
      "Ġbalde": 8143,
      "Ġbombones": 8144,
      "Ġfaroles": 8145,
      "Ġgallo": 8146,
      "Ġdelicados": 8147,
      "Ġdelicadas": 8148,
      "Ġdigno": 8149,
      "ĠdigestiÃ³n": 8150,
      "ĠCielo": 8151,
      "ĠCiudad": 8152,
      "ĠCojon": 8153,
      "ĠColegiata": 8154,
      "Ġdespacho": 8155,
      "Ġremora": 8156,
      "Ġremolque": 8157,
      "Ġeduca": 8158,
      "Ġindividu": 8159,
      "Ġintenso": 8160,
      "Ġintenciones": 8161,
      "Ġcallada": 8162,
      "Ġcatedral": 8163,
      "Ġaprecia": 8164,
      "ĠapretÃ³": 8165,
      "Ġproblemas": 8166,
      "Ġaburri": 8167,
      "Ġaburrido": 8168,
      "Ġdiscreto": 8169,
      "Ġdiscretas": 8170,
      "Ġcaballeros": 8171,
      "ĠJavierÃŃn": 8172,
      "ĠcariÃ±osos": 8173,
      "Ġautoridad": 8174,
      "Ġautoridades": 8175,
      "ĠdominÃ³": 8176,
      "Ġdominio": 8177,
      "Ġanimalidad": 8178,
      "Chist": 8179,
      "Puedo": 8180,
      "Ġciencia": 8181,
      "Ġagon": 8182,
      "Ġagrios": 8183,
      "Ġajada": 8184,
      "Ġajena": 8185,
      "Ġademanes": 8186,
      "Ġpusiera": 8187,
      "Ġmentira": 8188,
      "ĠtrÃ¡g": 8189,
      "Ġterminar": 8190,
      "ĠterminÃ³": 8191,
      "Ġterminada": 8192,
      "Ġquejaba": 8193,
      "ĠquejÃ¡ndose": 8194,
      "recidos": 8195,
      "ĠengaÃ±Ã³": 8196,
      "Ġbene": 8197,
      "ĠbendiciÃ³n": 8198,
      "Ġbreves": 8199,
      "Ġconseguir": 8200,
      "Ġsucede": 8201,
      "Ġsucedido": 8202,
      "Ġsujeta": 8203,
      "Ġsujetar": 8204,
      "Ġalumbrar": 8205,
      "Ġcuaderno": 8206,
      "Ġcuadernito": 8207,
      "ĠPerpetu": 8208,
      "Ġdirecto": 8209,
      "ĠdirecciÃ³n": 8210,
      "Ġdirector": 8211,
      "ĠRafael": 8212,
      "Ġdesayun": 8213,
      "ĠdespidiÃ³": 8214,
      "Ġrepetidos": 8215,
      "Ġreflejan": 8216,
      "Ġedictos": 8217,
      "Ġeditores": 8218,
      "Ġeditorial": 8219,
      "Ġinvite": 8220,
      "Ġinvitarte": 8221,
      "Ġllenan": 8222,
      "Ġamarga": 8223,
      "Ġamarillos": 8224,
      "Ġamargura": 8225,
      "Ġarrobas": 8226,
      "Ġarrastrar": 8227,
      "Ġpicota": 8228,
      "Ġpensionistas": 8229,
      "Ġdisgustos": 8230,
      "Ġaguantaba": 8231,
      "Ġconforma": 8232,
      "Ġconforme": 8233,
      "Ġconformidad": 8234,
      "Ġadmi": 8235,
      "ĠencontrarÃ¡": 8236,
      "Ġencontraremos": 8237,
      "Ġtemblando": 8238,
      "ĠautÃ©ntico": 8239,
      "Ġacordaron": 8240,
      "ĠdifÃŃciles": 8241,
      "Ġresignaciones": 8242,
      "Ġalborote": 8243,
      "Ġalborotar": 8244,
      "PerdÃ³name": 8245,
      "ĠjergÃ³n": 8246,
      "Ġjeribe": 8247,
      "Ġjersey": 8248,
      "Ġceleb": 8249,
      "Ġatraves": 8250,
      "Ġpuros": 8251,
      "Ġpurpur": 8252,
      "Ġtema": 8253,
      "Ġtemer": 8254,
      "tamante": 8255,
      "Ġbaraja": 8256,
      "Ġconsejos": 8257,
      "Ġsuplicantes": 8258,
      "Ġforrado": 8259,
      "ĠfÃ¡ciles": 8260,
      "Ġalimentos": 8261,
      "Ġgemelos": 8262,
      "Ġmusical": 8263,
      "ĠAutor": 8264,
      "Ġdivino": 8265,
      "ĠRuiz": 8266,
      "ĠRosalÃŃa": 8267,
      "ĠCreo": 8268,
      "Ġdespedir": 8269,
      "ĠSagrada": 8270,
      "Ġinoport": 8271,
      "Ġcharlan": 8272,
      "Ġcapri": 8273,
      "Ġcapilla": 8274,
      "Ġcolegi": 8275,
      "Ġcolegio": 8276,
      "Ġtratarlo": 8277,
      "Ġapuro": 8278,
      "Ġproducen": 8279,
      "ĠproducciÃ³n": 8280,
      "Ġabandonado": 8281,
      "ĠAlfonso": 8282,
      "Ġvendedores": 8283,
      "ĠGloria": 8284,
      "Ġbautizo": 8285,
      "Ġexigencias": 8286,
      "ĠsacÃ¡ndole": 8287,
      "ĠprÃ³ximo": 8288,
      "Ġpalomas": 8289,
      "Ġconsolar": 8290,
      "Ġconsolarla": 8291,
      "Ġconsulta": 8292,
      "fectible": 8293,
      "ĠpelÃŃcula": 8294,
      "ĠSocorro": 8295,
      "ĠarreglarÃ¡n": 8296,
      "Ġadquirido": 8297,
      "Ã¡rbara": 8298,
      "ministrativo": 8299,
      "Ġantiguo": 8300,
      "Ġentornado": 8301,
      "ĠBartolo": 8302,
      "Ġorganizar": 8303,
      "Ġorganizan": 8304,
      "Ġorganizado": 8305,
      "TÃ³mala": 8306,
      "forma": 8307,
      "Ġzarzuela": 8308,
      "Ġlance": 8309,
      "Ġlanzarse": 8310,
      "Ġaficionado": 8311,
      "Ġpicardeado": 8312,
      "Ġtasca": 8313,
      "Ġturbia": 8314,
      "ĠladrÃ³n": 8315,
      "Ġladrones": 8316,
      "Ġhinchado": 8317,
      "Ġsecreto": 8318,
      "Ġviniendo": 8319,
      "Ã©ctico": 8320,
      "Ġbillete": 8321,
      "Ġcontigua": 8322,
      "Ġconvecina": 8323,
      "Ġconvecino": 8324,
      "Ġsufrag": 8325,
      "Ġfrac": 8326,
      "Ġflexible": 8327,
      "Ġformas": 8328,
      "Ġformal": 8329,
      "Ġalcanzar": 8330,
      "ĠEchegaray": 8331,
      "timismo": 8332,
      "Ġoyen": 8333,
      "Ġoyes": 8334,
      "Ġoperen": 8335,
      "ĠMerche": 8336,
      "ĠRespira": 8337,
      "ĠReserva": 8338,
      "ĠCamilo": 8339,
      "Ġdeshon": 8340,
      "Ġdesdicha": 8341,
      "ĠSindica": 8342,
      "Ġredonde": 8343,
      "Ġevacu": 8344,
      "Ġsofocado": 8345,
      "Ġsofocada": 8346,
      "Ġingenua": 8347,
      "Ġcalceta": 8348,
      "ĠcalentÃ¡ndose": 8349,
      "Ġcauces": 8350,
      "ĠTome": 8351,
      "ĠEstoy": 8352,
      "Ġvocecita": 8353,
      "Ġapuntados": 8354,
      "ĠGuÃ¡rdese": 8355,
      "Ġespinazo": 8356,
      "ĠempujÃ³": 8357,
      "Ġcolabora": 8358,
      "Ġpeligro": 8359,
      "Ġpeligroso": 8360,
      "ĠinterrumpiÃ³": 8361,
      "ĠaparecÃŃa": 8362,
      "Ġtrasnochar": 8363,
      "ĠlÃ¡pices": 8364,
      "ĠdomÃ©stico": 8365,
      "ĠdomÃ©sticos": 8366,
      "ĠdecÃŃrmelo": 8367,
      "ĠpermitiÃ³": 8368,
      "Ġpermitido": 8369,
      "ĠagradarÃŃa": 8370,
      "Ġzumban": 8371,
      "Ġimpresionado": 8372,
      "Ġdescansado": 8373,
      "Ġhumildemente": 8374,
      "Ġatavismos": 8375,
      "Ġabsolu": 8376,
      "Ġorgulloso": 8377,
      "ĠÃģngulo": 8378,
      "ĠÃģngeles": 8379,
      "ĠpÃ¡gina": 8380,
      "Ġacostumbrados": 8381,
      "busch": 8382,
      "Ġrancio": 8383,
      "Ġurgente": 8384,
      "ĠcÃ¡lculos": 8385,
      "ĠcrÃ©ame": 8386,
      "ĠcrÃ©dito": 8387,
      "ĠaÃ±adiÃ³": 8388,
      "ĠaÃ±adir": 8389,
      "Ġagacha": 8390,
      "Ġpradera": 8391,
      "Ġpracticante": 8392,
      "Ġpintada": 8393,
      "Ġdevuelto": 8394,
      "Ġdevuelve": 8395,
      "Ġtuerce": 8396,
      "Ġhuyendo": 8397,
      "Ġsexo": 8398,
      "Ġenvuelta": 8399,
      "ciÃ©ndole": 8400,
      "ĠbiografÃŃa": 8401,
      "Ġbruto": 8402,
      "Ġconducir": 8403,
      "Ġconcurso": 8404,
      "Ġconcursos": 8405,
      "Ġflote": 8406,
      "ĠfirmÃ³": 8407,
      "Ġfundamento": 8408,
      "Ġoptimismo": 8409,
      "Ġobede": 8410,
      "ĠMurillo": 8411,
      "ĠcomenzÃ³": 8412,
      "ĠcomuniÃ³n": 8413,
      "Ġcurs": 8414,
      "ĠPrefier": 8415,
      "Ġdivierte": 8416,
      "Ġdivierten": 8417,
      "ĠRivera": 8418,
      "ĠCalvo": 8419,
      "Ġdescomunal": 8420,
      "Ġretortijones": 8421,
      "Ġrepite": 8422,
      "Ġrebosante": 8423,
      "Ġrebosantes": 8424,
      "Ġhablase": 8425,
      "Ġindefectible": 8426,
      "ĠpastelerÃŃa": 8427,
      "Ġanoche": 8428,
      "Ġcochinos": 8429,
      "Ġcopeo": 8430,
      "Ġcopeja": 8431,
      "Ġpaisajes": 8432,
      "Ġcampanas": 8433,
      "Ġperfecta": 8434,
      "Ġperplejo": 8435,
      "Ġperpleja": 8436,
      "ĠtrajÃŃn": 8437,
      "Ġrumbo": 8438,
      "Ġrumores": 8439,
      "ĠFilosofÃŃa": 8440,
      "ĠFlores": 8441,
      "ĠFlorent": 8442,
      "Ġjusticia": 8443,
      "Ġmarqueses": 8444,
      "Ġmarquesito": 8445,
      "ĠasustÃ³": 8446,
      "Ġignor": 8447,
      "Ġignora": 8448,
      "Ġpretensiones": 8449,
      "Ġabundante": 8450,
      "Ġabundancia": 8451,
      "Ġcompostura": 8452,
      "ĠcomposiciÃ³n": 8453,
      "ĠBusca": 8454,
      "ĠBustamante": 8455,
      "ĠBurgos": 8456,
      "Ġsacase": 8457,
      "Ġduquesa": 8458,
      "Ġtarjeta": 8459,
      "Ġtarjetas": 8460,
      "Ġmodesto": 8461,
      "Ġreponerse": 8462,
      "Ġdobla": 8463,
      "Ġcaballo": 8464,
      "Ġpellizca": 8465,
      "Ġbeatitud": 8466,
      "ĠSobrÃ³n": 8467,
      "ĠSobrino": 8468,
      "Ã¡rsela": 8469,
      "Ġmoribundo": 8470,
      "Ġfatalidad": 8471,
      "Ġayudarnos": 8472,
      "Ġocurrencia": 8473,
      "Ġprofundidad": 8474,
      "Ġgobernador": 8475,
      "Ġgobernantes": 8476,
      "Ġestremece": 8477,
      "ĠCorreos": 8478,
      "Ġminutos": 8479,
      "ĠminÃºsculo": 8480,
      "ĠminÃºscula": 8481,
      "ĠautomÃ³vil": 8482,
      "ĠautomÃ³viles": 8483,
      "ĠAuxilio": 8484,
      "ĠAuxiliadora": 8485,
      "ĠreconocerÃ¡": 8486,
      "ĠespaÃ±olas": 8487,
      "Ġenamorado": 8488,
      "Ġestraperlistas": 8489,
      "Ġhabituales": 8490,
      "Ġprecipitadamente": 8491,
      "Ġmonserga": 8492,
      "Ġmonsergas": 8493,
      "Bobo": 8494,
      "Bestia": 8495,
      "CÃ¡lmese": 8496,
      "ERA": 8497,
      "SerÃ¡": 8498,
      "TrÃ¡eme": 8499,
      "stituto": 8500,
      "velt": 8501,
      "ĠdramÃ¡tico": 8502,
      "Ġderroteros": 8503,
      "Ġlineas": 8504,
      "Ġlisto": 8505,
      "ĠsartÃ©n": 8506,
      "Ġsargentos": 8507,
      "ĠcestÃ³n": 8508,
      "Ġciclista": 8509,
      "ĠcÃ©ntimos": 8510,
      "ĠcrÃ³nico": 8511,
      "Ġprisas": 8512,
      "Ġdetalle": 8513,
      "Ġdependiese": 8514,
      "Ġquisiese": 8515,
      "Ġtaller": 8516,
      "ĠtronÃŃo": 8517,
      "ĠnublÃ³": 8518,
      "ĠvÃŃbora": 8519,
      "Ġengorda": 8520,
      "Ġbrinda": 8521,
      "Ġconejos": 8522,
      "Ġconquista": 8523,
      "Ġcondiciones": 8524,
      "rillos": 8525,
      "Ġsulfam": 8526,
      "Ġsuprarren": 8527,
      "Ġsuplico": 8528,
      "Ġsuperioridad": 8529,
      "ĠfÃŃe": 8530,
      "Ġfolle": 8531,
      "ĠfrÃŃas": 8532,
      "Ġfantasma": 8533,
      "Ġalmuerza": 8534,
      "Ġglobos": 8535,
      "Ġgiros": 8536,
      "Ġgiratoria": 8537,
      "Ġobreros": 8538,
      "ĠMinisterio": 8539,
      "Ġcomentario": 8540,
      "ĠDirecciÃ³n": 8541,
      "ĠDÃ©jame": 8542,
      "ĠsiÃ©ntate": 8543,
      "ĠPablito": 8544,
      "ĠestÃºpida": 8545,
      "Ġdijimos": 8546,
      "Ġdijeron": 8547,
      "Ġpoema": 8548,
      "ĠRomanones": 8549,
      "ĠCincuenta": 8550,
      "ĠCaballerÃŃa": 8551,
      "Ġdescolor": 8552,
      "Ġdesmayados": 8553,
      "ĠdesanimÃ³": 8554,
      "ĠSilva": 8555,
      "Ġmimoso": 8556,
      "Ġreaccion": 8557,
      "Ġveterinario": 8558,
      "Ġsoplando": 8559,
      "Ġintacto": 8560,
      "Ġinventar": 8561,
      "ĠintentÃ³": 8562,
      "ĠinÃºtiles": 8563,
      "ĠllÃ©veselo": 8564,
      "Ġaniversario": 8565,
      "Ġchocolate": 8566,
      "ĠTelmo": 8567,
      "ĠFui": 8568,
      "Ġjardinillo": 8569,
      "ĠjurÃŃdico": 8570,
      "Ġjurado": 8571,
      "Ġtitube": 8572,
      "Ġargumentos": 8573,
      "Ġarrancar": 8574,
      "Ġarrimar": 8575,
      "Ġpicadura": 8576,
      "Ġasuntos": 8577,
      "Ġaposta": 8578,
      "ĠOnce": 8579,
      "Ġimpreciso": 8580,
      "Ġimprecisos": 8581,
      "ĠLeocadia": 8582,
      "ĠNinguno": 8583,
      "Ġexacto": 8584,
      "Ġtuberculosos": 8585,
      "Ġprueba": 8586,
      "ĠprenderÃŃas": 8587,
      "Ġcorderito": 8588,
      "Ġdisplicente": 8589,
      "Ġdisciplina": 8590,
      "Ġpresurosas": 8591,
      "Ġpresentimiento": 8592,
      "ĠriÃ±es": 8593,
      "Ġinsomn": 8594,
      "Ġsolitarios": 8595,
      "ĠtÃŃteres": 8596,
      "Ġclientela": 8597,
      "ĠclÃ¡sico": 8598,
      "Ġgolfear": 8599,
      "Ġliterario": 8600,
      "Ġconfundir": 8601,
      "Ġencuentras": 8602,
      "Ġromances": 8603,
      "ĠrevolviÃ³": 8604,
      "Ġrecibidor": 8605,
      "Ġdesagradable": 8606,
      "Ġiluminado": 8607,
      "ĠartÃŃculo": 8608,
      "Ġvirtuosa": 8609,
      "Ġreluciente": 8610,
      "Ġsombrereras": 8611,
      "Ġpulseras": 8612,
      "Ġbigotuda": 8613,
      "Ġobstin": 8614,
      "ĠÃĵigame": 8615,
      "ĠChurchill": 8616,
      "Ġcomprometido": 8617,
      "ĠfilÃ³sofo": 8618,
      "Ġhubiese": 8619,
      "ĠsobrarÃ¡": 8620,
      "ĠabstraÃŃda": 8621,
      "Ġindiferencia": 8622,
      "ĠExuperio": 8623,
      "Ġinteligente": 8624,
      "Ġcelebramos": 8625,
      "Ġconsecuencias": 8626,
      "Ġgemelitos": 8627,
      "Ġadopta": 8628,
      "ĠMerceditas": 8629,
      "Ġabsolutamente": 8630,
      "Ġhambriento": 8631,
      "Ġatropellan": 8632,
      "ĠhuÃ©spedes": 8633,
      "Ġconclusiones": 8634,
      "Ġgladiador": 8635,
      "Ġcastellano": 8636,
      "ĠeconÃ³micas": 8637,
      "ĠNavarrete": 8638,
      "Anoche": 8639,
      "CÃ³brese": 8640,
      "Joaqu": 8641,
      "Luisa": 8642,
      "Luchamos": 8643,
      "Londres": 8644,
      "Morir": 8645,
      "Madrid": 8646,
      "Pierrot": 8647,
      "Suerte": 8648,
      "Trini": 8649,
      "hrer": 8650,
      "hardilla": 8651,
      "kings": 8652,
      "Ġitali": 8653,
      "ĠÃ©nfasis": 8654,
      "Ġllover": 8655,
      "Ġlentitud": 8656,
      "ĠlÃ¡rgate": 8657,
      "Ġluminosa": 8658,
      "Ġsmokings": 8659,
      "ĠcoÃ±ac": 8660,
      "Ġclandestin": 8661,
      "Ġcegadora": 8662,
      "Ġczardas": 8663,
      "ĠcÃ¡rcel": 8664,
      "Ġcentral": 8665,
      "Ġajedrez": 8666,
      "ĠatÃ³nitos": 8667,
      "Ġagosto": 8668,
      "Ġaullido": 8669,
      "ĠplÃ¡tano": 8670,
      "Ġdegolla": 8671,
      "Ġtruchas": 8672,
      "ĠhÃºmedo": 8673,
      "Ġhimno": 8674,
      "ĠharagÃ¡n": 8675,
      "Ġesmalte": 8676,
      "Ġvamonos": 8677,
      "Ġvinagre": 8678,
      "Ġentierro": 8679,
      "Ġenroje": 8680,
      "Ġenlazadas": 8681,
      "Ġencantos": 8682,
      "ĠenÃ©rgico": 8683,
      "ĠenciÃ©nda": 8684,
      "Ġennegrecidos": 8685,
      "Ã¡ctica": 8686,
      "Ã©dulas": 8687,
      "ĠelÃ©ctrica": 8688,
      "ĠnoctÃ¡mbulos": 8689,
      "ĠbujÃŃas": 8690,
      "Ġcontemplan": 8691,
      "Ġalmend": 8692,
      "Ġalcalde": 8693,
      "Ġlocuaz": 8694,
      "Ġgaraje": 8695,
      "Ġgabanes": 8696,
      "Ġgarrote": 8697,
      "Ġmugriento": 8698,
      "Ġmembrete": 8699,
      "ĠMadame": 8700,
      "ĠDerecho": 8701,
      "Ġcuidadosamente": 8702,
      "ĠcuplÃ©s": 8703,
      "Ġcucharilla": 8704,
      "Ġcumparsita": 8705,
      "Ġcuchitril": 8706,
      "Ġsilogismo": 8707,
      "ĠPimentÃ³n": 8708,
      "ĠPÃºblicas": 8709,
      "ĠPreciados": 8710,
      "ĠPsicologÃŃa": 8711,
      "ĠElvÃŃrita": 8712,
      "Ġdiminuta": 8713,
      "Ġdiciembre": 8714,
      "Ġpopular": 8715,
      "ĠCristina": 8716,
      "ĠCrÃ©ame": 8717,
      "ĠColladense": 8718,
      "Ġdestornillada": 8719,
      "Ġdesmedrado": 8720,
      "Ġdesportillado": 8721,
      "Ġdesflecado": 8722,
      "Ġreborde": 8723,
      "Ġrebusca": 8724,
      "ĠLagasca": 8725,
      "Ġcasquivana": 8726,
      "Ġvictoria": 8727,
      "ĠVillalÃ³n": 8728,
      "Ġnietecito": 8729,
      "ĠintuiciÃ³n": 8730,
      "Ġinyecciones": 8731,
      "Ġinfieles": 8732,
      "Ġintimidad": 8733,
      "ĠinmutÃ³": 8734,
      "Ġinmediato": 8735,
      "Ġcalderilla": 8736,
      "Ġangelitos": 8737,
      "ĠJerÃ³nimo": 8738,
      "Ġchurros": 8739,
      "Ġchistosa": 8740,
      "Ġchamarilero": 8741,
      "Ġcartelito": 8742,
      "Ġmanifestaciones": 8743,
      "Ġcatarros": 8744,
      "Ġsinsabores": 8745,
      "Ġsiniestramente": 8746,
      "ĠTorrijos": 8747,
      "ĠrÃ¡bano": 8748,
      "ĠFalleciÃ³": 8749,
      "ĠFÃ¼hrer": 8750,
      "ĠEscorial": 8751,
      "ĠEstremera": 8752,
      "ĠEstanislao": 8753,
      "ĠRoosevelt": 8754,
      "ĠprecisiÃ³n": 8755,
      "Ġprejuicios": 8756,
      "Ġpregonero": 8757,
      "Ġproyectos": 8758,
      "ĠAlcÃ¡ntara": 8759,
      "ĠGobierno": 8760,
      "ĠGaldÃ¡cano": 8761,
      "Ġbazofia": 8762,
      "ĠCatÃ³lica": 8763,
      "ĠHernÃ¡ndez": 8764,
      "ĠHartzen": 8765,
      "Ġespiritual": 8766,
      "ĠBruno": 8767,
      "ĠBofarull": 8768,
      "ĠNegociado": 8769,
      "Ġsagrado": 8770,
      "Ġbocanada": 8771,
      "ĠdistribuciÃ³n": 8772,
      "ĠsabidurÃŃa": 8773,
      "Ġescalof": 8774,
      "Ġordinarieces": 8775,
      "Ġprestamista": 8776,
      "Ġentrecortado": 8777,
      "Ġrepublic": 8778,
      "Ġsolicitar": 8779,
      "ĠgaznÃ¡piros": 8780,
      "ĠAngustias": 8781,
      "Ġirrigador": 8782,
      "ĠadquisiciÃ³n": 8783,
      "Ġextraordinarias": 8784,
      "Ġembriagado": 8785,
      "Ġdesequilibrio": 8786,
      "Ġdenunciar": 8787,
      "Ġcircuns": 8788,
      "ĠinformaciÃ³n": 8789,
      "Ġmeningitis": 8790,
      "ĠComunicaciones": 8791,
      "ĠCojoncio": 8792,
      "Ġindividualmente": 8793,
      "ĠPerpetuo": 8794,
      "Ġjeribeques": 8795,
      "Ġpurpurina": 8796,
      "Ġinoportuno": 8797,
      "ĠSindicatos": 8798,
      "Ġsulfamidas": 8799,
      "Ġsuprarrenales": 8800,
      "JoaquÃŃn": 8801,
      "Ġclandestinidad": 8802,
      "!\".": 8803,
      "!-,": 8804,
      "!),": 8805,
      "\":": 8806,
      "\"...": 8807,
      ");": 8808,
      ",\"": 8809,
      ",..": 8810,
      "-:": 8811,
      "-Â¿": 8812,
      ".?": 8813,
      ".-Â¿": 8814,
      "?-": 8815,
      "?;": 8816,
      "?\".": 8817,
      "AG": 8818,
      "AL": 8819,
      "AM": 8820,
      "AP": 8821,
      "AR": 8822,
      "Af": 8823,
      "Ata": 8824,
      "Aqui": 8825,
      "Aguado": 8826,
      "Acep": 8827,
      "Acom": 8828,
      "Amigo": 8829,
      "Aquel": 8830,
      "Aquella": 8831,
      "Aparte": 8832,
      "AmÃ©n": 8833,
      "BC": 8834,
      "Be": 8835,
      "Bra": 8836,
      "Bilbao": 8837,
      "Busco": 8838,
      "Ci": 8839,
      "Co": 8840,
      "Car": 8841,
      "Cal": 8842,
      "Cam": 8843,
      "Col": 8844,
      "Cada": 8845,
      "Cum": 8846,
      "Cris": 8847,
      "Casi": 8848,
      "Cierra": 8849,
      "Cria": 8850,
      "CÃ³g": 8851,
      "Caball": 8852,
      "CERA": 8853,
      "CAP": 8854,
      "DA": 8855,
      "DO": 8856,
      "Da": 8857,
      "DÃ¡": 8858,
      "DÃŃa": 8859,
      "Dese": 8860,
      "Digo": 8861,
      "Deb": 8862,
      "Delante": 8863,
      "DiputaciÃ³n": 8864,
      "Dicen": 8865,
      "EG": 8866,
      "EN": 8867,
      "Ex": 8868,
      "Evi": 8869,
      "Ese": 8870,
      "Esa": 8871,
      "Ella": 8872,
      "ELA": 8873,
      "Ejemplo": 8874,
      "ECAP": 8875,
      "EDO": 8876,
      "Fue": 8877,
      "Fuma": 8878,
      "FÃŃjate": 8879,
      "Feliz": 8880,
      "Gan": 8881,
      "Gol": 8882,
      "Geno": 8883,
      "Gato": 8884,
      "Huel": 8885,
      "Hila": 8886,
      "IT": 8887,
      "Ide": 8888,
      "Ibrahim": 8889,
      "Imagen": 8890,
      "Ju": 8891,
      "Jur": 8892,
      "Julio": 8893,
      "LM": 8894,
      "LT": 8895,
      "Li": 8896,
      "Ll": 8897,
      "Lu": 8898,
      "Lad": 8899,
      "Limp": 8900,
      "Luego": 8901,
      "Largo": 8902,
      "Men": 8903,
      "Mer": 8904,
      "Man": 8905,
      "MÃ¡": 8906,
      "MÃ©": 8907,
      "Melo": 8908,
      "Mala": 8909,
      "MarÃŃa": 8910,
      "Manda": 8911,
      "Menudo": 8912,
      "Momento": 8913,
      "NDA": 8914,
      "Otro": 8915,
      "Obra": 8916,
      "OLM": 8917,
      "Pas": 8918,
      "Pon": 8919,
      "Pan": 8920,
      "Pal": 8921,
      "Pien": 8922,
      "PÃ³n": 8923,
      "PÃ¡s": 8924,
      "Padre": 8925,
      "Pelo": 8926,
      "Peg": 8927,
      "Pase": 8928,
      "Pirula": 8929,
      "Pens": 8930,
      "Pensar": 8931,
      "Ros": 8932,
      "Rom": 8933,
      "Ram": 8934,
      "Rela": 8935,
      "RIM": 8936,
      "ROS": 8937,
      "Sr": 8938,
      "SuÃ©": 8939,
      "Sales": 8940,
      "Salta": 8941,
      "SÃ³lo": 8942,
      "Sospe": 8943,
      "Subl": 8944,
      "Solo": 8945,
      "Tu": 8946,
      "Tar": 8947,
      "Tom": 8948,
      "TÃŃa": 8949,
      "Tran": 8950,
      "Tica": 8951,
      "Tener": 8952,
      "Traba": 8953,
      "Teresa": 8954,
      "Tienen": 8955,
      "Uf": 8956,
      "ULA": 8957,
      "UAR": 8958,
      "UNDA": 8959,
      "Vay": 8960,
      "Visi": 8961,
      "Ventura": 8962,
      "Vosotros": 8963,
      "Veo": 8964,
      "Viva": 8965,
      "Vive": 8966,
      "Voces": 8967,
      "VEDO": 8968,
      "Wag": 8969,
      "ao": 8970,
      "au": 8971,
      "aun": 8972,
      "ate": 8973,
      "aÃ±a": 8974,
      "agu": 8975,
      "aza": 8976,
      "aciÃ³n": 8977,
      "atra": 8978,
      "aquÃŃ": 8979,
      "auti": 8980,
      "avil": 8981,
      "avent": 8982,
      "ahÃŃ": 8983,
      "aunque": 8984,
      "ajante": 8985,
      "aplicando": 8986,
      "bÃ³": 8987,
      "bÃ¡": 8988,
      "bal": 8989,
      "bÃ³n": 8990,
      "bando": 8991,
      "bol": 8992,
      "bul": 8993,
      "baba": 8994,
      "bones": 8995,
      "bese": 8996,
      "boso": 8997,
      "biente": 8998,
      "briÃ³": 8999,
      "bundo": 9000,
      "brÃŃo": 9001,
      "bientes": 9002,
      "bulo": 9003,
      "bale": 9004,
      "buti": 9005,
      "bierta": 9006,
      "brista": 9007,
      "blaciÃ³n": 9008,
      "cam": 9009,
      "cÃº": 9010,
      "ctas": 9011,
      "cora": 9012,
      "cmo": 9013,
      "cones": 9014,
      "crÃŃ": 9015,
      "camente": 9016,
      "canas": 9017,
      "ctado": 9018,
      "ctin": 9019,
      "caban": 9020,
      "ctico": 9021,
      "cÃŃs": 9022,
      "came": 9023,
      "cÃ¡ndole": 9024,
      "cella": 9025,
      "celos": 9026,
      "cÃ©r": 9027,
      "crada": 9028,
      "ctus": 9029,
      "cky": 9030,
      "dri": 9031,
      "dis": 9032,
      "denta": 9033,
      "dino": 9034,
      "dina": 9035,
      "dÃŃas": 9036,
      "dano": 9037,
      "dÃŃan": 9038,
      "danto": 9039,
      "dientes": 9040,
      "dentes": 9041,
[...]
