{
  "version": "1.0",
  "truncation": null,
  "padding": null,
  "added_tokens": [
    {
      "id": 0,
      "content": "[PAD]",
      "single_word": false,
      "lstrip": false,
      "rstrip": false,
      "normalized": false,
      "special": true
    },
    {
      "id": 1,
      "content": "[UNK]",
      "single_word": false,
      "lstrip": false,
      "rstrip": false,
      "normalized": false,
      "special": true
    },
    {
      "id": 2,
      "content": "[CLS]",
      "single_word": false,
      "lstrip": false,
      "rstrip": false,
      "normalized": false,
      "special": true
    },
    {
      "id": 3,
      "content": "[SEP]",
      "single_word": false,
      "lstrip": false,
      "rstrip": false,
      "normalized": false,
      "special": true
    }
  ],
  "normalizer": {
    "type": "NFKC"
  },
  "pre_tokenizer": {
    "type": "ByteLevel",
    "add_prefix_space": true,
    "trim_offsets": true,
    "use_regex": true
  },
  "post_processor": {
    "type": "ByteLevel",
    "add_prefix_space": true,
    "trim_offsets": true,
    "use_regex": true
  },
  "decoder": {
    "type": "ByteLevel",
    "add_prefix_space": true,
    "trim_offsets": true,
    "use_regex": true
  },
  "model": {
    "type": "BPE",
    "dropout": null,
    "unk_token": "[UNK]",
    "continuing_subword_prefix": null,
    "end_of_word_suffix": null,
    "fuse_unk": false,
    "byte_fallback": false,
    "ignore_merges": false,
    "vocab": {
      "[PAD]": 0,
      "[UNK]": 1,
      "[CLS]": 2,
      "[SEP]": 3,
      "!": 4,
      "\"": 5,
      "%": 6,
      "&": 7,
      "'": 8,
      "(": 9,
      ")": 10,
      ",": 11,
      "-": 12,
      ".": 13,
      ":": 14,
      ";": 15,
      "?": 16,
      "A": 17,
      "B": 18,
      "C": 19,
      "D": 20,
      "E": 21,
      "F": 22,
      "G": 23,
      "H": 24,
      "I": 25,
      "J": 26,
      "K": 27,
      "L": 28,
      "M": 29,
      "N": 30,
      "O": 31,
      "P": 32,
      "Q": 33,
      "R": 34,
      "S": 35,
      "T": 36,
      "U": 37,
      "V": 38,
      "W": 39,
      "X": 40,
      "Y": 41,
      "Z": 42,
      "a": 43,
      "b": 44,
      "c": 45,
      "d": 46,
      "e": 47,
      "f": 48,
      "g": 49,
      "h": 50,
      "i": 51,
      "j": 52,
      "k": 53,
      "l": 54,
      "m": 55,
      "n": 56,
      "o": 57,
      "p": 58,
      "q": 59,
      "r": 60,
      "s": 61,
      "t": 62,
      "u": 63,
      "v": 64,
      "w": 65,
      "x": 66,
      "y": 67,
      "z": 68,
      "¡": 69,
      "©": 70,
      "«": 71,
      "¯": 72,
      "°": 73,
      "±": 74,
      "³": 75,
      "º": 76,
      "¼": 77,
      "¿": 78,
      "Â": 79,
      "Ã": 80,
      "â": 81,
      "Ċ": 82,
      "č": 83,
      "Ġ": 84,
      "ģ": 85,
      "ī": 86,
      "į": 87,
      "İ": 88,
      "ĵ": 89,
      "Ń": 90,
      "čĊ": 91,
      "Ġd": 92,
      "Ġl": 93,
      "en": 94,
      "Ġs": 95,
      "Ġc": 96,
      "es": 97,
      "Ġa": 98,
      "Ġp": 99,
      "os": 100,
      "er": 101,
      "Ġde": 102,
      "ar": 103,
      "qu": 104,
      "Ġm": 105,
      "as": 106,
      "Ġqu": 107,
      "on": 108,
      "or": 109,
      "Ġt": 110,
      "an": 111,
      "un": 112,
      "Ġque": 113,
      "Ġ-": 114,
      "Ġla": 115,
      "el": 116,
      "Ġy": 117,
      "Ġn": 118,
      "do": 119,
      "ÃŃ": 120,
      "Ġun": 121,
      "ta": 122,
      "Ġh": 123,
      "Ġse": 124,
      "re": 125,
      "Ġes": 126,
      "Ġv": 127,
      "Ã³": 128,
      "Ġen": 129,
      "da": 130,
      "te": 131,
      "ra": 132,
      "in": 133,
      "Ã¡": 134,
      "Ã±": 135,
      "Ã©": 136,
      "ci": 137,
      "Ġel": 138,
      "Ġno": 139,
      "al": 140,
      "ien": 141,
      "om": 142,
      "Ġb": 143,
      "ab": 144,
      "Ġcon": 145,
      "to": 146,
      "Â¡": 147,
      "ch": 148,
      "am": 149,
      "ri": 150,
      "Ġle": 151,
      "Ġsu": 152,
      "Ġf": 153,
      "ÃŃa": 154,
      "Ġal": 155,
      "ĠE": 156,
      "Ġlos": 157,
      "co": 158,
      "Ġlo": 159,
      "Ġg": 160,
      "Â¿": 161,
      "Ġmu": 162,
      "is": 163,
      "Ġuna": 164,
      "le": 165,
      "ĠL": 166,
      "us": 167,
      "ti": 168,
      "ro": 169,
      "Ġme": 170,
      "di": 171,
      "de": 172,
      "la": 173,
      "Ġpar": 174,
      "Ġo": 175,
      "ĠĠ": 176,
      "ĠM": 177,
      "Ġcom": 178,
      "Ġpor": 179,
      "Ġha": 180,
      "ĠD": 181,
      "Ã³n": 182,
      "Ġlas": 183,
      "ca": 184,
      "Ġcu": 185,
      "Ġsi": 186,
      "Ã¡s": 187,
      "ier": 188,
      "go": 189,
      "lo": 190,
      "ĠÂ¡": 191,
      "..": 192,
      "Ġdel": 193,
      "em": 194,
      "ĠA": 195,
      "ce": 196,
      "ĠP": 197,
      "Ġest": 198,
      "ita": 199,
      "Ã±a": 200,
      "ero": 201,
      "ando": 202,
      "ue": 203,
      "ol": 204,
      "Ã±or": 205,
      "bre": 206,
      "ĠEl": 207,
      "ĠseÃ±or": 208,
      "ba": 209,
      "Ġto": 210,
      "Ġdi": 211,
      "Ġpo": 212,
      "ad": 213,
      "ĠR": 214,
      "ĠC": 215,
      "Ġ-Â¡": 216,
      "Ġcomo": 217,
      "ada": 218,
      "Ġdes": 219,
      "ĠS": 220,
      "Ġpara": 221,
      "vi": 222,
      "Ġmi": 223,
      "Ãº": 224,
      "ted": 225,
      "res": 226,
      "Ġya": 227,
      "ĠÂ¿": 228,
      "Ġre": 229,
      "Ġus": 230,
      "Ġ-Â¿": 231,
      "ĠčĊ": 232,
      "ĠLa": 233,
      "gu": 234,
      "era": 235,
      "oÃ±a": 236,
      "cu": 237,
      "Ġusted": 238,
      "ĠmÃ¡s": 239,
      "ente": 240,
      "il": 241,
      "Ġhab": 242,
      "jo": 243,
      "ĠMar": 244,
      "emp": 245,
      "im": 246,
      "Ġdon": 247,
      "ado": 248,
      "No": 249,
      "Ġcas": 250,
      "tr": 251,
      "dad": 252,
      "iene": 253,
      "ent": 254,
      "uÃ©": 255,
      "Ġvi": 256,
      "Ġve": 257,
      "Ġe": 258,
      "dos": 259,
      "ĠV": 260,
      "Ġni": 261,
      "se": 262,
      "Ġver": 263,
      "Ġso": 264,
      "ĠestÃ¡": 265,
      "...": 266,
      "cho": 267,
      "bi": 268,
      "ja": 269,
      "Ġin": 270,
      "za": 271,
      "ga": 272,
      "que": 273,
      "ues": 274,
      "ic": 275,
      "Ġll": 276,
      "Ġpas": 277,
      "osa": 278,
      "Ġmuy": 279,
      "ir": 280,
      "tas": 281,
      "uen": 282,
      "Ġten": 283,
      "ciÃ³n": 284,
      "ul": 285,
      "Ġcal": 286,
      "Ġbien": 287,
      "Ġpoco": 288,
      "io": 289,
      "uel": 290,
      "Ġson": 291,
      "Ġan": 292,
      "cha": 293,
      "ora": 294,
      "Ġser": 295,
      "Ġhom": 296,
      "Ġtiene": 297,
      "ÃŃn": 298,
      "Ã©n": 299,
      "Ġte": 300,
      "tra": 301,
      "pe": 302,
      "ran": 303,
      "tos": 304,
      "cer": 305,
      "Ġyo": 306,
      "ĠJ": 307,
      "Ġlle": 308,
      "Ġtodo": 309,
      "ĠMart": 310,
      "Ġch": 311,
      "Ġcar": 312,
      "Ġman": 313,
      "Ġhi": 314,
      "tes": 315,
      "ĠĠĠčĊ": 316,
      "mo": 317,
      "Ġ\"": 318,
      "Ġca": 319,
      "aba": 320,
      "Ġsin": 321,
      "ia": 322,
      "tor": 323,
      "Ġco": 324,
      "tu": 325,
      "cia": 326,
      "ĠDon": 327,
      "pa": 328,
      "tar": 329,
      "Ġva": 330,
      "Ã¡n": 331,
      "Ġpa": 332,
      "ĠĠčĊ": 333,
      "jer": 334,
      "Ġpare": 335,
      "SÃŃ": 336,
      "uer": 337,
      "ces": 338,
      "Ġcam": 339,
      "enta": 340,
      "Ġper": 341,
      "tan": 342,
      "Ġpero": 343,
      "Ġhombre": 344,
      "Ġtra": 345,
      "ino": 346,
      "Ġam": 347,
      "ĠdoÃ±a": 348,
      "Ġmal": 349,
      "sa": 350,
      "ve": 351,
      "lar": 352,
      "Ġnada": 353,
      "Ġsal": 354,
      "abe": 355,
      "ĠDoÃ±a": 356,
      "ana": 357,
      "Ġquier": 358,
      "ĠMartÃŃn": 359,
      "ido": 360,
      "ter": 361,
      "ĠT": 362,
      "Ġhay": 363,
      "Ġdos": 364,
      "Ġr": 365,
      "Ġesta": 366,
      "gun": 367,
      "QuÃ©": 368,
      "ĠF": 369,
      "Ã±os": 370,
      "Ġllam": 371,
      "tre": 372,
      "ĠquÃ©": 373,
      "Ġmujer": 374,
      "tro": 375,
      "Ġj": 376,
      "Ġti": 377,
      "Ġpue": 378,
      "ur": 379,
      "Ãºn": 380,
      "jos": 381,
      "Ġar": 382,
      "ĠEs": 383,
      "das": 384,
      "Ġpen": 385,
      "Ġmar": 386,
      "ones": 387,
      "cio": 388,
      "Ġsus": 389,
      "ma": 390,
      "va": 391,
      "Ġac": 392,
      "Ġpi": 393,
      "ĠY": 394,
      "Ġas": 395,
      "ĠRo": 396,
      "Ġma": 397,
      "Ġpe": 398,
      "ĠEn": 399,
      "ĠseÃ±orita": 400,
      "Ã±o": 401,
      "Ġi": 402,
      "Ġbuen": 403,
      "Ġcuando": 404,
      "Ġmis": 405,
      "Ġvo": 406,
      "Es": 407,
      "Ġah": 408,
      "fÃ©": 409,
      "me": 410,
      "Ġalgo": 411,
      "ica": 412,
      "Ġsobre": 413,
      "ito": 414,
      "Ġaqu": 415,
      "Ġpre": 416,
      "gar": 417,
      "mente": 418,
      "ina": 419,
      "ios": 420,
      "Ġcos": 421,
      "Ġhas": 422,
      "imp": 423,
      "um": 424,
      "uÃ©s": 425,
      "Ġtam": 426,
      "adre": 427,
      "puÃ©s": 428,
      "ese": 429,
      "Ġap": 430,
      "Ġpro": 431,
      "Ġvuel": 432,
      "empre": 433,
      "Ġab": 434,
      "rÃŃ": 435,
      "vo": 436,
      "Ġparece": 437,
      "car": 438,
      "ras": 439,
      "ĠÃ©": 440,
      "iera": 441,
      "ĠAl": 442,
      "Pues": 443,
      "Ġsiempre": 444,
      "ĠRosa": 445,
      "biÃ©n": 446,
      "las": 447,
      "Ġhacer": 448,
      "Ġcalle": 449,
      "Ġmej": 450,
      "los": 451,
      "mos": 452,
      "Ġhace": 453,
      "ber": 454,
      "Ġcre": 455,
      "Ġcasa": 456,
      "Ġven": 457,
      "rita": 458,
      "ĠG": 459,
      "Ġera": 460,
      "Ġda": 461,
      "Ġba": 462,
      "che": 463,
      "Ġmira": 464,
      "Ġpens": 465,
      "idad": 466,
      "ura": 467,
      "ara": 468,
      "Ġhe": 469,
      "til": 470,
      "Ġcasi": 471,
      "Ġcomp": 472,
      "ĠO": 473,
      "Ġmes": 474,
      "Ġmejor": 475,
      "ig": 476,
      "ĠdÃŃa": 477,
      "Ġtan": 478,
      "Ġmucho": 479,
      "ĠCa": 480,
      "Ġhasta": 481,
      "cÃŃa": 482,
      "po": 483,
      "ĠH": 484,
      "zo": 485,
      "ĠaÃ±os": 486,
      "Ġunos": 487,
      "Ġimp": 488,
      "dar": 489,
      "Ġesp": 490,
      "Ġcin": 491,
      "elo": 492,
      "Ġeso": 493,
      "ĠElvi": 494,
      "ĠSe": 495,
      "ico": 496,
      "les": 497,
      "ĠB": 498,
      "anta": 499,
      "Ġgu": 500,
      "ĠLe": 501,
      "be": 502,
      "bra": 503,
      "tÃ³": 504,
      "ĠN": 505,
      "oso": 506,
      "amos": 507,
      "Ġex": 508,
      "ĠtambiÃ©n": 509,
      "iente": 510,
      "cen": 511,
      "lan": 512,
      "ista": 513,
      "ĠhabÃŃa": 514,
      "Ġdonde": 515,
      "iÃ³": 516,
      "Ġemp": 517,
      "ona": 518,
      "Ġtu": 519,
      "ay": 520,
      "ye": 521,
      "Ġsa": 522,
      "Ġpr": 523,
      "ĠmÃŃ": 524,
      "ante": 525,
      "Ġnovi": 526,
      "Ġmucha": 527,
      "Ġtodos": 528,
      "tras": 529,
      "Un": 530,
      "ten": 531,
      "enos": 532,
      "Ġcor": 533,
      "ÃŃas": 534,
      "Ġbo": 535,
      "Ġgus": 536,
      "cias": 537,
      "Si": 538,
      "Ġres": 539,
      "Ġpon": 540,
      "iendo": 541,
      "ez": 542,
      "Ġra": 543,
      "Ġcosas": 544,
      "ĠCafÃ©": 545,
      "dor": 546,
      "Ġdeci": 547,
      "arse": 548,
      "ĠtÃº": 549,
      "Ġalgun": 550,
      "ĠseÃ±ora": 551,
      "iz": 552,
      "igo": 553,
      "ub": 554,
      "Ġdis": 555,
      "Ġsab": 556,
      "Ġesc": 557,
      "Ġesto": 558,
      "ida": 559,
      "ven": 560,
      "ena": 561,
      "Ġcabe": 562,
      "Ġquer": 563,
      "Ġna": 564,
      "diÃ³": 565,
      "ib": 566,
      "erm": 567,
      "Ġestaba": 568,
      "ver": 569,
      "ĠsÃŃ": 570,
      "ablo": 571,
      "Ġmedi": 572,
      "ĠVic": 573,
      "Buen": 574,
      "âİ": 575,
      "ĠI": 576,
      "Ġor": 577,
      "Ġâİ": 578,
      "rim": 579,
      "Ġojos": 580,
      "ĠJul": 581,
      "Ġâİ¯": 582,
      "der": 583,
      "je": 584,
      "Ġro": 585,
      "Ġdu": 586,
      "ados": 587,
      "ĠCel": 588,
      "torita": 589,
      "Ġtiemp": 590,
      "ĠVictorita": 591,
      "gÃºn": 592,
      "no": 593,
      "Ġcol": 594,
      "ĠPa": 595,
      "tante": 596,
      "Ġvoz": 597,
      "des": 598,
      "Ġbar": 599,
      "ĠMa": 600,
      "ĠElvira": 601,
      "gra": 602,
      "oy": 603,
      "rar": 604,
      "ĠPablo": 605,
      "ĠaquÃŃ": 606,
      "ire": 607,
      "Ġmadre": 608,
      "ĠdespuÃ©s": 609,
      "tros": 610,
      "Ġmano": 611,
      "pi": 612,
      "so": 613,
      "Ġdej": 614,
      "Ġtar": 615,
      "Ġfue": 616,
      "ĠLos": 617,
      "emos": 618,
      "Ġtoda": 619,
      "ĠRober": 620,
      "Ġguar": 621,
      "Ġcabeza": 622,
      "ĠRoberto": 623,
      "isi": 624,
      "ĠNo": 625,
      "Ġpese": 626,
      "Ġvol": 627,
      "Ġgra": 628,
      "bajo": 629,
      "Ġveces": 630,
      "Ġdecir": 631,
      "ĠLo": 632,
      "Ġotro": 633,
      "Ġtengo": 634,
      "Ġcog": 635,
      "Bueno": 636,
      "\",": 637,
      "eg": 638,
      "Ġsabe": 639,
      "ere": 640,
      "ĠDios": 641,
      "ĠPe": 642,
      "Ġpuede": 643,
      "tino": 644,
      "uso": 645,
      "Ġvida": 646,
      "Ġverdad": 647,
      "Ġpasa": 648,
      "Ġllev": 649,
      "Ġhija": 650,
      "bres": 651,
      "ru": 652,
      "Ġdar": 653,
      "ĠsÃ©": 654,
      "ano": 655,
      "Ġent": 656,
      "Ġgran": 657,
      "Ġdice": 658,
      "Ġcara": 659,
      "ĠDes": 660,
      "den": 661,
      "rÃ¡": 662,
      "chas": 663,
      "ris": 664,
      "ĠSu": 665,
      "tura": 666,
      "Ġtiempo": 667,
      "Ġmo": 668,
      "Ġtres": 669,
      "Ġotra": 670,
      "Ya": 671,
      "Ġtien": 672,
      "Ġnos": 673,
      "Ġsegu": 674,
      "laro": 675,
      "ĠYo": 676,
      "Ġnovio": 677,
      "Ġlu": 678,
      "Ġpal": 679,
      "Ġmenos": 680,
      "Ġtom": 681,
      "Ġhub": 682,
      "riÃ³": 683,
      "Ġllama": 684,
      "Ġcreo": 685,
      "unca": 686,
      "Ã³mo": 687,
      "Ġestar": 688,
      "undo": 689,
      "Ġfal": 690,
      "Ġporque": 691,
      "Ġmismo": 692,
      "ĠÃ©l": 693,
      "Ġmesa": 694,
      "Ġpesetas": 695,
      "ie": 696,
      "ĠUn": 697,
      "Ġdur": 698,
      "Ġpres": 699,
      "Ġherm": 700,
      "Ġentre": 701,
      "amente": 702,
      "Ġfin": 703,
      "ĠSi": 704,
      "ĠFi": 705,
      "Ġahora": 706,
      "rÃŃa": 707,
      "Ġta": 708,
      "Ã±ana": 709,
      "ales": 710,
      "Ġlev": 711,
      "Ġhijo": 712,
      "dÃ³": 713,
      "urita": 714,
      "Ġagu": 715,
      "Ġpu": 716,
      "Ġpuer": 717,
      "Ġfuer": 718,
      "Ġcuar": 719,
      "ĠRam": 720,
      "Ġrep": 721,
      "Ġech": 722,
      "Ġchica": 723,
      "ĠLeon": 724,
      "con": 725,
      "ren": 726,
      "Ġri": 727,
      "cien": 728,
      "Ġbas": 729,
      "die": 730,
      "adas": 731,
      "ĠVisi": 732,
      "lor": 733,
      "estino": 734,
      "ardo": 735,
      "ÃŃan": 736,
      "Ġuno": 737,
      "Ã©s": 738,
      "Ġbol": 739,
      "Ġvez": 740,
      "Ġins": 741,
      "Ġmuchacha": 742,
      "Ġpuerta": 743,
      "Mu": 744,
      "pl": 745,
      "Ġcer": 746,
      "Ġdem": 747,
      "Ġquien": 748,
      "iensa": 749,
      "entro": 750,
      "ĠniÃ±o": 751,
      "Ġlleva": 752,
      "iÃ³n": 753,
      "Ġ(": 754,
      "Ġsol": 755,
      "Ġaire": 756,
      "ern": 757,
      "qui": 758,
      "Ġlado": 759,
      "Ġcons": 760,
      "Ġvie": 761,
      "ĠJulita": 762,
      "Ay": 763,
      "gan": 764,
      "iga": 765,
      "orm": 766,
      "Ġunas": 767,
      "Ġbes": 768,
      "Ġga": 769,
      "Ġmuer": 770,
      "Ġhabla": 771,
      "ĠtenÃŃa": 772,
      "ĠCelestino": 773,
      "Ġduros": 774,
      "ĠtÃŃ": 775,
      "Ġnunca": 776,
      "rez": 777,
      "ientras": 778,
      "Ġfi": 779,
      "Ġpobre": 780,
      "ĠJos": 781,
      "ĠasÃŃ": 782,
      "Ġcinco": 783,
      "Ġnadie": 784,
      "Ġhubiera": 785,
      "par": 786,
      "Ġcosa": 787,
      "emb": 788,
      "Ġaquel": 789,
      "\".": 790,
      "Qu": 791,
      "du": 792,
      "gado": 793,
      "lla": 794,
      "vÃŃa": 795,
      "eno": 796,
      "aron": 797,
      "Ġvan": 798,
      "Ġenf": 799,
      "ciones": 800,
      "dia": 801,
      "ĠMad": 802,
      "ĠAn": 803,
      "ĠCu": 804,
      "ĠsonrÃŃ": 805,
      "Ġtraba": 806,
      "Oye": 807,
      "cos": 808,
      "gue": 809,
      "Ġcier": 810,
      "Ġmundo": 811,
      "Ġqueda": 812,
      "Ġese": 813,
      "Ġnoche": 814,
      "Ġfu": 815,
      "dico": 816,
      "Ġdesde": 817,
      "Ġvein": 818,
      "Ġcama": 819,
      "Ġquiere": 820,
      "ĠNa": 821,
      "Yo": 822,
      "br": 823,
      "fe": 824,
      "zÃ³n": 825,
      "Ġcan": 826,
      "anas": 827,
      "cis": 828,
      "alqu": 829,
      "iento": 830,
      "Ġestu": 831,
      "Ġdijo": 832,
      "ador": 833,
      "trÃ¡s": 834,
      "Ġamigo": 835,
      "diÃ³s": 836,
      "men": 837,
      "Ġles": 838,
      "tado": 839,
      "illo": 840,
      "ĠcafÃ©": 841,
      "ĠmaÃ±ana": 842,
      "Ġvuelve": 843,
      "ĠFilo": 844,
      "ĠsonrÃŃe": 845,
      "him": 846,
      "Ġer": 847,
      "ela": 848,
      "illa": 849,
      "ĠniÃ±a": 850,
      "Ġantes": 851,
      "ĠRoque": 852,
      "rÃŃo": 853,
      "Ġimpor": 854,
      "brahim": 855,
      "cÃ³": 856,
      "gas": 857,
      "jas": 858,
      "Ġpuso": 859,
      "eros": 860,
      "erÃŃa": 861,
      "rid": 862,
      "Ġfel": 863,
      "ĠPor": 864,
      "viÃ³": 865,
      "ĠMartin": 866,
      "ĠIbrahim": 867,
      "ĠDespuÃ©s": 868,
      "ĠJosÃ©": 869,
      "La": 870,
      "Pero": 871,
      "Que": 872,
      "llo": 873,
      "ya": 874,
      "Ġir": 875,
      "chos": 876,
      "Ġdigo": 877,
      "Ġmir": 878,
      "cuer": 879,
      "dose": 880,
      "Ġanda": 881,
      "Ġvoy": 882,
      "Ġescri": 883,
      "ĠCuando": 884,
      "Me": 885,
      "eb": 886,
      "fi": 887,
      "fon": 888,
      "ĠdÃŃas": 889,
      "dido": 890,
      "Ġquiero": 891,
      "Ġarre": 892,
      "Ġbuena": 893,
      "Ġabri": 894,
      "cas": 895,
      "ros": 896,
      "tin": 897,
      "Ġci": 898,
      "Ġpues": 899,
      "Ġpadre": 900,
      "quÃ©": 901,
      "Ġmientras": 902,
      "ĠalgÃºn": 903,
      "Ġigu": 904,
      "Ġbueno": 905,
      "Ġgracias": 906,
      "Ġbastante": 907,
      "ĠMadrid": 908,
      "El": 909,
      "fa": 910,
      "tel": 911,
      "tÃ¡": 912,
      "Ġjo": 913,
      "Ġlar": 914,
      "ento": 915,
      "Ġcl": 916,
      "Ġclaro": 917,
      "Ġpos": 918,
      "Ġpiensa": 919,
      "Ġtre": 920,
      "anto": 921,
      "Ġgol": 922,
      "dem": 923,
      "cur": 924,
      "entura": 925,
      "ĠahÃŃ": 926,
      "Ġgusta": 927,
      "atro": 928,
      "Ġprim": 929,
      "aban": 930,
      "able": 931,
      "Ġcono": 932,
      "ĠLas": 933,
      "Ġcuenta": 934,
      "Ġcualqu": 935,
      "Ġdio": 936,
      "Ġcamar": 937,
      "Ġiba": 938,
      "ĠPaco": 939,
      "AdiÃ³s": 940,
      "Por": 941,
      "cin": 942,
      "Ġdo": 943,
      "Ġdentro": 944,
      "Ġli": 945,
      "Ġhor": 946,
      "Ġves": 947,
      "Ġvas": 948,
      "ientes": 949,
      "Ġbus": 950,
      "Ġgente": 951,
      "Ã³nde": 952,
      "Ġhablar": 953,
      "ĠVentura": 954,
      "Ġpap": 955,
      "Ġpeque": 956,
      "Ġesper": 957,
      "ĠPepe": 958,
      "Ġluz": 959,
      "bo": 960,
      "iÃ©n": 961,
      "jar": 962,
      "per": 963,
      "Ġcab": 964,
      "Ġhora": 965,
      "ĠfrÃŃo": 966,
      "ĠAs": 967,
      "ill": 968,
      "Ġmarido": 969,
      "Ġlevan": 970,
      "Ġjoven": 971,
      "Lo": 972,
      "ban": 973,
      "ira": 974,
      "enti": 975,
      "Ġcri": 976,
      "esto": 977,
      "Ġacer": 978,
      "ĠaÃºn": 979,
      "Ġpel": 980,
      "Ġmam": 981,
      "asi": 982,
      "Ġpasar": 983,
      "Ġtener": 984,
      "Ġempez": 985,
      "Ġpone": 986,
      "ĠRamÃ³n": 987,
      "cl": 988,
      "na": 989,
      "Ġdue": 990,
      "Ġcora": 991,
      "Ġpol": 992,
      "Ġmom": 993,
      "ondo": 994,
      "Ġnin": 995,
      "Ġnue": 996,
      "Ġnom": 997,
      "tico": 998,
      "ĠDe": 999,
      "Ġsido": 1000,
      "ĠPero": 1001,
      "itaciÃ³n": 1002,
      "Ġtodas": 1003,
      "Ġpod": 1004,
      "ĠestÃ¡n": 1005,
      "Ġpers": 1006,
      "osotros": 1007,
      "Ġtarde": 1008,
      "Ġfalta": 1009,
      "En": 1010,
      "Us": 1011,
      "itos": 1012,
      "rente": 1013,
      "uda": 1014,
      "Ġsom": 1015,
      "Ġcada": 1016,
      "onto": 1017,
      "Ġhan": 1018,
      "Ġsea": 1019,
      "Ġvien": 1020,
      "Ġcomer": 1021,
      "Ġsil": 1022,
      "ĠMarco": 1023,
      "trar": 1024,
      "entes": 1025,
      "pez": 1026,
      "Ġquieres": 1027,
      "ĠFran": 1028,
      "Ġpie": 1029,
      "Ġhecho": 1030,
      "poco": 1031,
      "ĠtodavÃŃa": 1032,
      "Ġguardia": 1033,
      "ĠvolviÃ³": 1034,
      "Ġtienen": 1035,
      "-,": 1036,
      "Cu": 1037,
      "can": 1038,
      "ocu": 1039,
      "tera": 1040,
      "ĠcÃ³mo": 1041,
      "Ġpan": 1042,
      "Ġpelo": 1043,
      "Ġtran": 1044,
      "Ġtris": 1045,
      "Ã±as": 1046,
      "omo": 1047,
      "Ġcuer": 1048,
      "Ãºs": 1049,
      "entos": 1050,
      "icos": 1051,
      "Ġmanos": 1052,
      "Ã¡ndose": 1053,
      "ĠperiÃ³": 1054,
      "Ġmarch": 1055,
      "Ġigual": 1056,
      "Usted": 1057,
      "ble": 1058,
      "hora": 1059,
      "nos": 1060,
      "vier": 1061,
      "zar": 1062,
      "Ãī": 1063,
      "ĠsÃ³": 1064,
      "erte": 1065,
      "ĠdecÃŃa": 1066,
      "ÃŃs": 1067,
      "Ġespe": 1068,
      "Ã³pez": 1069,
      "razo": 1070,
      "Ã¡rez": 1071,
      "Ġella": 1072,
      "Ġbe": 1073,
      "Ġconf": 1074,
      "Ġfum": 1075,
      "ĠCon": 1076,
      "ĠSo": 1077,
      "ĠLaurita": 1078,
      "bio": 1079,
      "Ġmalo": 1080,
      "Ġmay": 1081,
      "Ġprin": 1082,
      "Ġboca": 1083,
      "Ġestoy": 1084,
      "Ġmedia": 1085,
      "Ġmedio": 1086,
      "ĠSuÃ¡rez": 1087,
      "Ġgato": 1088,
      "Ġfuera": 1089,
      "cisco": 1090,
      "Ġarreg": 1091,
      "ĠFrancisco": 1092,
      "ĠperiÃ³dico": 1093,
      "!,": 1094,
      "An": 1095,
      "eta": 1096,
      "por": 1097,
      "tando": 1098,
      "Ġlib": 1099,
      "Ġad": 1100,
      "Ġdeja": 1101,
      "Ġdebajo": 1102,
      "Ġne": 1103,
      "Ġnues": 1104,
      "rado": 1105,
      "Ã¡r": 1106,
      "cido": 1107,
      "Ġblan": 1108,
      "Ġsuerte": 1109,
      "Ġfam": 1110,
      "Ġgesto": 1111,
      "tiÃ³": 1112,
      "Ġcuatro": 1113,
      "Ãºl": 1114,
      "Ġviol": 1115,
      "Ġsoy": 1116,
      "Ġinter": 1117,
      "Ġpase": 1118,
      "uelo": 1119,
      "Ġhombres": 1120,
      "Ã¡ndo": 1121,
      "Ġmala": 1122,
      "Ġju": 1123,
      "Ġjue": 1124,
      "ĠYa": 1125,
      "ĠLeoncio": 1126,
      "ĠNati": 1127,
      "demÃ¡s": 1128,
      "Te": 1129,
      "cal": 1130,
      "ĠdÃ©": 1131,
      "Ġdere": 1132,
      "encia": 1133,
      "Ġpla": 1134,
      "Ġmon": 1135,
      "Ġmor": 1136,
      "ane": 1137,
      "Ġviene": 1138,
      "cip": 1139,
      "ciÃ³": 1140,
      "ame": 1141,
      "risa": 1142,
      "Ġreg": 1143,
      "Ġllegar": 1144,
      "paÃ±": 1145,
      "Ġsale": 1146,
      "Ġpreocu": 1147,
      "Ġpensar": 1148,
      "Ġcolor": 1149,
      "Ġbols": 1150,
      ".\"": 1151,
      "don": 1152,
      "mp": 1153,
      "Ġos": 1154,
      "Ġaz": 1155,
      "Ġaun": 1156,
      "Ġacuer": 1157,
      "eras": 1158,
      "ÃŃr": 1159,
      "tad": 1160,
      "Ġvamos": 1161,
      "Ġencu": 1162,
      "Ġencon": 1163,
      "inero": 1164,
      "cion": 1165,
      "oma": 1166,
      "iso": 1167,
      "usa": 1168,
      "cado": 1169,
      "Ġhaber": 1170,
      "ĠJa": 1171,
      "Ġchico": 1172,
      "Ġcari": 1173,
      "Eso": 1174,
      "ĠHay": 1175,
      "Ġalguna": 1176,
      "Ġpalab": 1177,
      "Ġdemasi": 1178,
      "ĠmamÃ¡": 1179,
      "Ġfamil": 1180,
      "Ġdorm": 1181,
      "Ġpes": 1182,
      "Ã¡l": 1183,
      "cima": 1184,
      "Ġsuel": 1185,
      "Ġfo": 1186,
      "Ġmuchas": 1187,
      "ĠLÃ³pez": 1188,
      "Ġol": 1189,
      "ĠMon": 1190,
      "Ġsigue": 1191,
      "Ġmil": 1192,
      "Ġamig": 1193,
      "Ġru": 1194,
      "Ġpitil": 1195,
      "Ġide": 1196,
      "Ġtampoco": 1197,
      "Ġpensando": 1198,
      "tilla": 1199,
      "Ġextra": 1200,
      "aya": 1201,
      "Ġhermana": 1202,
      "Ġeres": 1203,
      "Ġescritor": 1204,
      "Ġcamarero": 1205,
      "ĠcorazÃ³n": 1206,
      "Ġtriste": 1207,
      "ĠsÃ³lo": 1208,
      "Ġmayor": 1209,
      "Ġdemasiado": 1210,
      "cor": 1211,
      "gÃ³": 1212,
      "zas": 1213,
      "ĠÃºl": 1214,
      "Ġmos": 1215,
      "onces": 1216,
      "Ġhar": 1217,
      "Ġseis": 1218,
      "Ġguer": 1219,
      "ĠMe": 1220,
      "Ġdesp": 1221,
      "uele": 1222,
      "Ġje": 1223,
      "ĠCelia": 1224,
      "Ġenfer": 1225,
      "Ġfeliz": 1226,
      "Ġpapel": 1227,
      "ĠÃºlti": 1228,
      "Eh": 1229,
      "Nada": 1230,
      "TÃº": 1231,
      "cto": 1232,
      "ici": 1233,
      "Ġlimp": 1234,
      "Ġcen": 1235,
      "Ġpier": 1236,
      "Ġtemp": 1237,
      "ÃŃdo": 1238,
      "Ġhum": 1239,
      "Ġeste": 1240,
      "Ġvis": 1241,
      "inta": 1242,
      "rito": 1243,
      "Ġfondo": 1244,
      "Ġgas": 1245,
      "ĠSan": 1246,
      "ĠVe": 1247,
      "icar": 1248,
      "Ġllena": 1249,
      "Ġcha": 1250,
      "ĠTiene": 1251,
      "Ġapar": 1252,
      "Ġtanto": 1253,
      "Ġresp": 1254,
      "Ġalgunas": 1255,
      "ĠLeonardo": 1256,
      "Muy": 1257,
      "Ġimporta": 1258,
      "Ġcualquier": 1259,
      "ĠdueÃ±a": 1260,
      "Ġnombre": 1261,
      "Ġsilen": 1262,
      "Ġguerra": 1263,
      "Bien": 1264,
      "ias": 1265,
      "nas": 1266,
      "sos": 1267,
      "ts": 1268,
      "tÃ³n": 1269,
      "Ġim": 1270,
      "ĠÃºn": 1271,
      "Ġdinero": 1272,
      "endo": 1273,
      "Ġsan": 1274,
      "Ġdebe": 1275,
      "ĠdetrÃ¡s": 1276,
      "Ġmer": 1277,
      "onz": 1278,
      "Ġtel": 1279,
      "Ġtras": 1280,
      "ÃŃo": 1281,
      "Ġencima": 1282,
      "alo": 1283,
      "Ġbor": 1284,
      "amÃ¡s": 1285,
      "Ġfa": 1286,
      "Ġall": 1287,
      "Ġgana": 1288,
      "ĠPurita": 1289,
      "Ġmirar": 1290,
      "ĠMarÃŃa": 1291,
      "entas": 1292,
      "ĠsonriÃ³": 1293,
      "ĠTo": 1294,
      "Ġrom": 1295,
      "Ġpueb": 1296,
      "Ġpregun": 1297,
      "Ġpronto": 1298,
      "ible": 1299,
      "Ġagua": 1300,
      "Ġvieja": 1301,
      "Ġveinti": 1302,
      "Ġhoras": 1303,
      "Se": 1304,
      "bor": 1305,
      "cciÃ³n": 1306,
      "fre": 1307,
      "gre": 1308,
      "ola": 1309,
      "oane": 1310,
      "pas": 1311,
      "uj": 1312,
      "Ġdan": 1313,
      "ĠdÃ³nde": 1314,
      "ĠlÃ¡": 1315,
      "Ġsiente": 1316,
      "Ġdeb": 1317,
      "ario": 1318,
      "ĠquedÃ³": 1319,
      "Ġnosotros": 1320,
      "alle": 1321,
      "Ġflor": 1322,
      "tido": 1323,
      "Ġhacia": 1324,
      "Ġestas": 1325,
      "ĠRe": 1326,
      "ĠniÃ±os": 1327,
      "Ġandar": 1328,
      "Ġsereno": 1329,
      "Ġllega": 1330,
      "Ġhijos": 1331,
      "Ġamor": 1332,
      "Ġquieras": 1333,
      "Ġvueltas": 1334,
      "ĠGonz": 1335,
      "ĠSeoane": 1336,
      "Ġgusto": 1337,
      "Ġalgunos": 1338,
      "Ġmomento": 1339,
      "Ġcuerpo": 1340,
      "Ġaunque": 1341,
      "Ġfamilia": 1342,
      "?,": 1343,
      "Con": 1344,
      "cina": 1345,
      "dan": 1346,
      "del": 1347,
      "gos": 1348,
      "rin": 1349,
      "rÃ©": 1350,
      "si": 1351,
      "tri": 1352,
      "trita": 1353,
      "Ġ.": 1354,
      "Ġsenti": 1355,
      "Ġcru": 1356,
      "esta": 1357,
      "Ġpun": 1358,
      "quito": 1359,
      "ĠmÃ©": 1360,
      "Ġtir": 1361,
      "anza": 1362,
      "tal": 1363,
      "Ġesa": 1364,
      "Ã³m": 1365,
      "Ġcontes": 1366,
      "rillo": 1367,
      "dir": 1368,
      "ĠAhora": 1369,
      "Ġreal": 1370,
      "illas": 1371,
      "Ġcaso": 1372,
      "Ġmanera": 1373,
      "ĠjamÃ¡s": 1374,
      "Ġvuelta": 1375,
      "Ġbaja": 1376,
      "Ġmirada": 1377,
      "Ġoro": 1378,
      "ciendo": 1379,
      "ĠdemÃ¡s": 1380,
      "ĠtÃŃo": 1381,
      "Ġveinte": 1382,
      "Ġprincip": 1383,
      "Ġsilencio": 1384,
      "Claro": 1385,
      "Po": 1386,
      "cre": 1387,
      "cino": 1388,
      "ete": 1389,
      "sab": 1390,
      "ud": 1391,
      "Ġatre": 1392,
      "ĠaÃ±o": 1393,
      "erra": 1394,
      "Ġtor": 1395,
      "Ġtemb": 1396,
      "antes": 1397,
      "Ġvino": 1398,
      "Ã©fon": 1399,
      "cios": 1400,
      "Ġnov": 1401,
      "Ġcontra": 1402,
      "Ġfrente": 1403,
      "tia": 1404,
      "tir": 1405,
      "tida": 1406,
      "Ġmeter": 1407,
      "dez": 1408,
      "Ġotros": 1409,
      "ĠPura": 1410,
      "ĠRic": 1411,
      "Ġdesgra": 1412,
      "vir": 1413,
      "biÃ³": 1414,
      "ĠserÃ¡": 1415,
      "rante": 1416,
      "Ġmanda": 1417,
      "ĠsaliÃ³": 1418,
      "Ġllamaba": 1419,
      "Ġmujeres": 1420,
      "Ġpeor": 1421,
      "Ġahor": 1422,
      "ĠÃ©s": 1423,
      "Ġsaca": 1424,
      "Ġponer": 1425,
      "Ġsabes": 1426,
      "ĠJulio": 1427,
      "Ġhermano": 1428,
      "Ġmuerto": 1429,
      "Ġtrabajar": 1430,
      "Ġcierto": 1431,
      "Ġpitillo": 1432,
      "ĠtelÃ©fon": 1433,
      "ĠRicardo": 1434,
      "Hola": 1435,
      "Mira": 1436,
      "mas": 1437,
      "tÃ¡n": 1438,
      "Ġsien": 1439,
      "Ġsent": 1440,
      "Ġau": 1441,
      "eron": 1442,
      "Ġter": 1443,
      "Ġtri": 1444,
      "Ġvar": 1445,
      "Ġencar": 1446,
      "Ġnota": 1447,
      "all": 1448,
      "Ġlee": 1449,
      "Ġley": 1450,
      "Ġleche": 1451,
      "Ġsuelo": 1452,
      "Ġganas": 1453,
      "lado": 1454,
      "Ġcul": 1455,
      "Ġrev": 1456,
      "ĠhabitaciÃ³n": 1457,
      "ime": 1458,
      "Ġincl": 1459,
      "trador": 1460,
      "tum": 1461,
      "Ġcamino": 1462,
      "Ġtrabajo": 1463,
      "Ġestado": 1464,
      "Ġbajo": 1465,
      "Ġcompr": 1466,
      "Ġtuvo": 1467,
      "Ġrato": 1468,
      "Ġduro": 1469,
      "Ġdurante": 1470,
      "ĠMatil": 1471,
      "Ġentien": 1472,
      "Ġgrande": 1473,
      "ĠDesde": 1474,
      "Ġtienes": 1475,
      "Ġfinal": 1476,
      "Ġclientes": 1477,
      "Anda": 1478,
      "Ġlibro": 1479,
      "Ġmostrador": 1480,
      "ĠÃºnico": 1481,
      "ĠtelÃ©fono": 1482,
      "De": 1483,
      "bl": 1484,
      "cti": 1485,
      "ion": 1486,
      "menta": 1487,
      "uta": 1488,
      "Ġsor": 1489,
      "Ġabajo": 1490,
      "quÃŃ": 1491,
      "ĠquiÃ©n": 1492,
      "Ġtaba": 1493,
      "inas": 1494,
      "Ġban": 1495,
      "Ġbrazo": 1496,
      "ambiÃ©n": 1497,
      "Ġgor": 1498,
      "dilla": 1499,
      "Ġcuanto": 1500,
      "ĠestÃ¡s": 1501,
      "uego": 1502,
      "Ġreci": 1503,
      "Ġhabl": 1504,
      "ĠMario": 1505,
      "bios": 1506,
      "Ġllor": 1507,
      "Ġcalor": 1508,
      "ĠserÃŃa": 1509,
      "ĠJes": 1510,
      "Ġsalir": 1511,
      "Ġpuedo": 1512,
      "Ġacos": 1513,
      "Ġacab": 1514,
      "Ġacaba": 1515,
      "ĠGar": 1516,
      "Ġnovia": 1517,
      "Ġtardes": 1518,
      "tural": 1519,
      "ĠUna": 1520,
      "Ġlevanta": 1521,
      "ĠRamona": 1522,
      "ĠmirÃ³": 1523,
      "Ġmirando": 1524,
      "Ġtreinta": 1525,
      "Ã¡ndole": 1526,
      "Ġbolsillo": 1527,
      "Ġdormir": 1528,
      "Ġolvi": 1529,
      "Ġamigos": 1530,
      "ĠVega": 1531,
      "Ġsangre": 1532,
      "Ġincluso": 1533,
      "Ġtabaco": 1534,
      "CÃ³mo": 1535,
      "Vaya": 1536,
      "ag": 1537,
      "bar": 1538,
      "ctor": 1539,
      "dando": 1540,
      "ite": 1541,
      "ulo": 1542,
      "Ġemb": 1543,
      "Ġdom": 1544,
      "Ġdul": 1545,
      "ĠatrÃ¡s": 1546,
      "Ġprisa": 1547,
      "Ġdec": 1548,
      "Ġmere": 1549,
      "ĠmÃºs": 1550,
      "ase": 1551,
      "Ġquin": 1552,
      "ĠtÃŃa": 1553,
      "anos": 1554,
      "una": 1555,
      "Ġneg": 1556,
      "taba": 1557,
      "Ġhon": 1558,
      "Ġenc": 1559,
      "Ã¡le": 1560,
      "cil": 1561,
      "Ġnoch": 1562,
      "ambre": 1563,
      "riba": 1564,
      "Ġaleg": 1565,
      "Ġmuchos": 1566,
      "Ġotras": 1567,
      "Ġpobres": 1568,
      "Ġpoeta": 1569,
      "Ġdesa": 1570,
      "Ġdesn": 1571,
      "gua": 1572,
      "imo": 1573,
      "entra": 1574,
      "Ġsolo": 1575,
      "ĠpasÃ³": 1576,
      "uela": 1577,
      "Ġ\"Â¡": 1578,
      "Ġvaya": 1579,
      "Ġpaz": 1580,
      "Ġpareja": 1581,
      "Ġperm": 1582,
      "Ġamiga": 1583,
      "Ġpueden": 1584,
      "Ġpena": 1585,
      "Ġapoy": 1586,
      "ĠOye": 1587,
      "ĠElvirita": 1588,
      "Ġrespe": 1589,
      "ĠrazÃ³n": 1590,
      "ĠquerÃŃa": 1591,
      "Ġorden": 1592,
      "Ġdejar": 1593,
      "ĠLola": 1594,
      "Ġcoge": 1595,
      "ĠPetrita": 1596,
      "Ġllevaba": 1597,
      "Ġfuerza": 1598,
      "ciencia": 1599,
      "Quier": 1600,
      "ĠningÃºn": 1601,
      "Ġpalabras": 1602,
      "Ġfoto": 1603,
      "ĠMonts": 1604,
      "Ġpiernas": 1605,
      "ĠGonzÃ¡le": 1606,
      "errat": 1607,
      "ĠJesusa": 1608,
      "ĠGarcÃŃa": 1609,
      "Ġnoches": 1610,
      "ĠMontserrat": 1611,
      "ĠGonzÃ¡lez": 1612,
      "Al": 1613,
      "Ha": 1614,
      "Je": 1615,
      "bro": 1616,
      "ece": 1617,
      "pita": 1618,
      "para": 1619,
      "tones": 1620,
      "uy": 1621,
      "vos": 1622,
      "vas": 1623,
      "Ã¼": 1624,
      "Ġsenta": 1625,
      "estre": 1626,
      "Ġay": 1627,
      "Ġagra": 1628,
      "ĠademÃ¡s": 1629,
      "eramente": 1630,
      "tamente": 1631,
      "Ġseas": 1632,
      "Ġvista": 1633,
      "cita": 1634,
      "ale": 1635,
      "ientos": 1636,
      "ombre": 1637,
      "Ġleer": 1638,
      "isiera": 1639,
      "tica": 1640,
      "dil": 1641,
      "Ġocur": 1642,
      "Ġestos": 1643,
      "olla": 1644,
      "ĠseÃ±orito": 1645,
      "Ġdicho": 1646,
      "Ġdiez": 1647,
      "guado": 1648,
      "cuenta": 1649,
      "Ġvecin": 1650,
      "Ġvecino": 1651,
      "segu": 1652,
      "icas": 1653,
      "Ġpasado": 1654,
      "Ġpata": 1655,
      "Ġarriba": 1656,
      "Ġasi": 1657,
      "Ġbuenas": 1658,
      "Ġprof": 1659,
      "ĠOr": 1660,
      "ĠsacÃ³": 1661,
      "ĠmÃŃo": 1662,
      "verdad": 1663,
      "ĠMaestre": 1664,
      "Ġllevar": 1665,
      "Ġcuartos": 1666,
      "ĠlevantÃ³": 1667,
      "Ġderecho": 1668,
      "ĠJaime": 1669,
      "Ġlimpia": 1670,
      "Ġvisto": 1671,
      "Gra": 1672,
      "Le": 1673,
      "dul": 1674,
      "gen": 1675,
      "min": 1676,
      "ula": 1677,
      "udad": 1678,
      "var": 1679,
      "xi": 1680,
      "yo": 1681,
      "zos": 1682,
      "Ġil": 1683,
      "Ġza": 1684,
      "Ġlig": 1685,
      "Ġceb": 1686,
      "Ġaten": 1687,
      "Ġplan": 1688,
      "ques": 1689,
      "ĠmÃŃa": 1690,
      "Ġquiz": 1691,
      "onas": 1692,
      "Ġtal": 1693,
      "Ġtier": 1694,
      "Ġhis": 1695,
      "Ġesca": 1696,
      "Ġenter": 1697,
      "Ã©is": 1698,
      "cida": 1699,
      "ala": 1700,
      "alla": 1701,
      "Ġbr": 1702,
      "Ġbon": 1703,
      "char": 1704,
      "Ġgan": 1705,
      "ĠmuriÃ³": 1706,
      "tio": 1707,
      "Ġparte": 1708,
      "Ġocho": 1709,
      "ĠMor": 1710,
      "cada": 1711,
      "ĠAr": 1712,
      "Ġdicen": 1713,
      "Ġdescu": 1714,
      "Ġlleno": 1715,
      "Ġante": 1716,
      "ĠJu": 1717,
      "Ġchin": 1718,
      "Ġcarta": 1719,
      "Ġcocina": 1720,
      "Ġcambi": 1721,
      "ĠllamÃ³": 1722,
      "Ġmisma": 1723,
      "Ġvend": 1724,
      "Ġvenido": 1725,
      "Ġbaj": 1726,
      "Ġmesas": 1727,
      "Ġgua": 1728,
      "Ġexpl": 1729,
      "Ġemple": 1730,
      "Ġsacar": 1731,
      "Ġsaber": 1732,
      "Ġbarri": 1733,
      "Ġdarle": 1734,
      "Ġtomar": 1735,
      "Ġpudi": 1736,
      "Ġcuarto": 1737,
      "Ġmuerta": 1738,
      "Ġabrir": 1739,
      "Ġcigar": 1740,
      "Ġtremen": 1741,
      "illero": 1742,
      "ĠpolÃŃ": 1743,
      "Ġningun": 1744,
      "Ġvientre": 1745,
      "Ġneces": 1746,
      "Ġazul": 1747,
      "Ġencuentra": 1748,
      "Ġideas": 1749,
      "ĠallÃŃ": 1750,
      "Ġpueblo": 1751,
      "Pobre": 1752,
      "ĠMatilde": 1753,
      "Gracias": 1754,
      "),": 1755,
      "Como": 1756,
      "bles": 1757,
      "fÃŃa": 1758,
      "fica": 1759,
      "ge": 1760,
      "gn": 1761,
      "gÃ¼": 1762,
      "ip": 1763,
      "itan": 1764,
      "idas": 1765,
      "mor": 1766,
      "ois": 1767,
      "uti": 1768,
      "vis": 1769,
      "Ġz": 1770,
      "Ġon": 1771,
      "ĠÃ¡n": 1772,
      "ĠÃī": 1773,
      "Ġdaba": 1774,
      "ener": 1775,
      "quina": 1776,
      "onio": 1777,
      "Ġton": 1778,
      "Ġquedar": 1779,
      "Ġher": 1780,
      "Ġhuele": 1781,
      "Ġsegun": 1782,
      "Ġellos": 1783,
      "Ġconver": 1784,
      "chill": 1785,
      "Ġsube": 1786,
      "Ġgo": 1787,
      "tiz": 1788,
      "ĠmetiÃ³": 1789,
      "dio": 1790,
      "dias": 1791,
      "ĠMi": 1792,
      "Ġhacen": 1793,
      "ĠcuÃ±a": 1794,
      "Ġsiete": 1795,
      "ĠAguado": 1796,
      "oles": 1797,
      "Ġdie": 1798,
      "adamente": 1799,
      "ĠSor": 1800,
      "cul": 1801,
      "illos": 1802,
      "Ġversos": 1803,
      "Ġsonre": 1804,
      "Ġanim": 1805,
      "Ġcapa": 1806,
      "Ġtrata": 1807,
      "Ġpecho": 1808,
      "EstÃ¡": 1809,
      "Ġprocu": 1810,
      "Ġcomprar": 1811,
      "Ġmeses": 1812,
      "ĠHa": 1813,
      "Ġimpres": 1814,
      "Ġexp": 1815,
      "dores": 1816,
      "Ġnatural": 1817,
      "ĠdejÃ³": 1818,
      "Ġsegura": 1819,
      "Ġseguir": 1820,
      "Ġtaxi": 1821,
      "Ġrepente": 1822,
      "Ġbolso": 1823,
      "Ġcerillero": 1824,
      "Ġbestia": 1825,
      "Ġcriada": 1826,
      "Ġacerca": 1827,
      "ĠempezÃ³": 1828,
      "Ġpersona": 1829,
      "ĠOrtiz": 1830,
      "Ġzapa": 1831,
      "Ġcebolla": 1832,
      "!\"": 1833,
      "Hombre": 1834,
      "Vamos": 1835,
      "bas": 1836,
      "din": 1837,
      "edo": 1838,
      "gus": 1839,
      "itas": 1840,
      "ne": 1841,
      "tien": 1842,
      "yÃ³": 1843,
      "Ġcena": 1844,
      "Ġpin": 1845,
      "ĠpÃ¡l": 1846,
      "Ġdedi": 1847,
      "arg": 1848,
      "quita": 1849,
      "Ġmad": 1850,
      "ort": 1851,
      "unciÃ³n": 1852,
      "Ġlav": 1853,
      "ella": 1854,
      "Ġhoy": 1855,
      "Ġentra": 1856,
      "raba": 1857,
      "cito": 1858,
      "Ġeleg": 1859,
      "Ġbri": 1860,
      "Ġsua": 1861,
      "Ġfe": 1862,
      "Ġfues": 1863,
      "Ġgr": 1864,
      "tivo": 1865,
      "Ġmete": 1866,
      "dita": 1867,
      "Ġoye": 1868,
      "ĠhacÃŃa": 1869,
      "Ġcuel": 1870,
      "Ġsir": 1871,
      "Ġsigu": 1872,
      "ieron": 1873,
      "ieran": 1874,
      "eme": 1875,
      "cep": 1876,
      "ĠCar": 1877,
      "ĠSon": 1878,
      "via": 1879,
      "Ġrecuer": 1880,
      "culo": 1881,
      "trÃ³": 1882,
      "Ġvive": 1883,
      "Ġtenido": 1884,
      "Ġhizo": 1885,
      "toria": 1886,
      "tud": 1887,
      "Ġcamis": 1888,
      "tantes": 1889,
      "Ġsalud": 1890,
      "terÃŃa": 1891,
      "Ġhaya": 1892,
      "ĠrÃŃ": 1893,
      "Ġllamar": 1894,
      "Ġpueda": 1895,
      "Ġart": 1896,
      "Ġacor": 1897,
      "Ġpref": 1898,
      "Ġabier": 1899,
      "Ġvenir": 1900,
      "Ġcincuenta": 1901,
      "bedo": 1902,
      "Ġcorr": 1903,
      "Ġcorre": 1904,
      "Ġescal": 1905,
      "Ġduda": 1906,
      "pira": 1907,
      "ĠcogiÃ³": 1908,
      "dÃ³s": 1909,
      "Ġcerca": 1910,
      "Ġfij": 1911,
      "Ġaquella": 1912,
      "Ġtrabaj": 1913,
      "Ġabrigo": 1914,
      "Ġvaso": 1915,
      "Ġpanad": 1916,
      "Ġtranqui": 1917,
      "Ġpreocup": 1918,
      "Ġsuele": 1919,
      "ĠTodo": 1920,
      "ĠmÃ©dico": 1921,
      "ĠSorbedo": 1922,
      "Mam": 1923,
      "Para": 1924,
      "eh": 1925,
      "gel": 1926,
      "lam": 1927,
      "pon": 1928,
      "run": 1929,
      "ves": 1930,
      "vor": 1931,
      "viera": 1932,
      "ĠQu": 1933,
      "Ġluego": 1934,
      "Ġsen": 1935,
      "Ġclas": 1936,
      "esi": 1937,
      "argo": 1938,
      "oro": 1939,
      "orada": 1940,
      "Ġtos": 1941,
      "Ġlabios": 1942,
      "elos": 1943,
      "Ġho": 1944,
      "Ġenten": 1945,
      "Ġentrar": 1946,
      "dado": 1947,
      "Ã¡b": 1948,
      "Ã©j": 1949,
      "Ã©r": 1950,
      "cillo": 1951,
      "Ġlech": 1952,
      "Ġalco": 1953,
      "iste": 1954,
      "isitaciÃ³n": 1955,
      "dida": 1956,
      "diciÃ³n": 1957,
      "laza": 1958,
      "ĠcompaÃ±": 1959,
      "ĠAdemÃ¡s": 1960,
      "ĠPara": 1961,
      "ĠseÃ±ores": 1962,
      "Ġdia": 1963,
      "Ġpoder": 1964,
      "Ġdese": 1965,
      "Ġustedes": 1966,
      "ĠhabrÃ¡": 1967,
      "Ġcasta": 1968,
      "Ġvir": 1969,
      "ĠVisitaciÃ³n": 1970,
      "Ġverla": 1971,
      "Ġsola": 1972,
      "Ġllenos": 1973,
      "Ġtend": 1974,
      "Ġanti": 1975,
      "Ġcaer": 1976,
      "Ġpagar": 1977,
      "saciÃ³n": 1978,
      "ĠTrin": 1979,
      "ĠTesi": 1980,
      "Ġrel": 1981,
      "ĠEstÃ¡": 1982,
      "Ġacom": 1983,
      "Ġpies": 1984,
      "Ġmiser": 1985,
      "ĠAlfre": 1986,
      "Ġmirado": 1987,
      "ĠOb": 1988,
      "Ġbobo": 1989,
      "Ġâİ¯Â¿": 1990,
      "Ġtiempos": 1991,
      "ĠMacar": 1992,
      "grafÃŃa": 1993,
      "Ġfuego": 1994,
      "Ġguarda": 1995,
      "Ġvolver": 1996,
      "Ġcoger": 1997,
      "Ġentonces": 1998,
      "Ġfueron": 1999,
      "Ġcuarenta": 2000,
      "Ġinstante": 2001,
      "Muchas": 2002,
      "Ġviejo": 2003,
      "QuiÃ©n": 2004,
      "ĠAnda": 2005,
      "Ġestudi": 2006,
      "Ġciudad": 2007,
      "Ġpuesto": 2008,
      "Ġgolpe": 2009,
      "Ġcualquiera": 2010,
      "Ġbuscar": 2011,
      "ĠAsunciÃ³n": 2012,
      "Ġcria": 2013,
      "ĠacercÃ³": 2014,
      "Ġnuevo": 2015,
      "Ġsombr": 2016,
      "Ġespejo": 2017,
      "Ġnuestros": 2018,
      "Ġdespre": 2019,
      "Ġimag": 2020,
      "Ġmeren": 2021,
      "Ġfavor": 2022,
      "ĠveintidÃ³s": 2023,
      "Ġdesgraci": 2024,
      "Ġentiende": 2025,
      "Ġhablando": 2026,
      "Ġempleado": 2027,
      "gÃ¼en": 2028,
      "ĠAlfredo": 2029,
      "Des": 2030,
      "DÃ³nde": 2031,
      "Los": 2032,
      "Mire": 2033,
      "Va": 2034,
      "Ver": 2035,
      "Voy": 2036,
      "dente": 2037,
      "fuer": 2038,
      "grim": 2039,
      "idos": 2040,
      "iciÃ³n": 2041,
      "jemp": 2042,
      "lÃ³": 2043,
      "lÃ¡": 2044,
      "miento": 2045,
      "piensa": 2046,
      "rÃ³n": 2047,
      "rÃ¡n": 2048,
      "renta": 2049,
      "tis": 2050,
      "tonces": 2051,
      "uri": 2052,
      "zones": 2053,
      "zuela": 2054,
      "Ġduer": 2055,
      "Ġdiente": 2056,
      "Ġlen": 2057,
      "Ġcanta": 2058,
      "Ġpul": 2059,
      "Ġpanta": 2060,
      "osas": 2061,
      "Ġdeber": 2062,
      "arla": 2063,
      "quil": 2064,
      "Ġquisiera": 2065,
      "Ġtro": 2066,
      "ÃŃda": 2067,
      "tada": 2068,
      "Ġesos": 2069,
      "Ġescu": 2070,
      "Ġencen": 2071,
      "Ġnoti": 2072,
      "Ġbu": 2073,
      "Ġbigo": 2074,
      "Ġconciencia": 2075,
      "Ġalta": 2076,
      "Ġgri": 2077,
      "Ġgentes": 2078,
      "Ġgitan": 2079,
      "ist": 2080,
      "tito": 2081,
      "Ġob": 2082,
      "Ġoj": 2083,
      "ĠMois": 2084,
      "Ġhaga": 2085,
      "Ġcuida": 2086,
      "Ġcuentas": 2087,
      "got": 2088,
      "ĠPar": 2089,
      "Ġestre": 2090,
      "Ġdif": 2091,
      "ĠCas": 2092,
      "vil": 2093,
      "Ãºbl": 2094,
      "guien": 2095,
      "Ġhablan": 2096,
      "Ġviuda": 2097,
      "Ġverde": 2098,
      "queta": 2099,
      "Ġpaso": 2100,
      "Ġpasan": 2101,
      "irula": 2102,
      "Ġtenia": 2103,
      "Ġtenemos": 2104,
      "Ġhij": 2105,
      "paÃ±a": 2106,
      "tario": 2107,
      "Ġperdon": 2108,
      "ĠFern": 2109,
      "Ġjun": 2110,
      "Ġpensa": 2111,
      "Ġmarcha": 2112,
      "Ġmister": 2113,
      "Ġcostum": 2114,
      "Ġapren": 2115,
      "Ġprop": 2116,
      "Ġbachill": 2117,
      "idades": 2118,
      "Ġhecha": 2119,
      "Ġresul": 2120,
      "Ġseguida": 2121,
      "iego": 2122,
      "ĠechÃ³": 2123,
      "plic": 2124,
      "ĠtÃŃs": 2125,
      "Ġcierta": 2126,
      "Ġcans": 2127,
      "Ġimportante": 2128,
      "fonte": 2129,
      "Ġprimer": 2130,
      "Ġconoce": 2131,
      "Ġempezar": 2132,
      "Ġnueve": 2133,
      "Ġpersonas": 2134,
      "Ġblanco": 2135,
      "Ġplaza": 2136,
      "Ġmorir": 2137,
      "Ġpreocupa": 2138,
      "ĠÃºltimo": 2139,
      "SeÃ±or": 2140,
      "ĠÃ©ste": 2141,
      "Ġnegro": 2142,
      "Ġilus": 2143,
      "Ġonce": 2144,
      "Ġseguramente": 2145,
      "Ġgrues": 2146,
      "Ġalcoba": 2147,
      "ĠTesifonte": 2148,
      "ĠMacario": 2149,
      "gÃ¼enza": 2150,
      "ĠMoisÃ©s": 2151,
      "Ġbachiller": 2152,
      "Las": 2153,
      "TambiÃ©n": 2154,
      "bona": 2155,
      "com": 2156,
      "cando": 2157,
      "dro": 2158,
      "fas": 2159,
      "ide": 2160,
      "mado": 2161,
      "mpar": 2162,
      "rera": 2163,
      "tÃŃn": 2164,
      "udo": 2165,
      "ĠÃ": 2166,
      "Ġem": 2167,
      "Ġja": 2168,
      "Ġden": 2169,
      "Ġdando": 2170,
      "ens": 2171,
      "enco": 2172,
      "Ġce": 2173,
      "Ġcla": 2174,
      "Ġclar": 2175,
      "Ġpien": 2176,
      "ervi": 2177,
      "Ġdef": 2178,
      "Ġmel": 2179,
      "Ġqui": 2180,
      "Ġtab": 2181,
      "Ġtern": 2182,
      "unda": 2183,
      "Ġnar": 2184,
      "Ġhones": 2185,
      "Ġhambre": 2186,
      "Ġesquina": 2187,
      "Ġesfuer": 2188,
      "Ġentor": 2189,
      "rada": 2190,
      "cie": 2191,
      "ciente": 2192,
      "Ġbicar": 2193,
      "Ġcontrar": 2194,
      "rios": 2195,
      "rido": 2196,
      "Ġsucia": 2197,
      "Ġsuyo": 2198,
      "Ġflam": 2199,
      "Ġalguien": 2200,
      "Ġmueb": 2201,
      "istas": 2202,
      "lag": 2203,
      "Ġojo": 2204,
      "Ġhaciendo": 2205,
      "Ġcura": 2206,
      "Ġsitio": 2207,
      "ĠPirula": 2208,
      "ĠestÃ©": 2209,
      "Ġpoquito": 2210,
      "adora": 2211,
      "ĠCh": 2212,
      "Ġdescan": 2213,
      "Ġmiedo": 2214,
      "Ġmilag": 2215,
      "resuelo": 2216,
      "Ġrecor": 2217,
      "ĠMarib": 2218,
      "ĠMaruj": 2219,
      "ĠMargot": 2220,
      "imos": 2221,
      "Ġcasada": 2222,
      "Ġvio": 2223,
      "Ġequi": 2224,
      "Ġsobr": 2225,
      "bir": 2226,
      "ices": 2227,
      "Ġtenga": 2228,
      "ulina": 2229,
      "Ġservi": 2230,
      "Ġhombro": 2231,
      "rano": 2232,
      "Ġchi": 2233,
      "Ġcolo": 2234,
      "Ġsalen": 2235,
      "Ġestamos": 2236,
      "Ġllaman": 2237,
      "ĠRobles": 2238,
      "Ġpropi": 2239,
      "ĠÃ©sa": 2240,
      "bertad": 2241,
      "Ġcree": 2242,
      "Ġvenga": 2243,
      "aray": 2244,
      "Ġimprenta": 2245,
      "ĠBar": 2246,
      "ĠBern": 2247,
      "Ġempie": 2248,
      "Ġdistra": 2249,
      "Ġquerer": 2250,
      "ĠIsab": 2251,
      "Ġentresuelo": 2252,
      "Ġpresent": 2253,
      "Ġinstantes": 2254,
      "Ġprimera": 2255,
      "Ġdoce": 2256,
      "ĠpequeÃ±": 2257,
      "ĠAstilla": 2258,
      "Ġlevantar": 2259,
      "Ġmomentos": 2260,
      "ĠpodrÃŃa": 2261,
      "CuÃ¡n": 2262,
      "Ġfumar": 2263,
      "Ġblanca": 2264,
      "Ġviolin": 2265,
      "Ġjuez": 2266,
      "Ġacuerda": 2267,
      "ĠcariÃ±o": 2268,
      "Ġrubio": 2269,
      "Ġenfermo": 2270,
      "Ġhumil": 2271,
      "ĠlÃ¡grim": 2272,
      "Ġsentimenta": 2273,
      "Ġnovela": 2274,
      "Ġencargado": 2275,
      "Ġcomprom": 2276,
      "Ġquince": 2277,
      "Ġencanta": 2278,
      "dillas": 2279,
      "dulio": 2280,
      "ĠArce": 2281,
      "eneral": 2282,
      "Ġhermos": 2283,
      "ĠsonreÃŃr": 2284,
      "Ġcapaz": 2285,
      "Ġlavab": 2286,
      "Ġbril": 2287,
      "Ġprefier": 2288,
      "ĠObdulio": 2289,
      "Ġpantal": 2290,
      "Ġcuidado": 2291,
      "bonato": 2292,
      "Ġbicarbonato": 2293,
      "Ġflamenco": 2294,
      "ĠMaribel": 2295,
      "ĠMarujita": 2296,
      "ĠIsabel": 2297,
      "ĠlÃ¡grimas": 2298,
      "Caray": 2299,
      "Don": 2300,
      "Mi": 2301,
      "bos": 2302,
      "bable": 2303,
      "caba": 2304,
      "dÃ©": 2305,
      "dÃ³n": 2306,
      "efa": 2307,
      "fo": 2308,
      "fic": 2309,
      "iones": 2310,
      "jadas": 2311,
      "migo": 2312,
      "mpl": 2313,
      "pos": 2314,
      "pados": 2315,
      "ror": 2316,
      "sor": 2317,
      "sito": 2318,
      "tz": 2319,
      "trim": 2320,
      "vin": 2321,
      "viendo": 2322,
      "Â°": 2323,
      "ĠU": 2324,
      "ĠQue": 2325,
      "Ġdor": 2326,
      "Ġdol": 2327,
      "Ġloro": 2328,
      "Ġsanto": 2329,
      "Ġcir": 2330,
      "Ġaca": 2331,
      "Ġapa": 2332,
      "Ġpis": 2333,
      "ares": 2334,
      "quier": 2335,
      "onso": 2336,
      "orita": 2337,
      "Ġtim": 2338,
      "tales": 2339,
      "Ġseca": 2340,
      "ĠsegÃºn": 2341,
      "Ġesas": 2342,
      "Ġval": 2343,
      "damos": 2344,
      "ral": 2345,
      "rados": 2346,
      "Ã¡ez": 2347,
      "Ã©rez": 2348,
      "cial": 2349,
      "omb": 2350,
      "Ġbeb": 2351,
      "chero": 2352,
      "Ġsue": 2353,
      "Ġfres": 2354,
      "Ġfil": 2355,
      "Ġfrun": 2356,
      "cog": 2357,
      "Ġgarg": 2358,
      "Ġmue": 2359,
      "ĠLle": 2360,
      "Ġmemor": 2361,
      "ĠĠĠ": 2362,
      "ĠDorita": 2363,
      "cados": 2364,
      "Ġsilla": 2365,
      "Ġsimp": 2366,
      "ierra": 2367,
      "ĠPues": 2368,
      "ĠPÃ©rez": 2369,
      "Ġdices": 2370,
      "ĠRÃ³m": 2371,
      "Ġmiran": 2372,
      "Ġretre": 2373,
      "cula": 2374,
      "cular": 2375,
      "Ġhabia": 2376,
      "Ġcasar": 2377,
      "tran": 2378,
      "daderamente": 2379,
      "Ġejemp": 2380,
      "ĠVal": 2381,
      "Ġveremos": 2382,
      "Ġinf": 2383,
      "ulos": 2384,
      "Ġcaliente": 2385,
      "Ġsonrisa": 2386,
      "Ġserio": 2387,
      "Ġcarca": 2388,
      "Ġcapi": 2389,
      "Ġsino": 2390,
      "ĠpaÃ±": 2391,
      "ĠparecÃŃa": 2392,
      "entado": 2393,
      "Ġquiera": 2394,
      "Ġras": 2395,
      "Ġacera": 2396,
      "Ġmatrim": 2397,
      "Este": 2398,
      "Esto": 2399,
      "Ġprobable": 2400,
      "ĠAlonso": 2401,
      "tillas": 2402,
      "Ġcomple": 2403,
      "Ġcine": 2404,
      "ĠSegu": 2405,
      "bed": 2406,
      "Ġmuchacho": 2407,
      "Ġresig": 2408,
      "Ġdistin": 2409,
      "ermin": 2410,
      "Ġorgan": 2411,
      "Ġâİ¯Â¡": 2412,
      "Ġrodillas": 2413,
      "Ġcolillas": 2414,
      "ĠMauri": 2415,
      "Ġguardias": 2416,
      "Ġentera": 2417,
      "ĠFidel": 2418,
      "Ġfuerte": 2419,
      "ciende": 2420,
      "Mucho": 2421,
      "Ġenfrente": 2422,
      "ĠAntes": 2423,
      "fec": 2424,
      "Ġeran": 2425,
      "Ġandaba": 2426,
      "Ġlargo": 2427,
      "Ġlarga": 2428,
      "Ġcliente": 2429,
      "Ġposible": 2430,
      "Ġlibertad": 2431,
      "ĠpapÃ¡": 2432,
      "ĠpequeÃ±o": 2433,
      "ĠpodÃŃa": 2434,
      "ĠmarchÃ³": 2435,
      "ĠdÃ©j": 2436,
      "Ġencontra": 2437,
      "ĠextraÃ±a": 2438,
      "Ġcenar": 2439,
      "Ġtemprano": 2440,
      "Ġ.Â°": 2441,
      "Ġcontesta": 2442,
      "ĠacabÃ³": 2443,
      "Ġembargo": 2444,
      "Ġdulce": 2445,
      "Ġmerece": 2446,
      "Ġdesnuda": 2447,
      "Ġhistoria": 2448,
      "ĠMorrazo": 2449,
      "ĠJuana": 2450,
      "ĠconversaciÃ³n": 2451,
      "ĠcuÃ±ado": 2452,
      "Ġzapatos": 2453,
      "Ġfuese": 2454,
      "Ġrecuerdo": 2455,
      "Ġartista": 2456,
      "Mami": 2457,
      "ĠTrinidad": 2458,
      "Ġsombrero": 2459,
      "Ġempieza": 2460,
      "Ġviolinista": 2461,
      "Ġgarganta": 2462,
      "ĠRÃ³mulo": 2463,
      "ĠcapitÃ¡n": 2464,
      "ĠMauricio": 2465,
      ".)": 2466,
      "Ah": 2467,
      "DÃ©j": 2468,
      "Has": 2469,
      "Hay": 2470,
      "Pa": 2471,
      "Sab": 2472,
      "To": 2473,
      "Ten": 2474,
      "Ven": 2475,
      "ac": 2476,
      "bu": 2477,
      "cel": 2478,
      "cÃ³mo": 2479,
      "dera": 2480,
      "dora": 2481,
      "diendo": 2482,
      "eo": 2483,
      "fle": 2484,
      "gor": 2485,
      "gando": 2486,
      "ior": 2487,
      "jes": 2488,
      "pero": 2489,
      "pir": 2490,
      "sto": 2491,
      "tÃ¡s": 2492,
      "uis": 2493,
      "vent": 2494,
      "Ġw": 2495,
      "Ġdoy": 2496,
      "ĠsÃ¡b": 2497,
      "Ġcrim": 2498,
      "Ġaf": 2499,
      "Ġata": 2500,
      "Ġasegu": 2501,
      "Ġpl": 2502,
      "Ġpri": 2503,
      "ose": 2504,
      "erv": 2505,
      "erro": 2506,
      "erio": 2507,
      "Ġdedos": 2508,
      "arÃŃa": 2509,
      "Ġmen": 2510,
      "ores": 2511,
      "Ġtum": 2512,
      "Ġtonto": 2513,
      "anda": 2514,
      "unta": 2515,
      "ellos": 2516,
      "Ġnervi": 2517,
      "Ġhu": 2518,
      "Ġhemos": 2519,
      "Ġvent": 2520,
      "Ã³ma": 2521,
      "Ġenciende": 2522,
      "Ã±e": 2523,
      "ables": 2524,
      "Ġconven": 2525,
      "Ġconfi": 2526,
      "rir": 2527,
      "Ġletra": 2528,
      "Ġfla": 2529,
      "ĠfrÃŃa": 2530,
      "leg": 2531,
      "tiva": 2532,
      "ticos": 2533,
      "ticas": 2534,
      "dito": 2535,
      "dedor": 2536,
      "Ġparti": 2537,
      "Ġocu": 2538,
      "Ġofre": 2539,
      "ĠMal": 2540,
      "Ġcome": 2541,
      "Ġcomida": 2542,
      "Ġhago": 2543,
      "caciÃ³n": 2544,
      "Ġcumpl": 2545,
      "Ġsiga": 2546,
      "ĠPal": 2547,
      "bado": 2548,
      "ĠCor": 2549,
      "ĠCom": 2550,
      "Ġreun": 2551,
      "Ġreti": 2552,
      "culos": 2553,
      "ilba": 2554,
      "ĠhabÃŃan": 2555,
      "ima": 2556,
      "Ġvivir": 2557,
      "ĠverÃ¡s": 2558,
      "ĠvergÃ¼enza": 2559,
      "Ġsob": 2560,
      "Ġsobra": 2561,
      "bido": 2562,
      "Ġserie": 2563,
      "ĠllegÃ³": 2564,
      "Ġchu": 2565,
      "Ġhijas": 2566,
      "Ġcaje": 2567,
      "ĠsintiÃ³": 2568,
      "turas": 2569,
      "tarÃŃa": 2570,
      "Ġpared": 2571,
      "Ġcambio": 2572,
      "Ġtrae": 2573,
      "Ġamable": 2574,
      "Ġsalido": 2575,
      "ĠTen": 2576,
      "Ġren": 2577,
      "Ġtipo": 2578,
      "Ġtiemb": 2579,
      "Ġarm": 2580,
      "ĠEste": 2581,
      "ĠEsper": 2582,
      "Ġasom": 2583,
      "Esta": 2584,
      "Ġpreci": 2585,
      "Ġprepar": 2586,
      "Ġabs": 2587,
      "ĠAlgun": 2588,
      "Ġpensado": 2589,
      "Ġespal": 2590,
      "ĠBan": 2591,
      "ĠBra": 2592,
      "Ġempa": 2593,
      "tencia": 2594,
      "Ġbotel": 2595,
      "Ġdiscur": 2596,
      "ĠsabÃŃa": 2597,
      "Ġquerida": 2598,
      "Ġorgu": 2599,
      "Ġropa": 2600,
      "ĠPaquito": 2601,
      "ĠPaquita": 2602,
      "ĠPaulina": 2603,
      "Ġdecirle": 2604,
      "ĠPedro": 2605,
      "Ġllevan": 2606,
      "Ġtaza": 2607,
      "Ġpudo": 2608,
      "Ġrepres": 2609,
      "Ġrico": 2610,
      "Ġquienes": 2611,
      "Ġbeso": 2612,
      "Ġaquello": 2613,
      "Ġquedado": 2614,
      "Ġestuvo": 2615,
      "adores": 2616,
      "Ġfelici": 2617,
      "Ġpose": 2618,
      "Ġlitera": 2619,
      "Ġesperar": 2620,
      "Ġcabo": 2621,
      "Ġfaltaba": 2622,
      "Ġsomos": 2623,
      "Ġfumando": 2624,
      "Ġnego": 2625,
      "Ġnuestro": 2626,
      "Ġregal": 2627,
      "Ġregalo": 2628,
      "Ġbolsillos": 2629,
      "Ġtemporada": 2630,
      "Ġsentido": 2631,
      "Ġcruz": 2632,
      "Ġprincipal": 2633,
      "Ġprincipio": 2634,
      "Ġatreve": 2635,
      "Ġtemblor": 2636,
      "Ġvarios": 2637,
      "Ġleyendo": 2638,
      "ĠmÃºsicos": 2639,
      "ĠalegrÃŃa": 2640,
      "Quieres": 2641,
      "AllÃ¡": 2642,
      "Ġocurre": 2643,
      "Ġbroma": 2644,
      "Ġninguna": 2645,
      "Ġazules": 2646,
      "Ġtonta": 2647,
      "Ġprocura": 2648,
      "ĠlecherÃŃa": 2649,
      "ĠcastaÃ±as": 2650,
      "Ġdesgraciado": 2651,
      "Verdaderamente": 2652,
      "Ġduerme": 2653,
      "Ġlengua": 2654,
      "Ġhijita": 2655,
      "Ġmilagro": 2656,
      "Ġequivo": 2657,
      "Ġsentimental": 2658,
      "Ġbrillan": 2659,
      "Ġmemoria": 2660,
      "Ġretrete": 2661,
      "ĠpaÃ±uelo": 2662,
      "Ġmatrimonio": 2663,
      "Ġprobablemente": 2664,
      "Ġcajetilla": 2665,
      "Ġliteratura": 2666,
      "AquÃŃ": 2667,
      "Di": 2668,
      "Nos": 2669,
      "Nunca": 2670,
      "Oiga": 2671,
      "Tiene": 2672,
      "cÃ³n": 2673,
      "cÃŃan": 2674,
      "dÃŃa": 2675,
      "drÃŃ": 2676,
      "dura": 2677,
      "gres": 2678,
      "ila": 2679,
      "lom": 2680,
      "mero": 2681,
      "mientos": 2682,
      "pÃ³": 2683,
      "pues": 2684,
      "rÃ¡s": 2685,
      "rum": 2686,
      "sÃŃ": 2687,
      "sabe": 2688,
      "sche": 2689,
      "vuel": 2690,
      "vamente": 2691,
      "ĠZ": 2692,
      "Ġu": 2693,
      "ĠUsted": 2694,
      "Ġdado": 2695,
      "Ġdarse": 2696,
      "Ġlla": 2697,
      "Ġcem": 2698,
      "esa": 2699,
      "esiÃ³n": 2700,
      "Ġace": 2701,
      "Ġacu": 2702,
      "ard": 2703,
      "Ġmin": 2704,
      "Ġmol": 2705,
      "Ġmona": 2706,
      "Ġquita": 2707,
      "oros": 2708,
      "unto": 2709,
      "Ġquedan": 2710,
      "Ġlata": 2711,
      "ĠnÃº": 2712,
      "Ġhier": 2713,
      "Ġsem": 2714,
      "remos": 2715,
      "Ġvel": 2716,
      "Ġense": 2717,
      "damente": 2718,
      "ines": 2719,
      "inos": 2720,
      "Ã¡tico": 2721,
      "cidas": 2722,
      "ciales": 2723,
      "cieron": 2724,
      "Ġbal": 2725,
      "Ġbomb": 2726,
      "Ġconten": 2727,
      "Ġconmigo": 2728,
      "ritu": 2729,
      "Ġlejos": 2730,
      "Ġsubor": 2731,
      "Ġfar": 2732,
      "Ġfran": 2733,
      "Ġfras": 2734,
      "Ġale": 2735,
      "Ġalto": 2736,
      "Ġalma": 2737,
      "ĠEra": 2738,
      "Ġlocal": 2739,
      "Ġgal": 2740,
      "Ġgru": 2741,
      "dice": 2742,
      "ditos": 2743,
      "demos": 2744,
      "decÃŃa": 2745,
      "ĠoÃŃr": 2746,
      "Ġportal": 2747,
      "ĠDos": 2748,
      "Ġcump": 2749,
      "Ġcurios": 2750,
      "Ġdelica": 2751,
      "Ġestr": 2752,
      "ĠestÃ³ma": 2753,
      "Ġdig": 2754,
      "ĠCi": 2755,
      "ĠCo": 2756,
      "Ġdespa": 2757,
      "Ġdestino": 2758,
      "ĠSÃŃ": 2759,
      "ĠSal": 2760,
      "ĠSierra": 2761,
      "Ãºp": 2762,
      "Ġrem": 2763,
      "guaya": 2764,
      "culas": 2765,
      "enterio": 2766,
      "Ġecha": 2767,
      "Ġedu": 2768,
      "...!": 2769,
      "Ġindi": 2770,
      "Ġinten": 2771,
      "Ġinmen": 2772,
      "Ġcalla": 2773,
      "Ġservir": 2774,
      "Ã©ndose": 2775,
      "Ġchicos": 2776,
      "Ġ\"Â¿": 2777,
      "Ġcaj": 2778,
      "Ġcated": 2779,
      "taron": 2780,
      "tarse": 2781,
      "Ġpaga": 2782,
      "Ġtraer": 2783,
      "Ġmalas": 2784,
      "ĠTambiÃ©n": 2785,
      "ĠEso": 2786,
      "ĠEspaÃ±a": 2787,
      "Ġpide": 2788,
      "ĠRodrÃŃ": 2789,
      "Ġpedir": 2790,
      "EstÃ¡s": 2791,
      "Ġapre": 2792,
      "Ġproble": 2793,
      "Ġprovin": 2794,
      "Ġabur": 2795,
      "ĠabriÃ³": 2796,
      "ĠpensiÃ³n": 2797,
      "Ġcompra": 2798,
      "ĠOiga": 2799,
      "ĠHerm": 2800,
      "Ġcines": 2801,
      "Una": 2802,
      "Ġdiscre": 2803,
      "Ġrode": 2804,
      "Ġbarbar": 2805,
      "Ġpeseta": 2806,
      "ruguaya": 2807,
      "Ġgrandes": 2808,
      "Ġtoma": 2809,
      "ĠtomÃ³": 2810,
      "Ġhubieran": 2811,
      "Ġpuro": 2812,
      "Ġechar": 2813,
      "Ġechador": 2814,
      "Ġrisa": 2815,
      "Ġconsi": 2816,
      "Ġconsigo": 2817,
      "Ġbesa": 2818,
      "duvo": 2819,
      "guez": 2820,
      "alquiera": 2821,
      "ficio": 2822,
      "Ġiguales": 2823,
      "Ġprimero": 2824,
      "Ġdoctor": 2825,
      "Ġcaball": 2826,
      "ĠdueÃ±o": 2827,
      "Ġvienen": 2828,
      "Ġmarchar": 2829,
      "Ãīs": 2830,
      "Ġespejos": 2831,
      "Ġbebe": 2832,
      "ĠSobre": 2833,
      "Ġjugar": 2834,
      "Ġoscu": 2835,
      "Ġacuerdo": 2836,
      "Ġacuerdas": 2837,
      "ĠencontrÃ³": 2838,
      "ĠJavier": 2839,
      "ĠcariÃ±os": 2840,
      "Ġpalabra": 2841,
      "Ġpesar": 2842,
      "Ġamigas": 2843,
      "Ġidea": 2844,
      "Ġharta": 2845,
      "ĠMetro": 2846,
      "Ġenfermos": 2847,
      "Ġrespir": 2848,
      "ĠallÃ¡": 2849,
      "Ġpueblos": 2850,
      "sabes": 2851,
      "Ġsienta": 2852,
      "ĠsentÃ³": 2853,
      "Ġautor": 2854,
      "Ġterc": 2855,
      "Ġcultura": 2856,
      "Ġllorar": 2857,
      "Ġdomin": 2858,
      "ĠmÃºsica": 2859,
      "Ġapoya": 2860,
      "Ġrespeto": 2861,
      "pital": 2862,
      "Ġagrade": 2863,
      "Ġvecinos": 2864,
      "Ġvecindad": 2865,
      "ĠatenciÃ³n": 2866,
      "ĠquizÃ¡": 2867,
      "ĠquizÃ¡s": 2868,
      "Ġbarrio": 2869,
      "Ġcigarrillo": 2870,
      "Ġanimal": 2871,
      "Ġsuave": 2872,
      "Ġsirve": 2873,
      "ĠrÃŃe": 2874,
      "Ġescalera": 2875,
      "Ġtranquila": 2876,
      "Ġclase": 2877,
      "ĠacompaÃ±": 2878,
      "Ġbigote": 2879,
      "ĠFernando": 2880,
      "Ġmisterios": 2881,
      "Ġgruesa": 2882,
      "ĠÃģ": 2883,
      "Ġemo": 2884,
      "ciedad": 2885,
      "Ġmueble": 2886,
      "Ġservicio": 2887,
      "ĠBernardo": 2888,
      "Ġlavabos": 2889,
      "ĠpantalÃ³n": 2890,
      "tzsche": 2891,
      "ĠUruguaya": 2892,
      "Sabes": 2893,
      "ĠsÃ¡banas": 2894,
      "ilbao": 2895,
      "ĠEsperanza": 2896,
      "Ġfelicidad": 2897,
      "Ġcementerio": 2898,
      "Ġsubordin": 2899,
      "Ġcuriosidad": 2900,
      "ĠestÃ³mago": 2901,
      "ĠRodrÃŃguez": 2902,
      "Ġprovincia": 2903,
      ").": 2904,
      "AsÃŃ": 2905,
      "Ch": 2906,
      "Ps": 2907,
      "Pue": 2908,
      "ater": 2909,
      "aje": 2910,
      "cle": 2911,
      "ctu": 2912,
      "ctÃ¡": 2913,
      "como": 2914,
      "fÃ³n": 2915,
      "gada": 2916,
      "gaba": 2917,
      "hona": 2918,
      "icia": 2919,
      "jero": 2920,
      "jera": 2921,
      "mena": 2922,
      "micos": 2923,
      "oco": 2924,
      "pen": 2925,
      "pes": 2926,
      "rÃ³": 2927,
      "tero": 2928,
      "tÃº": 2929,
      "udar": 2930,
      "vera": 2931,
      "vÃ¡ez": 2932,
      "zquier": 2933,
      "Ġido": 2934,
      "Ġdas": 2935,
      "Ġdientes": 2936,
      "ĠlÃŃ": 2937,
      "Ġlentes": 2938,
      "ĠsoÃ±a": 2939,
      "Ġcien": 2940,
      "Ġcris": 2941,
      "esen": 2942,
      "esti": 2943,
      "estra": 2944,
      "Ġag": 2945,
      "Ġaj": 2946,
      "Ġabre": 2947,
      "Ġadem": 2948,
      "Ġpus": 2949,
      "ĠpÃ¡r": 2950,
      "eric": 2951,
      "arvÃ¡ez": 2952,
      "Ġmenti": 2953,
      "asa": 2954,
      "ĠtÃ©": 2955,
      "ĠtrÃ¡": 2956,
      "Ġtren": 2957,
      "Ġtermin": 2958,
      "anes": 2959,
      "Ġquej": 2960,
      "elante": 2961,
      "Ġhel": 2962,
      "reci": 2963,
      "rededor": 2964,
      "Ġesco": 2965,
      "Ġesti": 2966,
      "Ġenga": 2967,
      "Ã±ar": 2968,
      "aldo": 2969,
      "Ġben": 2970,
      "Ġbre": 2971,
      "Ġcontin": 2972,
      "Ġconsegu": 2973,
      "chÃ©": 2974,
      "rig": 2975,
      "rica": 2976,
      "Ġsub": 2977,
      "Ġsuce": 2978,
      "Ġsuje": 2979,
      "Ġalum": 2980,
      "Ġalbor": 2981,
      "ĠEm": 2982,
      "ĠEx": 2983,
      "Ġgalle": 2984,
      "ismo": 2985,
      "lem": 2986,
      "ledad": 2987,
      "ĠLuis": 2988,
      "usti": 2989,
      "tidos": 2990,
      "titud": 2991,
      "Ġolor": 2992,
      "ĠoÃŃdo": 2993,
      "Ġcual": 2994,
      "Ġcuad": 2995,
      "Ġdelante": 2996,
      "ĠAquÃŃ": 2997,
      "ĠPer": 2998,
      "ĠElla": 2999,
      "Ġtoalla": 3000,
      "Ġdias": 3001,
      "Ġdire": 3002,
      "Ġdiver": 3003,
      "Ġdije": 3004,
      "Ġpodido": 3005,
      "ĠRa": 3006,
      "Ġdesay": 3007,
      "Ġdespi": 3008,
      "viese": 3009,
      "Ġrepe": 3010,
      "Ġreme": 3011,
      "Ġrefle": 3012,
      "Ġusur": 3013,
      "ilio": 3014,
      "Ġhabido": 3015,
      "Ġcasas": 3016,
      "ĠvivÃŃa": 3017,
      "Ġvete": 3018,
      "Ġedi": 3019,
      "Ġevi": 3020,
      "Ġejer": 3021,
      "Ġsolem": 3022,
      "bia": 3023,
      "jate": 3024,
      "Ġinvi": 3025,
      "Ġintel": 3026,
      "quete": 3027,
      "uesto": 3028,
      "Ġllen": 3029,
      "Ġpasos": 3030,
      "uena": 3031,
      "Ġcalles": 3032,
      "oraciÃ³n": 3033,
      "Ġtecho": 3034,
      "toso": 3035,
      "Ġchicas": 3036,
      "Ġcaras": 3037,
      "Ġcaridad": 3038,
      "Ġcartera": 3039,
      "Ġcarrera": 3040,
      "Ġcaja": 3041,
      "tarle": 3042,
      "tarÃŃas": 3043,
      "Ġparecen": 3044,
      "Ġperro": 3045,
      "tancia": 3046,
      "ĠtraÃŃdo": 3047,
      "Ġamar": 3048,
      "ĠsalÃ³n": 3049,
      "Ġestaban": 3050,
      "Ġtira": 3051,
      "Ġarte": 3052,
      "Ġarro": 3053,
      "Ġarras": 3054,
      "ĠEsta": 3055,
      "Ġacar": 3056,
      "Ġpiel": 3057,
      "Ġpico": 3058,
      "Ġpiano": 3059,
      "Ġmatar": 3060,
      "Ġpegar": 3061,
      "Ġizquier": 3062,
      "Ġbuenos": 3063,
      "medad": 3064,
      "inaciÃ³n": 3065,
      "Ġapro": 3066,
      "ĠÃ©se": 3067,
      "ĠGran": 3068,
      "Ġpension": 3069,
      "Ġcompas": 3070,
      "Ġcompla": 3071,
      "ĠOsto": 3072,
      "ĠCazuela": 3073,
      "ĠHi": 3074,
      "ĠHoy": 3075,
      "Ġespera": 3076,
      "ĠBien": 3077,
      "ĠBuen": 3078,
      "ĠBilbao": 3079,
      "ĠNi": 3080,
      "ĠNie": 3081,
      "ĠNarvÃ¡ez": 3082,
      "cencia": 3083,
      "Ġtuviera": 3084,
      "Ġboba": 3085,
      "Ġalguno": 3086,
      "Ġdisgus": 3087,
      "venir": 3088,
      "Ġquerido": 3089,
      "Ġcolilla": 3090,
      "Ġcolmena": 3091,
      "ĠMaÃ±ana": 3092,
      "Ġdejas": 3093,
      "ĠNotarÃŃas": 3094,
      "ĠllevÃ³": 3095,
      "Ġhermanos": 3096,
      "Ġtahona": 3097,
      "Ġaguan": 3098,
      "Ġaguanta": 3099,
      "Ġecharse": 3100,
      "Ġecharon": 3101,
      "Ġviejas": 3102,
      "Ġfigu": 3103,
      "ĠMadera": 3104,
      "Ġtrabaja": 3105,
      "fecto": 3106,
      "Ġcamareros": 3107,
      "Ġvestido": 3108,
      "Ġvestida": 3109,
      "ĠpequeÃ±os": 3110,
      "Ġesperanza": 3111,
      "Ġpelu": 3112,
      "Ġcorazones": 3113,
      "Ġsombra": 3114,
      "Ġvienes": 3115,
      "vieron": 3116,
      "Ġconfor": 3117,
      "Ġconform": 3118,
      "ĠSoledad": 3119,
      "Ġarreglo": 3120,
      "Ande": 3121,
      "Ġadm": 3122,
      "ĠviolÃŃn": 3123,
      "Ġpaseando": 3124,
      "Ġjuro": 3125,
      "Ġjuegan": 3126,
      "Ġencuentro": 3127,
      "Ġencontrar": 3128,
      "Ġtristeza": 3129,
      "Ġmayores": 3130,
      "ĠÃºltima": 3131,
      "Ġchaqueta": 3132,
      "Ġrespon": 3133,
      "Ġrespaldo": 3134,
      "Ġpregunta": 3135,
      "Ġdeben": 3136,
      "Ġpunto": 3137,
      "Ġtembl": 3138,
      "Ġdesgracia": 3139,
      "Ġponerse": 3140,
      "Ġaut": 3141,
      "Ġbande": 3142,
      "Ġllorando": 3143,
      "Ġhonrado": 3144,
      "Ġdesapar": 3145,
      "Quiere": 3146,
      "Ġpatadas": 3147,
      "Ġligera": 3148,
      "Ġbonito": 3149,
      "Ġchinos": 3150,
      "Ġguapa": 3151,
      "Ġpudiera": 3152,
      "Ġtremendo": 3153,
      "ĠÃ¡ngel": 3154,
      "ĠHace": 3155,
      "Ġexpres": 3156,
      "Ġmadru": 3157,
      "Ġcuello": 3158,
      "Ġacordar": 3159,
      "Ġabierto": 3160,
      "Ġcorriente": 3161,
      "Ġentender": 3162,
      "Ġmiserable": 3163,
      "Ġcriatura": 3164,
      "Ġcantaba": 3165,
      "Ġnoticia": 3166,
      "ĠdifÃŃ": 3167,
      "Ġperdone": 3168,
      "Ġternura": 3169,
      "Ġcontrario": 3170,
      "Ġpropias": 3171,
      "Ġcompromiso": 3172,
      "Ġprefiere": 3173,
      "Ġdolor": 3174,
      "ĠLleva": 3175,
      "Ġcarcajadas": 3176,
      "Ġresigna": 3177,
      "Ġcrimen": 3178,
      "Ġventana": 3179,
      "ĠTenÃŃa": 3180,
      "Ġtiembla": 3181,
      "ĠBanco": 3182,
      "Ġposeer": 3183,
      "Ġaceite": 3184,
      "Ġestrel": 3185,
      "ĠcajÃ³n": 3186,
      "Ġbarbaridad": 3187,
      "Ġsubordinados": 3188,
      "PschÃ©": 3189,
      "Ġalboro": 3190,
      "Ġremedio": 3191,
      "ĠOstolaza": 3192,
      "ĠNietzsche": 3193,
      "-.": 3194,
      "Ahora": 3195,
      "Calla": 3196,
      "Hoy": 3197,
      "Huy": 3198,
      "Per": 3199,
      "cÃŃ": 3200,
      "dero": 3201,
      "dese": 3202,
      "ea": 3203,
      "eas": 3204,
      "eto": 3205,
      "eza": 3206,
      "etas": 3207,
      "fos": 3208,
      "fer": 3209,
      "fico": 3210,
      "gÃ³n": 3211,
      "gamos": 3212,
      "hi": 3213,
      "ial": 3214,
      "izo": 3215,
      "jan": 3216,
      "lu": 3217,
      "lita": 3218,
      "lica": 3219,
      "nes": 3220,
      "nidad": 3221,
      "pin": 3222,
      "ple": 3223,
      "sas": 3224,
      "sin": 3225,
      "tÃŃ": 3226,
      "tÃŃa": 3227,
      "tiene": 3228,
      "tul": 3229,
      "tina": 3230,
      "tona": 3231,
      "uma": 3232,
      "viene": 3233,
      "vÃŃas": 3234,
      "yas": 3235,
      "Ãĵ": 3236,
      "Ġ,": 3237,
      "Ġ...": 3238,
      "Ġjer": 3239,
      "Ġlenta": 3240,
      "ender": 3241,
      "eneg": 3242,
      "Ġsos": 3243,
      "Ġcel": 3244,
      "Ġatra": 3245,
      "Ġagar": 3246,
      "Ġavis": 3247,
      "ĠpÃ¡": 3248,
      "Ġpur": 3249,
      "ĠpÃºbl": 3250,
      "osos": 3251,
      "erno": 3252,
      "Ġdejo": 3253,
      "aro": 3254,
      "arÃ¡": 3255,
      "arlo": 3256,
      "quer": 3257,
      "quilla": 3258,
      "Ġmas": 3259,
      "Ġmita": 3260,
      "Ġmando": 3261,
      "Ġquiso": 3262,
      "onda": 3263,
      "onca": 3264,
      "Ġtus": 3265,
      "Ġtem": 3266,
      "anero": 3267,
      "andon": 3268,
      "Ġ-\"": 3269,
      "elas": 3270,
      "Ġnu": 3271,
      "Ġnena": 3272,
      "ÃŃdos": 3273,
      "ÃŃjate": 3274,
      "tam": 3275,
      "Ġsepa": 3276,
      "Ġescen": 3277,
      "Ġvues": 3278,
      "Ġviendo": 3279,
      "Ġvale": 3280,
      "Ã³x": 3281,
      "Ġenvi": 3282,
      "Ã±Ã³": 3283,
      "Ã±al": 3284,
      "cier": 3285,
      "ciosa": 3286,
      "ciles": 3287,
      "cientos": 3288,
      "ienta": 3289,
      "Ġbara": 3290,
      "Ġbrillo": 3291,
      "Ġconse": 3292,
      "Ġcontar": 3293,
      "Ġcontri": 3294,
      "chando": 3295,
      "chino": 3296,
      "amiento": 3297,
      "ria": 3298,
      "ritos": 3299,
      "Ġletras": 3300,
      "Ġsuya": 3301,
      "Ġsuplic": 3302,
      "Ġfor": 3303,
      "Ġfre": 3304,
      "ĠfÃ¡": 3305,
      "Ġfino": 3306,
      "Ġalim": 3307,
      "Ġalrededor": 3308,
      "ĠElo": 3309,
      "col": 3310,
      "Ġgem": 3311,
      "Ġgrita": 3312,
      "Ġgris": 3313,
      "Ġmus": 3314,
      "ditas": 3315,
      "Ġocas": 3316,
      "Ġofic": 3317,
      "ĠoÃŃdos": 3318,
      "ĠMan": 3319,
      "ierta": 3320,
      "ierto": 3321,
      "log": 3322,
      "ĠAu": 3323,
      "ĠAy": 3324,
      "ĠPlaza": 3325,
      "ĠestÃŃo": 3326,
      "bata": 3327,
      "Ġtoca": 3328,
      "Ġdiv": 3329,
      "Ġdiciendo": 3330,
      "Ġpodemos": 3331,
      "ĠRu": 3332,
      "ĠRos": 3333,
      "ĠCre": 3334,
      "ĠCada": 3335,
      "Ġdespe": 3336,
      "Ġdescar": 3337,
      "ĠSa": 3338,
      "vidad": 3339,
      "respon": 3340,
      "Ġrecon": 3341,
      "Ġrecado": 3342,
      "Ġrecog": 3343,
      "ildo": 3344,
      "ĠcasÃ³": 3345,
      "ĠVa": 3346,
      "ĠniÃ±as": 3347,
      "Ġverm": 3348,
      "ĠverÃ¡": 3349,
      "Ġverano": 3350,
      "...\"": 3351,
      "Ġino": 3352,
      "Ġinvier": 3353,
      "icÃŃa": 3354,
      "tase": 3355,
      "ull": 3356,
      "Ġsonr": 3357,
      "Ġanun": 3358,
      "Ġseria": 3359,
      "cerÃŃa": 3360,
      "Ġchar": 3361,
      "Ġcae": 3362,
      "Ġcap": 3363,
      "Ġcafe": 3364,
      "Ġcob": 3365,
      "Ġcoin": 3366,
      "Ġcoleg": 3367,
      "tulo": 3368,
      "tuoso": 3369,
      "tarÃ¡": 3370,
      "Ġpago": 3371,
      "Ġpagan": 3372,
      "Ġcampo": 3373,
      "Ġperder": 3374,
      "Ġperdido": 3375,
      "Ġtratar": 3376,
      "Ġameric": 3377,
      "Ġsalga": 3378,
      "Ġquieren": 3379,
      "terÃŃas": 3380,
      "ĠToros": 3381,
      "Ġrosa": 3382,
      "Ġrara": 3383,
      "Ġraro": 3384,
      "ĠFuen": 3385,
      "ĠEstos": 3386,
      "ciocho": 3387,
      "Ġases": 3388,
      "Ġmata": 3389,
      "ĠmaÃ±": 3390,
      "Ġpeda": 3391,
      "ĠEntonces": 3392,
      "Ġaho": 3393,
      "umin": 3394,
      "Ġapu": 3395,
      "Ġprodu": 3396,
      "Ġvuelven": 3397,
      "Ġabandon": 3398,
      "ĠAlfon": 3399,
      "Ġhacerlo": 3400,
      "Ġmejillas": 3401,
      "Ġcrees": 3402,
      "Ġcreer": 3403,
      "Ġvende": 3404,
      "ĠGlor": 3405,
      "ĠGeneral": 3406,
      "Ġbauti": 3407,
      "tillo": 3408,
      "Ġcompren": 3409,
      "igue": 3410,
      "ĠHas": 3411,
      "ĠHab": 3412,
      "Ġimpos": 3413,
      "Ġimper": 3414,
      "Ġesposo": 3415,
      "ĠLeÃ³n": 3416,
      "Ġexig": 3417,
      "Ġsac": 3418,
      "Ġsatis": 3419,
      "ĠprÃ³x": 3420,
      "Ġnovios": 3421,
      "Ġcorta": 3422,
      "Ġcorrespon": 3423,
      "ĠponÃŃa": 3424,
      "Ġsaben": 3425,
      "Ġqueremos": 3426,
      "ĠquerÃŃan": 3427,
      "Buenas": 3428,
      "Ġroto": 3429,
      "Ġrojo": 3430,
      "Ġdudas": 3431,
      "grafa": 3432,
      "Ġdejarse": 3433,
      "Ġvolun": 3434,
      "Ġverdadero": 3435,
      "rÃ¡tico": 3436,
      "Ġmoda": 3437,
      "Ġmozo": 3438,
      "Ġmoder": 3439,
      "ĠseguÃŃa": 3440,
      "Ġpalom": 3441,
      "ieta": 3442,
      "Ġfueran": 3443,
      "Ġrica": 3444,
      "Ġsolos": 3445,
      "Ġsoltera": 3446,
      "Ġconsol": 3447,
      "Ġconsul": 3448,
      "Ġviejos": 3449,
      "ĠbesÃ³": 3450,
      "Ġgafas": 3451,
      "Ġhablado": 3452,
      "ĠtÃŃm": 3453,
      "ĠJosefa": 3454,
      "Ġaquellas": 3455,
      "fecti": 3456,
      "cisÃ©is": 3457,
      "mento": 3458,
      "Ġfelices": 3459,
      "Ġescribir": 3460,
      "Ġgolfa": 3461,
      "Ġgolpes": 3462,
      "cinas": 3463,
      "Ġdocen": 3464,
      "Ġhorror": 3465,
      "Ġbusca": 3466,
      "Ġesperando": 3467,
      "ĠpelÃŃ": 3468,
      "ĠpodrÃ¡": 3469,
      "Entonces": 3470,
      "Ġpied": 3471,
      "Ġtranquil": 3472,
      "ĠtranvÃŃas": 3473,
      "ĠConsor": 3474,
      "ĠSocor": 3475,
      "Ġarregla": 3476,
      "Ġarreglar": 3477,
      "Ġlibros": 3478,
      "Ġadqui": 3479,
      "Ã¡rb": 3480,
      "Ġderecha": 3481,
      "cionales": 3482,
      "Ġsuelen": 3483,
      "ĠMontes": 3484,
      "ĠextraÃ±as": 3485,
      "Ġjefe": 3486,
      "Ġenfermedad": 3487,
      "Ġborra": 3488,
      "Ġrompe": 3489,
      "ĠdebÃŃa": 3490,
      "Ġrealmente": 3491,
      "Ġrealidad": 3492,
      "tirse": 3493,
      "Ġmeterse": 3494,
      "Ġsienes": 3495,
      "ĠcomprÃ³": 3496,
      "utaciÃ³n": 3497,
      "ĠreciÃ©n": 3498,
      "Ġacostum": 3499,
      "Ġolvida": 3500,
      "Ġdecente": 3501,
      "Ġpermiso": 3502,
      "Hace": 3503,
      "Ġsentado": 3504,
      "Ġprofundo": 3505,
      "minis": 3506,
      "Ġescapara": 3507,
      "Ġcambiar": 3508,
      "ĠvendrÃ¡": 3509,
      "ĠbajÃ³": 3510,
      "Ġtremenda": 3511,
      "Ġninguno": 3512,
      "gni": 3513,
      "ĠÃ¡nimo": 3514,
      "ĠÃīl": 3515,
      "Ġquedarse": 3516,
      "Ġdieciocho": 3517,
      "ĠdiecisÃ©is": 3518,
      "Ġimpresor": 3519,
      "ĠpÃ¡lido": 3520,
      "ĠpÃ¡lida": 3521,
      "Ġelegante": 3522,
      "Ġsiguiente": 3523,
      "ĠpanaderÃŃa": 3524,
      "Ġtranquilo": 3525,
      "Ġpreocupado": 3526,
      "Ġantigu": 3527,
      "Ġdesprecio": 3528,
      "ĠencendiÃ³": 3529,
      "Ġgitanillo": 3530,
      "ĠojÃ©n": 3531,
      "Ġcostumbre": 3532,
      "ĠtÃŃsico": 3533,
      "Ġilustre": 3534,
      "Ġesfuerzos": 3535,
      "Ġentorn": 3536,
      "ĠBarto": 3537,
      "ĠpequeÃ±ito": 3538,
      "Ġhermoso": 3539,
      "Ġtimbre": 3540,
      "ĠsueÃ±o": 3541,
      "Ġfresco": 3542,
      "Ġmueve": 3543,
      "Ġejemplo": 3544,
      "Estoy": 3545,
      "bedrÃŃo": 3546,
      "Ġorganiz": 3547,
      "Ġencontrado": 3548,
      "Tengo": 3549,
      "Ġwater": 3550,
      "Ġparticular": 3551,
      "ĠAlgunas": 3552,
      "Ġespaldas": 3553,
      "Ġrepresenta": 3554,
      "Ġnegocio": 3555,
      "greso": 3556,
      "ĠnÃºmero": 3557,
      "Ġbombilla": 3558,
      "Ġcontento": 3559,
      "Ġgrupo": 3560,
      "ĠcatedrÃ¡tico": 3561,
      "ĠHermeneg": 3562,
      "Ġcaballero": 3563,
      "estiÃ³n": 3564,
      "ĠpÃ¡rpados": 3565,
      "Ġgallego": 3566,
      "Ġusurero": 3567,
      "Ġizquierda": 3568,
      "ĠBueno": 3569,
      "Ġpeluqu": 3570,
      "Ġestrellas": 3571,
      "Ġmitad": 3572,
      "ĠEloy": 3573,
      "Ġamericana": 3574,
      "ĠConsorcio": 3575,
      "ĠHermenegildo": 3576,
      "!\",": 3577,
      "-;": 3578,
      "Adel": 3579,
      "CI": 3580,
      "Calle": 3581,
      "Ja": 3582,
      "Ma": 3583,
      "Mar": 3584,
      "Mal": 3585,
      "Par": 3586,
      "Quer": 3587,
      "Sin": 3588,
      "TA": 3589,
      "Toma": 3590,
      "TÃ³m": 3591,
      "bel": 3592,
      "bÃ©": 3593,
      "bil": 3594,
      "ctos": 3595,
      "dÃŃ": 3596,
      "drÃŃa": 3597,
      "for": 3598,
      "gles": 3599,
      "gamente": 3600,
      "hÃŃ": 3601,
      "iar": 3602,
      "iza": 3603,
      "iver": 3604,
      "iciones": 3605,
      "iditos": 3606,
      "li": 3607,
      "lones": 3608,
      "lito": 3609,
      "lista": 3610,
      "mb": 3611,
      "mÃ³n": 3612,
      "melo": 3613,
      "ni": 3614,
      "otÃ³": 3615,
      "pel": 3616,
      "pren": 3617,
      "ron": 3618,
      "rÃºp": 3619,
      "selo": 3620,
      "tc": 3621,
      "tus": 3622,
      "tenta": 3623,
      "tonio": 3624,
      "ug": 3625,
      "udos": 3626,
      "udas": 3627,
      "van": 3628,
      "xito": 3629,
      "zÃ³": 3630,
      "zada": 3631,
      "zado": 3632,
      "Ġ)": 3633,
      "ĠriÃ³": 3634,
      "Ġzar": 3635,
      "Ġdro": 3636,
      "Ġdenta": 3637,
      "Ġdura": 3638,
      "Ġdadas": 3639,
      "Ġduele": 3640,
      "Ġdieron": 3641,
      "Ġlan": 3642,
      "Ġlista": 3643,
      "Ġluna": 3644,
      "endar": 3645,
      "encias": 3646,
      "enudo": 3647,
      "Ġses": 3648,
      "Ġsanta": 3649,
      "Ġsiendo": 3650,
      "Ġcr": 3651,
      "eses": 3652,
      "este": 3653,
      "Ġado": 3654,
      "Ġador": 3655,
      "Ġafi": 3656,
      "Ġpicar": 3657,
      "osamente": 3658,
      "ercia": 3659,
      "arro": 3660,
      "arista": 3661,
      "Ġmoles": 3662,
      "Ġtas": 3663,
      "Ġtur": 3664,
      "ancia": 3665,
      "unf": 3666,
      "uno": 3667,
      "unque": 3668,
      "Ġquedo": 3669,
      "Ġlad": 3670,
      "Ġyendo": 3671,
      "ÃŃritu": 3672,
      "Ġhin": 3673,
      "Ġhuel": 3674,
      "Ġseme": 3675,
      "Ġsecre": 3676,
      "Ġsemin": 3677,
      "ĠseÃ±al": 3678,
      "ĠespaÃ±": 3679,
      "Ġvin": 3680,
      "Ġvosotros": 3681,
      "Ã³g": 3682,
      "Ã³ven": 3683,
      "Ġenam": 3684,
      "dac": 3685,
      "ramos": 3686,
      "ing": 3687,
      "Ã±osa": 3688,
      "Ã±ido": 3689,
      "Ã©c": 3690,
      "cir": 3691,
      "cioso": 3692,
      "cilla": 3693,
      "Ġnoble": 3694,
      "alta": 3695,
      "ienes": 3696,
      "ienda": 3697,
      "Ġbl": 3698,
      "Ġbab": 3699,
      "Ġbil": 3700,
      "Ġbras": 3701,
      "Ġconti": 3702,
      "Ġconve": 3703,
      "Ġconcep": 3704,
      "chita": 3705,
      "chados": 3706,
      "amar": 3707,
      "aman": 3708,
      "ampoco": 3709,
      "rio": 3710,
      "Ġsuf": 3711,
      "ĠsubiÃ³": 3712,
      "Ġfun": 3713,
      "Ġfra": 3714,
      "Ġfle": 3715,
      "Ġform": 3716,
      "Ġfort": 3717,
      "Ġalem": 3718,
      "Ġalmo": 3719,
      "Ġaliento": 3720,
      "Ġalcan": 3721,
      "ĠalbedrÃŃo": 3722,
      "ĠEche": 3723,
      "Ġloco": 3724,
      "Ġgen": 3725,
      "Ġgoma": 3726,
      "Ġgrito": 3727,
      "Ġgeneral": 3728,
      "istencia": 3729,
      "ĠLA": 3730,
      "tim": 3731,
      "tivas": 3732,
      "tifica": 3733,
      "Ġmetida": 3734,
      "digo": 3735,
      "diese": 3736,
      "Ġpartida": 3737,
      "Ġoy": 3738,
      "ĠoÃŃa": 3739,
      "Ġobra": 3740,
      "Ġoper": 3741,
      "ĠoyÃ³": 3742,
      "Ġoficio": 3743,
      "ĠMer": 3744,
      "ĠMira": 3745,
      "Ġhagas": 3746,
      "ĠhacÃŃan": 3747,
      "ĠDentro": 3748,
      "Ġsig": 3749,
      "ĠsifÃ³n": 3750,
      "Ġsigni": 3751,
      "govia": 3752,
      "ĠAdiÃ³s": 3753,
      "ĠAmpar": 3754,
      "ĠPro": 3755,
      "Ġestra": 3756,
      "ueve": 3757,
      "ĠseÃ±oras": 3758,
      "ĠseÃ±oritas": 3759,
      "Ġtocar": 3760,
      "Ġdiablo": 3761,
      "ĠdirÃ©": 3762,
      "Ġpoca": 3763,
      "Ġpocos": 3764,
      "Ġpodamos": 3765,
      "ĠRes": 3766,
      "ĠRanero": 3767,
      "ĠCam": 3768,
      "ĠComo": 3769,
      "Ġdesh": 3770,
      "Ġdesal": 3771,
      "Ġdesdi": 3772,
      "ĠSin": 3773,
      "ĠSanta": 3774,
      "Ġmire": 3775,
      "Ġmiras": 3776,
      "Ġredon": 3777,
      "Ġredac": 3778,
      "Ġusar": 3779,
      "gues": 3780,
      "gual": 3781,
      "ilar": 3782,
      "Ġhabi": 3783,
      "imiento": 3784,
      "trÃ³n": 3785,
      "traron": 3786,
      "Ġvivi": 3787,
      "Ġviviendo": 3788,
      "Ġvea": 3789,
      "ĠveÃŃa": 3790,
      "Ġedad": 3791,
      "Ġeva": 3792,
      "Ġeche": 3793,
      "ĠediciÃ³n": 3794,
      "Ġefecto": 3795,
      "Ġetc": 3796,
      "ĠVir": 3797,
      "Ġverlo": 3798,
      "Ġverdes": 3799,
      "Ġsofo": 3800,
      "bias": 3801,
      "bida": 3802,
      "biza": 3803,
      "Ġinva": 3804,
      "Ġingen": 3805,
      "Ġinercia": 3806,
      "gao": 3807,
      "Ġpasando": 3808,
      "Ġpasaba": 3809,
      "ulio": 3810,
      "Ġcalam": 3811,
      "Ġcalce": 3812,
      "Ġcalent": 3813,
      "Ġcallar": 3814,
      "Ġcalma": 3815,
      "Ġcallado": 3816,
      "Ġande": 3817,
      "Ġanduvo": 3818,
      "Ã©ndez": 3819,
      "Ġllegan": 3820,
      "Ġcarne": 3821,
      "Ġmandar": 3822,
      "Ġcau": 3823,
      "Ġcach": 3824,
      "torce": 3825,
      "Ġcola": 3826,
      "Ġcodos": 3827,
      "Ġcopita": 3828,
      "paca": 3829,
      "tarte": 3830,
      "tarios": 3831,
      "Ġvais": 3832,
      "Ġvago": 3833,
      "Ġpague": 3834,
      "ĠpatrÃ³n": 3835,
      "Ġcamel": 3836,
      "Ġperf": 3837,
      "ĠperdiÃ³": 3838,
      "ĠtradiciÃ³n": 3839,
      "Ġama": 3840,
      "Ġmalos": 3841,
      "lares": 3842,
      "terior": 3843,
      "ĠTe": 3844,
      "ĠTom": 3845,
      "ĠFotÃ³": 3846,
      "Ġllamo": 3847,
      "ĠjÃ³ven": 3848,
      "Ġtibio": 3849,
      "ĠEsto": 3850,
      "ĠEstÃ¡n": 3851,
      "dase": 3852,
      "Ġmarco": 3853,
      "Ġsusto": 3854,
      "ĠpidiÃ³": 3855,
      "Ġmisa": 3856,
      "Ġvoce": 3857,
      "Ġvoces": 3858,
      "ĠalgodÃ³n": 3859,
      "Ġprecip": 3860,
      "ĠcostÃ³": 3861,
      "Ġapunta": 3862,
      "Ġvuelto": 3863,
      "Ġabor": 3864,
      "carral": 3865,
      "ĠÃ©xito": 3866,
      "ĠGu": 3867,
      "ĠGuti": 3868,
      "ĠdaÃ±o": 3869,
      "ĠpensÃ³": 3870,
      "Ġpensaba": 3871,
      "Ġhechos": 3872,
      "Ġtanta": 3873,
      "Ġespan": 3874,
      "Ġespina": 3875,
      "ĠSegovia": 3876,
      "Ġempuj": 3877,
      "Ġpros": 3878,
      "Ġcorbata": 3879,
      "Ġbotones": 3880,
      "Ġgustan": 3881,
      "Ġrespira": 3882,
      "Ġponiendo": 3883,
      "Ġradi": 3884,
      "izos": 3885,
      "Ġdiscul": 3886,
      "Ġsabemos": 3887,
      "Ġescon": 3888,
      "ĠescrÃºp": 3889,
      "Ġqueramos": 3890,
      "ibles": 3891,
      "ĠIbiza": 3892,
      "Ġcolab": 3893,
      "ĠPadilla": 3894,
      "tantemente": 3895,
      "destino": 3896,
      "grada": 3897,
      "ĠNota": 3898,
      "Ġgrave": 3899,
      "Ġgrabado": 3900,
      "ĠdarÃŃa": 3901,
      "Ġmover": 3902,
      "Ġseguro": 3903,
      "Ġtomado": 3904,
      "ĠestarÃŃa": 3905,
      "Ġpresente": 3906,
      "Ġtapa": 3907,
      "Ġaguas": 3908,
      "Ġrepar": 3909,
      "Ġinstin": 3910,
      "Mujer": 3911,
      "Ġsolar": 3912,
      "Ġsolares": 3913,
      "erna": 3914,
      "Ġconstantemente": 3915,
      "Ġmuerte": 3916,
      "Ġfijo": 3917,
      "Ġfidel": 3918,
      "ĠAntonio": 3919,
      "Ġtrabaje": 3920,
      "Ġquedaba": 3921,
      "ĠNadie": 3922,
      "Ġcantar": 3923,
      "Ġcantando": 3924,
      "Ġestuviera": 3925,
      "gasta": 3926,
      "ĠPorvenir": 3927,
      "ĠirÃ©": 3928,
      "Ġirse": 3929,
      "tines": 3930,
      "Ġcivil": 3931,
      "Porque": 3932,
      "ĠpequeÃ±as": 3933,
      "Ġesperan": 3934,
      "ĠAsÃŃ": 3935,
      "iraciÃ³n": 3936,
      "Ġcriadas": 3937,
      "Ġpelig": 3938,
      "Ġmamita": 3939,
      "ĠpolicÃŃa": 3940,
      "Ġnombres": 3941,
      "Cuando": 3942,
      "Cualquiera": 3943,
      "ÃŃsimo": 3944,
      "ĠespectÃ¡": 3945,
      "ĠbebiÃ³": 3946,
      "Ġfuman": 3947,
      "ĠinterÃ©s": 3948,
      "Ġinterrum": 3949,
      "Ġplato": 3950,
      "Ġmons": 3951,
      "ĠmontÃ³n": 3952,
      "Ġcolores": 3953,
      "cionada": 3954,
      "ĠcariÃ±osa": 3955,
      "Ġmillones": 3956,
      "ĠextraÃ±o": 3957,
      "Ġpapeles": 3958,
      "Ġcenado": 3959,
      "ĠgastÃ³": 3960,
      "ĠSanz": 3961,
      "Ġapare": 3962,
      "ĠimbÃ©": 3963,
      "Ġmerienda": 3964,
      "Ġtrasno": 3965,
      "Ġtrastien": 3966,
      "ĠTodos": 3967,
      "ĠlÃ¡p": 3968,
      "ĠRep": 3969,
      "ĠGonzalo": 3970,
      "Ġpuntos": 3971,
      "ĠtirÃ³": 3972,
      "Ġtirando": 3973,
      "ĠcontestÃ³": 3974,
      "ĠatreviÃ³": 3975,
      "Ġnoventa": 3976,
      "Ġmandado": 3977,
      "ĠÃ©sta": 3978,
      "Ġtritones": 3979,
      "Ġtriunf": 3980,
      "ionero": 3981,
      "Ġbanco": 3982,
      "Ġgorda": 3983,
      "Ġdormirse": 3984,
      "ĠdomÃ©s": 3985,
      "ĠdecÃŃr": 3986,
      "Ġencanto": 3987,
      "Ġpermi": 3988,
      "Ġsentados": 3989,
      "Ġagradar": 3990,
      "Ġtierna": 3991,
      "Ġenteros": 3992,
      "charros": 3993,
      "ĠJuan": 3994,
      "Ġcambia": 3995,
      "Ġexplica": 3996,
      "Ġbarriga": 3997,
      "Ġcigarro": 3998,
      "ĠpolÃŃtica": 3999,
      "ĠpolÃŃticos": 4000,
      "iputaciÃ³n": 4001,
      "Ġzum": 4002,
      "Ġsegundo": 4003,
      "Ġsegunda": 4004,
      "Ġsegundos": 4005,
      "cultad": 4006,
      "Ġimpresion": 4007,
      "tiende": 4008,
      "Ġsiguen": 4009,
      "ĠCarmen": 4010,
      "ĠcamisÃ³n": 4011,
      "Ġcamiseta": 4012,
      "Ġescaleras": 4013,
      "Ġtrabajando": 4014,
      "Ġpanadero": 4015,
      "Ã©rrez": 4016,
      "Ġantigua": 4017,
      "ĠrelÃ³": 4018,
      "Ġmerendar": 4019,
      "Ġmerengao": 4020,
      "Descu": 4021,
      "Ġnoticias": 4022,
      "Ġbuf": 4023,
      "ĠParece": 4024,
      "Ġpensativo": 4025,
      "Ġpensativa": 4026,
      "Ġcostumbres": 4027,
      "ĠtÃŃsicos": 4028,
      "Ġclaras": 4029,
      "Ġpienso": 4030,
      "Ġtaberna": 4031,
      "Ġnariz": 4032,
      "Ġesfuerzo": 4033,
      "Ġdescans": 4034,
      "Ġchicharros": 4035,
      "ĠBarcel": 4036,
      "Ġhumilde": 4037,
      "Ġencantada": 4038,
      "dÃ©micos": 4039,
      "Ġcirco": 4040,
      "ĠacadÃ©micos": 4041,
      "ĠsimpÃ¡": 4042,
      "ĠValencia": 4043,
      "ĠSegura": 4044,
      "Ġdistingu": 4045,
      "ĠdÃ©jame": 4046,
      "Todo": 4047,
      "Venga": 4048,
      "buciÃ³n": 4049,
      "Ġatavis": 4050,
      "Ġprima": 4051,
      "Ġnervioso": 4052,
      "Ġcumplir": 4053,
      "Ġsobran": 4054,
      "ĠtipografÃŃa": 4055,
      "Ġarmario": 4056,
      "Ġpreciso": 4057,
      "Ġabsol": 4058,
      "Ġempaque": 4059,
      "Ġorgul": 4060,
      "Ġuva": 4061,
      "Ġproblema": 4062,
      "Ġconsidera": 4063,
      "Ãīste": 4064,
      "ĠcariÃ±oso": 4065,
      "Ġrespirar": 4066,
      "Ġmisterioso": 4067,
      "ĠÃģn": 4068,
      "Puede": 4069,
      "ĠademÃ¡n": 4070,
      "Ġestilo": 4071,
      "Ġcontinu": 4072,
      "ĠEmilio": 4073,
      "Ġdivertirse": 4074,
      "Ġpensionista": 4075,
      "Ġaguantar": 4076,
      "ĠadmiraciÃ³n": 4077,
      "ĠdifÃŃcil": 4078,
      "ĠresignaciÃ³n": 4079,
      "Ġposeerlo": 4080,
      "ÃĵN": 4081,
      "Ġlentamente": 4082,
      "Ġavisar": 4083,
      "ĠpÃ¡g": 4084,
      "ĠpÃºblico": 4085,
      "Ġescena": 4086,
      "Ġoficina": 4087,
      "ĠManuel": 4088,
      "ĠvermÃº": 4089,
      "Ġinvierno": 4090,
      "Ġcoinci": 4091,
      "ĠFuencarral": 4092,
      "ĠmaÃ±anas": 4093,
      "Ġpedazos": 4094,
      "Ġsatisfe": 4095,
      "Ġvoluntad": 4096,
      "Ġacostumbra": 4097,
      "Adelante": 4098,
      "CIÃĵN": 4099,
      "MaÃ±ana": 4100,
      "Ġdrogu": 4101,
      "Ġdentadura": 4102,
      "Ġseminarista": 4103,
      "Ġalmoh": 4104,
      "tificado": 4105,
      "ĠAmparo": 4106,
      "ĠVirgen": 4107,
      "ĠFotÃ³grafa": 4108,
      "ĠjÃ³venes": 4109,
      "ĠGutiÃ©rrez": 4110,
      "ĠescrÃºpulos": 4111,
      "Ġfidelidad": 4112,
      "ĠespectÃ¡culo": 4113,
      "Ġtrastienda": 4114,
      "?\"": 4115,
      "Com": 4116,
      "DI": 4117,
      "Dos": 4118,
      "DoÃ±a": 4119,
      "Eres": 4120,
      "Hab": 4121,
      "In": 4122,
      "Lle": 4123,
      "LÃ³pez": 4124,
      "MÃ¡s": 4125,
      "Na": 4126,
      "Ni": 4127,
      "Oh": 4128,
      "OTA": 4129,
      "Pe": 4130,
      "Su": 4131,
      "aÃ±os": 4132,
      "acultad": 4133,
      "bun": 4134,
      "bus": 4135,
      "brar": 4136,
      "buj": 4137,
      "cante": 4138,
      "cano": 4139,
      "cÃ©s": 4140,
      "cciones": 4141,
      "clado": 4142,
      "delo": 4143,
      "diente": 4144,
      "ego": 4145,
      "etario": 4146,
      "ectu": 4147,
      "fÃ¡": 4148,
      "fia": 4149,
      "gia": 4150,
      "gante": 4151,
      "gna": 4152,
      "iro": 4153,
      "ires": 4154,
      "igu": 4155,
      "ique": 4156,
      "iÃ¡n": 4157,
      "iva": 4158,
      "icias": 4159,
      "iez": 4160,
      "jor": 4161,
      "jada": 4162,
      "jante": 4163,
      "ky": 4164,
      "len": 4165,
      "ler": 4166,
      "lio": 4167,
      "liz": 4168,
      "listas": 4169,
      "mal": 4170,
      "mosa": 4171,
      "mpa": 4172,
      "mados": 4173,
      "mentos": 4174,
      "oque": 4175,
      "pu": 4176,
      "pera": 4177,
      "pul": 4178,
      "pica": 4179,
      "piÃ³": 4180,
      "roso": 4181,
      "san": 4182,
      "sim": 4183,
      "tÃ©": 4184,
      "tent": 4185,
      "tela": 4186,
      "uch": 4187,
      "uja": 4188,
      "ugn": 4189,
      "vita": 4190,
      "yamos": 4191,
      "zon": 4192,
      "zca": 4193,
      "zadas": 4194,
      "ĠW": 4195,
      "ĠÃ³": 4196,
      "Ġran": 4197,
      "Ġur": 4198,
      "ĠÃ¡rb": 4199,
      "Ġdame": 4200,
      "Ġlim": 4201,
      "Ġlento": 4202,
      "enus": 4203,
      "Ġsiste": 4204,
      "Ġsard": 4205,
      "Ġcie": 4206,
      "Ġciento": 4207,
      "ĠcÃ¡l": 4208,
      "ĠcrÃ©": 4209,
      "Ġcientos": 4210,
      "Ġcelos": 4211,
      "estro": 4212,
      "Ġat": 4213,
      "ĠaÃ±a": 4214,
      "Ġaga": 4215,
      "Ġape": 4216,
      "ĠadiÃ³s": 4217,
      "Ġpra": 4218,
      "Ġpido": 4219,
      "Ġpiso": 4220,
      "Ġpinta": 4221,
      "ospital": 4222,
      "erc": 4223,
      "ersin": 4224,
      "Ġdevuel": 4225,
      "Ġdecencia": 4226,
      "Ġdetiene": 4227,
      "arme": 4228,
      "arios": 4229,
      "quel": 4230,
      "quera": 4231,
      "quÃ©s": 4232,
      "ĠmÃ¡": 4233,
      "ĠmÃ¡r": 4234,
      "asen": 4235,
      "astre": 4236,
      "onte": 4237,
      "onia": 4238,
      "Ġtuer": 4239,
      "antas": 4240,
      "unci": 4241,
      "Ġquem": 4242,
      "Ġquede": 4243,
      "Ġ-...": 4244,
      "Ġlate": 4245,
      "Ġlados": 4246,
      "Ġlava": 4247,
      "Ġlabor": 4248,
      "eles": 4249,
      "elle": 4250,
      "Ġyerno": 4251,
      "Ġnen": 4252,
      "Ġnorm": 4253,
      "taca": 4254,
      "Ġham": 4255,
      "Ġhue": 4256,
      "Ġhuy": 4257,
      "Ġsex": 4258,
      "Ġsepar": 4259,
      "Ġvul": 4260,
      "Ġvisi": 4261,
      "Ã³lo": 4262,
      "Ġencer": 4263,
      "ĠentrÃ³": 4264,
      "Ġenvuel": 4265,
      "Ġenhi": 4266,
      "dal": 4267,
      "tear": 4268,
      "Ã±ones": 4269,
      "Ã©culas": 4270,
      "Ã©ramos": 4271,
      "ciÃ©n": 4272,
      "citos": 4273,
      "ciona": 4274,
      "ciante": 4275,
      "ĠnotÃ³": 4276,
      "omÃ³": 4277,
      "Ġbio": 4278,
      "Ġbru": 4279,
      "Ġbici": 4280,
      "Ġbuta": 4281,
      "Ġbella": 4282,
      "abri": 4283,
      "abil": 4284,
      "abela": 4285,
      "abinero": 4286,
      "aball": 4287,
      "Ġcondu": 4288,
      "Ġconcur": 4289,
      "tofa": 4290,
      "chu": 4291,
      "chÃ³n": 4292,
      "amas": 4293,
      "rieta": 4294,
      "Ġlej": 4295,
      "ĠleÃŃdo": 4296,
      "Ġsuena": 4297,
      "Ġsuizo": 4298,
      "Ġsuminis": 4299,
      "Ġsuizos": 4300,
      "Ġflo": 4301,
      "Ġfir": 4302,
      "Ġfur": 4303,
      "Ġfina": 4304,
      "Ġfunda": 4305,
      "Ġfritos": 4306,
      "Ġalba": 4307,
      "Ġalias": 4308,
      "Ġalambre": 4309,
      "ĠEse": 4310,
      "ĠEDI": 4311,
      "Ġmuere": 4312,
      "isla": 4313,
      "ister": 4314,
      "lemente": 4315,
      "leaÃ±os": 4316,
      "ĠLol": 4317,
      "uste": 4318,
      "titu": 4319,
      "rope": 4320,
      "Ġmez": 4321,
      "Ġmetido": 4322,
      "dicos": 4323,
      "dieron": 4324,
      "deo": 4325,
      "lada": 4326,
      "Ġop": 4327,
      "Ġobe": 4328,
      "Ġoiga": 4329,
      "Ġobed": 4330,
      "ĠĠĠĠ": 4331,
      "ĠMu": 4332,
      "ĠMire": 4333,
      "ĠMientras": 4334,
      "Ġcomen": 4335,
      "Ġcomun": 4336,
      "Ġcomido": 4337,
      "ĠcomÃºn": 4338,
      "Ġportales": 4339,
      "Ġhaz": 4340,
      "Ġhaces": 4341,
      "ĠDel": 4342,
      "ĠDiputaciÃ³n": 4343,
      "Ġcur": 4344,
      "Ġcurar": 4345,
      "Ġcuern": 4346,
      "Ġcueros": 4347,
      "Ġcuesta": 4348,
      "ĠcuestiÃ³n": 4349,
      "Ġdelgado": 4350,
      "ĠAgus": 4351,
      "ĠPre": 4352,
      "ĠPien": 4353,
      "ĠPrim": 4354,
      "ĠPoco": 4355,
      "bados": 4356,
      "Ġdiga": 4357,
      "Ġdicha": 4358,
      "Ġdivier": 4359,
      "ĠRi": 4360,
      "ĠRabela": 4361,
      "ĠCal": 4362,
      "Ġdesin": 4363,
      "Ġdesper": 4364,
      "Ġdescom": 4365,
      "Ġdeslom": 4366,
      "Ġdesierto": 4367,
      "ĠSus": 4368,
      "ĠSol": 4369,
      "vido": 4370,
      "Ãºcar": 4371,
      "resura": 4372,
      "Ġreo": 4373,
      "Ġretor": 4374,
      "Ġrepi": 4375,
      "Ġreales": 4376,
      "Ġrezar": 4377,
      "Ġrebos": 4378,
      "Ġrecados": 4379,
      "Ġuso": 4380,
      "guillo": 4381,
      "gueras": 4382,
      "cuatro": 4383,
      "cuencia": 4384,
      "ĠmÃ¡scar": 4385,
      "Ġhablas": 4386,
      "ĠhabrÃŃa": 4387,
      "imas": 4388,
      "imÃ©n": 4389,
      "Ġcasarse": 4390,
      "tru": 4391,
      "trena": 4392,
      "dados": 4393,
      "Ġviva": 4394,
      "Ġviaje": 4395,
      "Ġeu": 4396,
      "Ġeter": 4397,
      "ĠVamos": 4398,
      "ĠVenus": 4399,
      "Ġverso": 4400,
      "Ġsociedad": 4401,
      "ĠsofÃ¡": 4402,
      "...,": 4403,
      "...?": 4404,
      "Ġinde": 4405,
      "Ġincon": 4406,
      "Ġincier": 4407,
      "uesta": 4408,
      "icen": 4409,
      "Ġllora": 4410,
      "Ġpasillo": 4411,
      "Ġpastel": 4412,
      "ultÃ¡n": 4413,
      "Ġcalefa": 4414,
      "uelas": 4415,
      "Ġano": 4416,
      "ĠanÃŃs": 4417,
      "Ġandan": 4418,
      "Ġandando": 4419,
      "Ġanterior": 4420,
      "Ġseres": 4421,
      "Ġhombr": 4422,
      "cerle": 4423,
      "Ġllevo": 4424,
      "Ġllegado": 4425,
      "Ġcarnes": 4426,
      "Ġcarabinero": 4427,
      "Ġmande": 4428,
      "ĠcayÃ³": 4429,
      "Ġcapital": 4430,
      "Ġcatorce": 4431,
      "tores": 4432,
      "torio": 4433,
      "Ġcoch": 4434,
      "Ġcope": 4435,
      "Ġcojera": 4436,
      "tuvo": 4437,
      "turÃ³n": 4438,
      "tara": 4439,
      "Ġvah": 4440,
      "Ġvagos": 4441,
      "Ġvagamente": 4442,
      "Ġvayamos": 4443,
      "Ã¡ndez": 4444,
      "Ġpais": 4445,
      "Ġpatas": 4446,
      "ĠpaÃŃs": 4447,
      "Ġpaciencia": 4448,
      "Ġpaquete": 4449,
      "Ġparecido": 4450,
      "Ġcamp": 4451,
      "ĠcambiÃ³": 4452,
      "Ġperras": 4453,
      "Ġperros": 4454,
      "Ġperfec": 4455,
      "Ġperple": 4456,
      "tano": 4457,
      "Ġtraj": 4458,
      "Ġtraje": 4459,
      "Ġtradu": 4460,
      "Ġamables": 4461,
      "vejero": 4462,
      "Ġsaluda": 4463,
      "ĠTa": 4464,
      "ĠTu": 4465,
      "ĠTÃº": 4466,
      "Ġrin": 4467,
      "Ġrum": 4468,
      "Ġrela": 4469,
      "Ġrose": 4470,
      "gundo": 4471,
      "ĠFil": 4472,
      "ĠFlor": 4473,
      "ĠFacultad": 4474,
      "Ġllame": 4475,
      "Ġllames": 4476,
      "Ġjusti": 4477,
      "Ġtiro": 4478,
      "urro": 4479,
      "urora": 4480,
      "Ġarde": 4481,
      "Ġmarques": 4482,
      "Ġmarip": 4483,
      "Ġsuspir": 4484,
      "Ġasus": 4485,
      "Ġasist": 4486,
      "Ġasunto": 4487,
      "Ġmaestro": 4488,
      "ĠEntre": 4489,
      "ĠEntrena": 4490,
      "Ġiban": 4491,
      "Ġign": 4492,
      "Ġmismos": 4493,
      "Ġmismas": 4494,
      "Ġmisionero": 4495,
      "Ġprecio": 4496,
      "Ġpreten": 4497,
      "garto": 4498,
      "garse": 4499,
      "inato": 4500,
      "Ġcose": 4501,
      "umersin": 4502,
      "Ġapun": 4503,
      "Ġaprieta": 4504,
      "Ġapresura": 4505,
      "Ġvuela": 4506,
      "Ġvuelva": 4507,
      "Ġabun": 4508,
      "Ġabra": 4509,
      "ĠAlcal": 4510,
      "Ġhacerla": 4511,
      "Ġhacerse": 4512,
      "bern": 4513,
      "berculos": 4514,
      "Ġvengo": 4515,
      "Ġvenia": 4516,
      "ĠGoy": 4517,
      "ĠGimÃ©n": 4518,
      "ĠGumersin": 4519,
      "Ġmiraba": 4520,
      "ĠpensÃ©": 4521,
      "Ġcompos": 4522,
      "ĠcompÃ¡s": 4523,
      "Ġcomplica": 4524,
      "ĠOvejero": 4525,
      "igame": 4526,
      "Ġtantas": 4527,
      "Ġtantos": 4528,
      "ĠespÃŃritu": 4529,
      "ĠcinturÃ³n": 4530,
      "ĠSegundo": 4531,
      "ĠBus": 4532,
      "ĠBur": 4533,
      "ĠLecl": 4534,
      "brado": 4535,
      "tÃ³rica": 4536,
      "ĠNada": 4537,
      "ĠNOTA": 4538,
      "Ġempiez": 4539,
      "Ġtuve": 4540,
      "yecto": 4541,
      "Ġsaco": 4542,
      "Ġsacas": 4543,
      "Ġmuchachita": 4544,
      "Ġcorno": 4545,
      "Ġboda": 4546,
      "Siempre": 4547,
      "Ġponen": 4548,
      "Ġpongo": 4549,
      "Ġradio": 4550,
      "ĠraÃŃda": 4551,
      "ĠCafÃ©s": 4552,
      "ubÃŃn": 4553,
      "Ġdisim": 4554,
      "ĠquerrÃ¡": 4555,
      "ĠquerubÃŃn": 4556,
      "ĠnaciÃ³": 4557,
      "Ġmedias": 4558,
      "ĠIn": 4559,
      "Ġore": 4560,
      "Ġorla": 4561,
      "jeando": 4562,
      "Ġrojos": 4563,
      "Ġduques": 4564,
      "Ġbarra": 4565,
      "Ġbarba": 4566,
      "gracia": 4567,
      "pidez": 4568,
      "pieza": 4569,
      "Ġdejando": 4570,
      "Ġdejado": 4571,
      "Ġdejaba": 4572,
      "Ġtarda": 4573,
      "Ġtarje": 4574,
      "ĠguardÃ³": 4575,
      "isiÃ³n": 4576,
      "Ġgracia": 4577,
      "Ġgracioso": 4578,
      "Ġcogen": 4579,
      "Ġcogiendo": 4580,
      "Ġcogiditos": 4581,
      "Ġverdaderamente": 4582,
      "Ġllevado": 4583,
      "ĠdarÃ©": 4584,
      "Ġentiendo": 4585,
      "Ġgrano": 4586,
      "riste": 4587,
      "Ġmoj": 4588,
      "Ġmodo": 4589,
      "Ġmodes": 4590,
      "Ġluto": 4591,
      "Ġlujo": 4592,
      "Ġlugar": 4593,
      "Ġtome": 4594,
      "ĠestarÃ¡": 4595,
      "ĠfaltÃ³": 4596,
      "Ġpresenta": 4597,
      "Ġpresencia": 4598,
      "Ġtazas": 4599,
      "Ġpude": 4600,
      "Ġpuchero": 4601,
      "Ġfuerzas": 4602,
      "Ġcuartel": 4603,
      "Ġrepon": 4604,
      "Ġrepugn": 4605,
      "Ġricos": 4606,
      "Ġbollo": 4607,
      "Ġinspira": 4608,
      "Ġcerrar": 4609,
      "Ġcertificado": 4610,
      "ĠsoltÃ³": 4611,
      "quiÃ©n": 4612,
      "Ġconserv": 4613,
      "Ġconsigue": 4614,
      "Ġgatos": 4615,
      "Ġmuertos": 4616,
      "ĠtÃŃtulo": 4617,
      "Ġaquellos": 4618,
      "ducho": 4619,
      "ĠAntofa": 4620,
      "Ġfuma": 4621,
      "ĠcafÃ©s": 4622,
      "Ġerror": 4623,
      "Ġandamos": 4624,
      "ficiales": 4625,
      "Ġabriguillo": 4626,
      "Ġcielo": 4627,
      "Ġlargas": 4628,
      "Ġconocer": 4629,
      "ĠconociÃ³": 4630,
      "Ġconocida": 4631,
      "cinco": 4632,
      "Ġdob": 4633,
      "Ġdocu": 4634,
      "ĠbuscÃ³": 4635,
      "Ġbuscando": 4636,
      "ĠpequeÃ±a": 4637,
      "Ġcabal": 4638,
      "Ġcabrito": 4639,
      "Ġjovencito": 4640,
      "Ġpelliz": 4641,
      "Ġtenerlos": 4642,
      "clam": 4643,
      "ĠDetrÃ¡s": 4644,
      "Ġcomerciante": 4645,
      "CuÃ¡ndo": 4646,
      "CuÃ¡l": 4647,
      "Ġpelota": 4648,
      "Ġtristes": 4649,
      "Ġcuerno": 4650,
      "Ġmarchan": 4651,
      "ÃŃsima": 4652,
      "Ġbea": 4653,
      "Ġbecer": 4654,
      "Ġbebida": 4655,
      "ĠconfesiÃ³n": 4656,
      "ĠSobr": 4657,
      "Ġadelante": 4658,
      "Ġnuestra": 4659,
      "Ġnuestras": 4660,
      "Ã¡rs": 4661,
      "Ġviolencia": 4662,
      "Ġinteresa": 4663,
      "Ġjuego": 4664,
      "Ġmorib": 4665,
      "Ġcolorado": 4666,
      "ĠazÃºcar": 4667,
      "tadora": 4668,
      "ĠolÃŃa": 4669,
      "Ġruin": 4670,
      "Ġpitillos": 4671,
      "ĠharÃŃa": 4672,
      "ĠÃºltimos": 4673,
      "icilio": 4674,
      "Ġlimpio": 4675,
      "Ġhumor": 4676,
      "Ġaparta": 4677,
      "Ġaparte": 4678,
      "Ġaparece": 4679,
      "Ġborde": 4680,
      "Ġfatal": 4681,
      "Ġmirarla": 4682,
      "Ġpreguntar": 4683,
      "Ġveinticinco": 4684,
      "Ġdebil": 4685,
      "ĠReal": 4686,
      "sivo": 4687,
      "Ġcruzar": 4688,
      "Ġpunta": 4689,
      "Ġtiran": 4690,
      "Ġprincipios": 4691,
      "Ġtorpe": 4692,
      "Ġtemblar": 4693,
      "Ġsientan": 4694,
      "Ġtertul": 4695,
      "Ġvarias": 4696,
      "Ġculto": 4697,
      "Ġrevista": 4698,
      "ĠrevÃ©s": 4699,
      "ĠMatildita": 4700,
      "Ġentiendes": 4701,
      "ctiva": 4702,
      "Ġgordo": 4703,
      "Ġhablaba": 4704,
      "Ġacostar": 4705,
      "Ġacabar": 4706,
      "Ġdomicilio": 4707,
      "Ġdulz": 4708,
      "Ġalegre": 4709,
      "Ġalegro": 4710,
      "Ġpermite": 4711,
      "ĠfotografÃŃa": 4712,
      "Ġayer": 4713,
      "Ġayudar": 4714,
      "Ġocurren": 4715,
      "Ġprofes": 4716,
      "Ġprofun": 4717,
      "Ġplanch": 4718,
      "Ġtierno": 4719,
      "Ġenterarse": 4720,
      "Ġbonita": 4721,
      "Ġdescuide": 4722,
      "Ġchinito": 4723,
      "ĠvendÃŃa": 4724,
      "ĠvendrÃŃa": 4725,
      "Ġbajando": 4726,
      "Ġguape": 4727,
      "Ġexplico": 4728,
      "ĠpolÃŃtico": 4729,
      "Ġnecesario": 4730,
      "Ġzur": 4731,
      "ĠtonterÃŃas": 4732,
      "Ġgobern": 4733,
      "ĠcuÃ±ada": 4734,
      "Ġcapaces": 4735,
      "Ġprocuraba": 4736,
      "Ġnaturalmente": 4737,
      "Ġpersonajes": 4738,
      "dinar": 4739,
      "Ġpintado": 4740,
      "ortun": 4741,
      "Ġsuavidad": 4742,
      "Ġcuelga": 4743,
      "ĠrÃŃen": 4744,
      "Ġabierta": 4745,
      "Ġcorriendo": 4746,
      "Ġfijamente": 4747,
      "ĠQuisiera": 4748,
      "Ġhoja": 4749,
      "ĠcompaÃ±eros": 4750,
      "Ġestudiante": 4751,
      "ĠimaginaciÃ³n": 4752,
      "Ġtropieza": 4753,
      "Ġescupe": 4754,
      "Ġobse": 4755,
      "Ġojitos": 4756,
      "ĠParÃŃs": 4757,
      "Ġestreme": 4758,
      "Ãºblica": 4759,
      "Ġjuntos": 4760,
      "Ġmisterio": 4761,
      "Ġcansada": 4762,
      "SeÃ±ora": 4763,
      "SeÃ±orita": 4764,
      "ĠilusiÃ³n": 4765,
      "ensar": 4766,
      "Ġcejas": 4767,
      "Ġmelena": 4768,
      "Ġmelenudo": 4769,
      "Ġentorna": 4770,
      "Ġdescanse": 4771,
      "Ġrecordar": 4772,
      "Ġsobrinas": 4773,
      "Ġchiquilla": 4774,
      "ĠdistraÃŃda": 4775,
      "CuÃ¡ntas": 4776,
      "Ġencantado": 4777,
      "Ġhermosos": 4778,
      "Donde": 4779,
      "Ġdorado": 4780,
      "Ġdorados": 4781,
      "Ġbeben": 4782,
      "Ġrasca": 4783,
      "Ġcompletamente": 4784,
      "DÃ©jala": 4785,
      "Hasta": 4786,
      "Ġconfianza": 4787,
      "rirlo": 4788,
      "Ġocupa": 4789,
      "ĠCorre": 4790,
      "ĠreuniÃ³n": 4791,
      "Ġseriedad": 4792,
      "ĠBragado": 4793,
      "ĠBraulio": 4794,
      "Ġorgullo": 4795,
      "lomÃ©": 4796,
      "Ġllave": 4797,
      "Ġminu": 4798,
      "ĠminÃºs": 4799,
      "ĠmolÃ©culas": 4800,
      "Ġhierro": 4801,
      "Ġfarol": 4802,
      "Ġfrances": 4803,
      "Ġfrases": 4804,
      "Ġaleja": 4805,
      "ĠcumpleaÃ±os": 4806,
      "Ġdespacio": 4807,
      "ĠSalaman": 4808,
      "Ġinmensa": 4809,
      "Ġtercero": 4810,
      "Ġtercera": 4811,
      "Chico": 4812,
      "cleta": 4813,
      "ĠlÃŃos": 4814,
      "Ġcristales": 4815,
      "Ġmentir": 4816,
      "Ġescote": 4817,
      "Ġbreve": 4818,
      "ĠconseguÃŃa": 4819,
      "Ġalumbra": 4820,
      "Ġdesayuna": 4821,
      "Ġsolemne": 4822,
      "Ġintelectu": 4823,
      "Ġacaricia": 4824,
      "ĠcompasiÃ³n": 4825,
      "Ġcomplaciente": 4826,
      "ĠautomÃ³": 4827,
      "Ġdesapare": 4828,
      "ĠexpresiÃ³n": 4829,
      "Ġvuestra": 4830,
      "Ġenvidia": 4831,
      "Ġsuplicante": 4832,
      "ĠfÃ¡cil": 4833,
      "logÃŃa": 4834,
      "ĠAux": 4835,
      "ĠRubio": 4836,
      "Ġrecono": 4837,
      "Ġanuncios": 4838,
      "Ġcobista": 4839,
      "Ġasesinato": 4840,
      "Ġapures": 4841,
      "ĠAlfonsito": 4842,
      "Ġbautizar": 4843,
      "Ġcomprender": 4844,
      "ĠHasta": 4845,
      "Ġimposible": 4846,
      "Ġcorresponder": 4847,
      "Ġmodales": 4848,
      "Ġmoderno": 4849,
      "ĠtÃŃmida": 4850,
      "fectivamente": 4851,
      "Ġdocenas": 4852,
      "ĠpelÃŃculas": 4853,
      "Ġtranquilos": 4854,
      "ĠSocorrito": 4855,
      "ĠBartolomÃ©": 4856,
      "Ġparticulares": 4857,
      "ĠpeluquerÃŃa": 4858,
      "ivers": 4859,
      "Ġcruel": 4860,
      "Ġhuelen": 4861,
      "ĠespaÃ±ol": 4862,
      "Ġenamor": 4863,
      "Ġblusa": 4864,
      "Ġbrasero": 4865,
      "Ġconcepto": 4866,
      "Ġfortuna": 4867,
      "Ġsignifica": 4868,
      "Ġestraper": 4869,
      "Ġhabitu": 4870,
      "Ġvivimos": 4871,
      "Ġcalamidades": 4872,
      "Ġprecipita": 4873,
      "Ġespantoso": 4874,
      "Ġdisculpa": 4875,
      "Ġreparte": 4876,
      "Ġinstinto": 4877,
      "Ġmonser": 4878,
      "ĠimbÃ©cil": 4879,
      "ĠRepÃºblica": 4880,
      "Ġtriunfador": 4881,
      "Descuide": 4882,
      "Ġbufanda": 4883,
      "ĠBarcelona": 4884,
      "Ġempaquetadora": 4885,
      "ĠdroguerÃŃa": 4886,
      "Petrita": 4887,
      "Ġsistema": 4888,
      "Ġsardinas": 4889,
      "Ġciega": 4890,
      "ĠmÃ¡quina": 4891,
      "ĠmÃ¡rm": 4892,
      "Ġvulgar": 4893,
      "Ġbicicleta": 4894,
      "Ġbutaca": 4895,
      "ĠEDICIÃĵN": 4896,
      "ĠLolita": 4897,
      "ĠAgustÃŃn": 4898,
      "ĠRabelais": 4899,
      "Ġdespertar": 4900,
      "ĠcalefacciÃ³n": 4901,
      "ĠAlcalÃ¡": 4902,
      "ĠGoya": 4903,
      "ĠGimÃ©nez": 4904,
      "ĠGumersindo": 4905,
      "Ġcomplicaciones": 4906,
      "ĠLeclerc": 4907,
      "Ġempiezan": 4908,
      "ĠinspiraciÃ³n": 4909,
      "ĠAntofagasta": 4910,
      "Ġtertulia": 4911,
      "ĠSalamanca": 4912,
      ".,": 4913,
      "Ar": 4914,
      "Aurora": 4915,
      "Ba": 4916,
      "Bo": 4917,
      "Bes": 4918,
      "Ca": 4919,
      "CÃ¡": 4920,
      "CÃ¡l": 4921,
      "Dios": 4922,
      "Destino": 4923,
      "Dame": 4924,
      "ER": 4925,
      "Huele": 4926,
      "Igual": 4927,
      "Mientras": 4928,
      "Nosotros": 4929,
      "Oj": 4930,
      "Re": 4931,
      "Ser": 4932,
      "Son": 4933,
      "Sois": 4934,
      "TrÃ¡": 4935,
      "Tienes": 4936,
      "Ve": 4937,
      "ahora": 4938,
      "bien": 4939,
      "bita": 4940,
      "bella": 4941,
      "cun": 4942,
      "cta": 4943,
      "cera": 4944,
      "cÃ¡n": 4945,
      "cemos": 4946,
      "cÃ¡ndose": 4947,
      "cÃŃo": 4948,
      "dÃ©n": 4949,
      "dur": 4950,
      "dona": 4951,
      "dante": 4952,
      "drÃ¡": 4953,
      "ear": 4954,
      "eda": 4955,
      "eva": 4956,
      "fes": 4957,
      "far": 4958,
      "fil": 4959,
      "ficar": 4960,
      "gr": 4961,
      "ger": 4962,
      "gal": 4963,
      "gÃ¡n": 4964,
      "gale": 4965,
      "gdal": 4966,
      "his": 4967,
      "hÃŃn": 4968,
      "if": 4969,
      "ice": 4970,
      "ive": 4971,
      "iese": 4972,
      "iciÃ³": 4973,
      "idente": 4974,
      "itis": 4975,
      "iestra": 4976,
      "ju": 4977,
      "jez": 4978,
      "lÃŃ": 4979,
      "lÃ¡s": 4980,
      "losa": 4981,
      "litos": 4982,
      "luta": 4983,
      "lines": 4984,
      "mi": 4985,
      "mu": 4986,
      "mar": 4987,
      "mada": 4988,
      "muer": 4989,
      "mundo": 4990,
      "mientras": 4991,
      "mela": 4992,
      "meros": 4993,
      "nal": 4994,
      "nada": 4995,
      "ob": 4996,
      "oces": 4997,
      "pp": 4998,
      "pre": 4999,
      "pÃ¡": 5000,
      "pro": 5001,
      "pando": 5002,
      "pada": 5003,
      "pres": 5004,
      "pado": 5005,
      "pelo": 5006,
      "piendo": 5007,
      "pere": 5008,
      "pens": 5009,
      "rero": 5010,
      "rando": 5011,
      "rÃŃn": 5012,
      "rÃ©s": 5013,
      "siÃ³n": 5014,
      "soles": 5015,
      "stitu": 5016,
      "tÃ©n": 5017,
      "tler": 5018,
      "ua": 5019,
      "ure": 5020,
      "ual": 5021,
      "uciÃ³n": 5022,
      "udÃ³": 5023,
      "ujar": 5024,
      "uper": 5025,
      "uterÃŃa": 5026,
      "vel": 5027,
      "val": 5028,
      "vol": 5029,
      "vino": 5030,
      "vamos": 5031,
      "viso": 5032,
      "zque": 5033,
      "zarse": 5034,
      "zgado": 5035,
      "Ġ.\"": 5036,
      "Ġdra": 5037,
      "Ġdent": 5038,
      "ĠdÃ¡ndole": 5039,
      "Ġderro": 5040,
      "Ġlin": 5041,
      "ĠlÃŃa": 5042,
      "Ġlis": 5043,
      "ensa": 5044,
      "enzuela": 5045,
      "Ġsar": 5046,
      "Ġsana": 5047,
      "Ġsiento": 5048,
      "Ġsarg": 5049,
      "Ġsastre": 5050,
      "Ġces": 5051,
      "Ġcic": 5052,
      "ĠcÃ©n": 5053,
      "ĠcrÃ³n": 5054,
      "Ġciego": 5055,
      "estes": 5056,
      "Ġadi": 5057,
      "Ġatar": 5058,
      "Ġatro": 5059,
      "Ġacep": 5060,
      "Ġajadas": 5061,
      "Ġaires": 5062,
      "Ġaviso": 5063,
      "ĠpÃŃ": 5064,
      "Ġpris": 5065,
      "Ġpela": 5066,
      "osita": 5067,
      "ospe": 5068,
      "erse": 5069,
      "erva": 5070,
      "Ġdecia": 5071,
      "Ġdemos": 5072,
      "Ġdetal": 5073,
      "Ġdepen": 5074,
      "are": 5075,
      "arda": 5076,
      "arle": 5077,
      "quiera": 5078,
      "quella": 5079,
      "Ġmier": 5080,
      "aste": 5081,
      "Ġquisi": 5082,
      "Ġquite": 5083,
      "Ġquieta": 5084,
      "ond": 5085,
      "onos": 5086,
      "orro": 5087,
      "orquera": 5088,
      "Ġtio": 5089,
      "Ġtall": 5090,
      "Ġtron": 5091,
      "anim": 5092,
      "anidad": 5093,
      "Ġlame": 5094,
      "ell": 5095,
      "elÃ©ndez": 5096,
      "Ġnoso": 5097,
      "Ġnub": 5098,
      "dote": 5099,
      "dole": 5100,
      "ÃŃto": 5101,
      "ÃŃso": 5102,
      "ÃŃgale": 5103,
      "tate": 5104,
      "tame": 5105,
      "ĠhuÃ©s": 5106,
      "Ġhondo": 5107,
      "Ġhuelo": 5108,
      "Ġhall": 5109,
      "Ġhospital": 5110,
      "Ġsean": 5111,
      "Ġseda": 5112,
      "ĠsecÃ³": 5113,
      "ĠsecciÃ³n": 5114,
      "reo": 5115,
      "recis": 5116,
      "Ġescar": 5117,
      "ĠvÃŃ": 5118,
      "Ġvelo": 5119,
      "Ġviente": 5120,
      "Ã³l": 5121,
      "Ã³so": 5122,
      "Ã³sito": 5123,
      "Ġenca": 5124,
      "Ġensa": 5125,
      "Ġenve": 5126,
      "Ġenanos": 5127,
      "Ġentran": 5128,
      "Ġengor": 5129,
      "Ġentraron": 5130,
      "daca": 5131,
      "dalo": 5132,
      "davÃŃa": 5133,
      "temp": 5134,
      "rag": 5135,
      "rata": 5136,
      "inar": 5137,
      "inal": 5138,
      "into": 5139,
      "ingun": 5140,
      "inario": 5141,
      "inister": 5142,
      "Ã¡is": 5143,
      "Ã¡zque": 5144,
      "Ã±ez": 5145,
      "Ã©vo": 5146,
      "Ã©lla": 5147,
      "ciera": 5148,
      "cidos": 5149,
      "cicio": 5150,
      "cipl": 5151,
      "cimiento": 5152,
      "cimientos": 5153,
      "ciÃ©ndose": 5154,
      "Ġnotario": 5155,
      "Ġnotarios": 5156,
      "ald": 5157,
      "alÃ¡": 5158,
      "Ġbis": 5159,
      "Ġbue": 5160,
      "Ġbrin": 5161,
      "Ġbellos": 5162,
      "Ġbelle": 5163,
      "abÃ©": 5164,
      "abÃ³n": 5165,
      "Ġcone": 5166,
      "Ġconqu": 5167,
      "Ġcondi": 5168,
      "Ġconcl": 5169,
      "Ġcontando": 5170,
      "tocha": 5171,
      "chi": 5172,
      "chada": 5173,
      "chado": 5174,
      "amba": 5175,
      "amora": 5176,
      "ril": 5177,
      "rida": 5178,
      "ridad": 5179,
      "ridos": 5180,
      "rique": 5181,
      "ritas": 5182,
      "rieron": 5183,
      "rificio": 5184,
      "Ġsul": 5185,
      "Ġsup": 5186,
      "Ġsupo": 5187,
      "Ġsupl": 5188,
      "Ġsufi": 5189,
      "Ġsuper": 5190,
      "ĠfÃŃ": 5191,
      "Ġfol": 5192,
      "ĠfrÃŃ": 5193,
      "ĠfÃŃjate": 5194,
      "Ġfantas": 5195,
      "Ġalmor": 5196,
      "Ġalmuer": 5197,
      "ĠEulo": 5198,
      "ĠEfectivamente": 5199,
      "coge": 5200,
      "Ġlocos": 5201,
      "Ġgla": 5202,
      "Ġglo": 5203,
      "Ġgir": 5204,
      "Ġgira": 5205,
      "Ġgrillo": 5206,
      "Ġgener": 5207,
      "isem": 5208,
      "isten": 5209,
      "istir": 5210,
      "ĠLuego": 5211,
      "usos": 5212,
      "tig": 5213,
      "tias": 5214,
      "tija": 5215,
      "tiza": 5216,
      "titas": 5217,
      "titos": 5218,
      "timo": 5219,
      "tible": 5220,
      "tivos": 5221,
      "tivamente": 5222,
      "tificiales": 5223,
      "Ġmeten": 5224,
      "dica": 5225,
      "deante": 5226,
      "late": 5227,
      "Ġpartes": 5228,
      "Ġparsim": 5229,
      "Ġobr": 5230,
      "Ġobl": 5231,
      "Ġopaca": 5232,
      "ĠĠĠĠĠčĊ": 5233,
      "ĠMay": 5234,
      "ĠMelÃ©ndez": 5235,
      "ĠMinister": 5236,
      "Ġcoment": 5237,
      "Ġcomidas": 5238,
      "Ġportada": 5239,
      "Ġhagan": 5240,
      "ĠDire": 5241,
      "ĠDÃ©j": 5242,
      "ĠDiego": 5243,
      "Ġcub": 5244,
      "Ġcuece": 5245,
      "ĠsiÃ©n": 5246,
      "Ġsimpa": 5247,
      "Ġsiquiera": 5248,
      "goza": 5249,
      "lota": 5250,
      "ĠApo": 5251,
      "ĠAqui": 5252,
      "ĠAhÃŃ": 5253,
      "ĠAtocha": 5254,
      "cejo": 5255,
      "ĠPel": 5256,
      "ĠPab": 5257,
      "ĠPrado": 5258,
      "Ġestarse": 5259,
      "ĠestÃºp": 5260,
      "Ġestrope": 5261,
      "itaba": 5262,
      "ĠseÃ±oritos": 5263,
      "baciÃ³n": 5264,
      "Ġdij": 5265,
      "Ġdijer": 5266,
      "ĠdirÃ¡": 5267,
      "Ġdigas": 5268,
      "Ġdirig": 5269,
      "Ġdipu": 5270,
      "ĠpoÃ©": 5271,
      "Ġpoem": 5272,
      "ĠRom": 5273,
      "ĠRonda": 5274,
      "ĠCin": 5275,
      "ĠCort": 5276,
      "ĠCaball": 5277,
      "Ġdesco": 5278,
      "Ġdesma": 5279,
      "Ġdescos": 5280,
      "Ġdesanim": 5281,
      "ĠSil": 5282,
      "ĠSub": 5283,
      "ĠSard": 5284,
      "ĠSuena": 5285,
      "ĠSisem": 5286,
      "Ġparado": 5287,
      "Ġmimos": 5288,
      "Ġmimosa": 5289,
      "Ãºtil": 5290,
      "Ġrey": 5291,
      "Ġretra": 5292,
      "Ġreina": 5293,
      "Ġrecom": 5294,
      "Ġreac": 5295,
      "Ġrebel": 5296,
      "ĠLagarto": 5297,
      "guo": 5298,
      "gura": 5299,
      "gular": 5300,
      "cua": 5301,
      "cuda": 5302,
      "iles": 5303,
      "ilando": 5304,
      "Ġhable": 5305,
      "Ġhables": 5306,
      "ĠhabÃŃas": 5307,
      "ĠMari": 5308,
      "ĠMargar": 5309,
      "Ġcastel": 5310,
      "Ġcascada": 5311,
      "trando": 5312,
      "Ġviven": 5313,
      "Ġvivia": 5314,
      "Ġveter": 5315,
      "Ġvejez": 5316,
      "Ġecho": 5317,
      "Ġecon": 5318,
      "ĠVÃŃa": 5319,
      "ĠVay": 5320,
      "Ġnieto": 5321,
      "secre": 5322,
      "Ġverme": 5323,
      "Ġsota": 5324,
      "Ġsopl": 5325,
      "Ġsocial": 5326,
      "ĠestÃ¡te": 5327,
      "bito": 5328,
      "Ġinta": 5329,
      "Ġinvent": 5330,
      "Ġincomo": 5331,
      "Ġingles": 5332,
      "Ġintent": 5333,
      "ĠinÃºtil": 5334,
      "gate": 5335,
      "icÃ³": 5336,
      "ĠllÃ©": 5337,
      "Ġllanto": 5338,
      "Ġpasada": 5339,
      "Ġpasaron": 5340,
      "Ġtengamos": 5341,
      "ĠcallÃ³": 5342,
      "Ġcalendar": 5343,
      "uelve": 5344,
      "Ġandas": 5345,
      "Ġanivers": 5346,
      "Ġanestes": 5347,
      "oraciones": 5348,
      "Ġserenos": 5349,
      "ÃŃneas": 5350,
      "Ġteatro": 5351,
      "cerdote": 5352,
      "ĠJorquera": 5353,
      "Ġllegas": 5354,
      "Ġllegaba": 5355,
      "Ġcho": 5356,
      "Ġchoco": 5357,
      "Ġcartas": 5358,
      "Ġmandil": 5359,
      "Ġmangante": 5360,
      "Ġhilo": 5361,
      "Ġhicieron": 5362,
      "Ġcaen": 5363,
      "Ġcate": 5364,
      "ĠcaÃ±a": 5365,
      "Ġcaiga": 5366,
      "torcha": 5367,
      "Ġcodo": 5368,
      "Ġcoba": 5369,
      "Ġcoja": 5370,
      "Ġcobr": 5371,
      "Ġcopas": 5372,
      "Ġcojeando": 5373,
      "Ġvaga": 5374,
      "ĠvacÃŃa": 5375,
      "ĠvacÃŃ": 5376,
      "ĠvacÃŃo": 5377,
      "Ã¡ndalo": 5378,
      "Ġpagado": 5379,
      "Ġpatio": 5380,
      "Ġparecer": 5381,
      "Ġparejas": 5382,
      "Ġperdida": 5383,
      "Ġtrataba": 5384,
      "Ġtrage": 5385,
      "ĠtraiciÃ³n": 5386,
      "ĠamÃ©n": 5387,
      "Ġamane": 5388,
      "Ġsala": 5389,
      "Ġsalida": 5390,
      "Ġsaludar": 5391,
      "teras": 5392,
      "ternidad": 5393,
      "ĠTel": 5394,
      "ĠTampoco": 5395,
      "Ġdoscientos": 5396,
      "Ġron": 5397,
      "Ġrub": 5398,
      "ĠrÃŃo": 5399,
      "Ġrosas": 5400,
      "Ġronca": 5401,
      "ĠFu": 5402,
      "ĠFru": 5403,
      "Ġllamaban": 5404,
      "ĠllamÃ¡ndole": 5405,
      "trem": 5406,
      "tremo": 5407,
      "Ġjar": 5408,
      "Ġjur": 5409,
      "Ġjura": 5410,
      "Ġtitu": 5411,
      "Ġpuedes": 5412,
      "urel": 5413,
      "joso": 5414,
      "Ġargu": 5415,
      "Ġarran": 5416,
      "Ġarrim": 5417,
      "Ġartificiales": 5418,
      "ĠEstuvo": 5419,
      "Ġmare": 5420,
      "Ġmarca": 5421,
      "Ġmarica": 5422,
      "Ġmareo": 5423,
      "ĠacÃ¡": 5424,
      "ĠacciÃ³n": 5425,
      "Ġacabe": 5426,
      "Ġactitud": 5427,
      "Ġpica": 5428,
      "Ġpipp": 5429,
      "Ġasun": 5430,
      "Ġasco": 5431,
      "Ġascen": 5432,
      "Ġasiento": 5433,
      "Ġasquer": 5434,
      "Ġasalta": 5435,
      "Ġmato": 5436,
      "Ġpechos": 5437,
      "Ġpedido": 5438,
      "ĠpedÃŃa": 5439,
      "Ġpetaca": 5440,
      "ĠEncima": 5441,
      "ĠEngracia": 5442,
      "Ġahi": 5443,
      "media": 5444,
      "ĠaquÃ©lla": 5445,
      "Ġprecios": 5446,
      "Ġapos": 5447,
      "Ġapara": 5448,
      "Ġpropor": 5449,
      "Ġabuela": 5450,
      "rÃŃamos": 5451,
      "carse": 5452,
      "ĠÃ©po": 5453,
      "ĠÃ©sos": 5454,
      "ĠAlba": 5455,
      "ĠAlgÃºn": 5456,
      "Ġhacerte": 5457,
      "Ġmejilla": 5458,
      "Ġcrea": 5459,
      "ĠcreyÃ³": 5460,
      "Ġvena": 5461,
      "ĠGabri": 5462,
      "Ġbajar": 5463,
      "aragoza": 5464,
      "Ġcompon": 5465,
      "ĠOl": 5466,
      "ĠOn": 5467,
      "ĠHe": 5468,
      "Ġimpreci": 5469,
      "Ġimprecis": 5470,
      "Ġesposa": 5471,
      "Ġespabil": 5472,
      "Ġcintura": 5473,
      "icolÃ¡s": 5474,
      "ĠLeo": 5475,
      "bramos": 5476,
      "ĠNingun": 5477,
      "ĠNicolÃ¡s": 5478,
      "Ġexa": 5479,
      "Ġexiste": 5480,
      "Ġextiende": 5481,
      "Ġextremo": 5482,
      "cencias": 5483,
      "Ġempujar": 5484,
      "Ġtuviese": 5485,
      "Ġtuvieron": 5486,
      "Ġtuberculos": 5487,
      "Ġsacerdote": 5488,
      "Ġprom": 5489,
      "Ġprue": 5490,
      "Ġprender": 5491,
      "ĠmÃŃos": 5492,
      "Ġcorder": 5493,
      "Ġguste": 5494,
      "Ġresto": 5495,
      "ĠraquÃŃ": 5496,
      "Ġrazones": 5497,
      "ubl": 5498,
      "Ġdispar": 5499,
      "Ġdisplic": 5500,
      "Ġdiscipl": 5501,
      "Ġsabio": 5502,
      "Ġsabido": 5503,
      "ĠsabrÃ¡": 5504,
      "ĠsabÃ©is": 5505,
      "Ġescasa": 5506,
      "ĠescÃ¡ndalo": 5507,
      "Ġcabezas": 5508,
      "Ġcabecera": 5509,
      "Ġnacido": 5510,
      "Ġnacieron": 5511,
      "Ġmedicinas": 5512,
      "ĠIgna": 5513,
      "ĠJuliÃ¡n": 5514,
      "Ġroja": 5515,
      "Ġrobar": 5516,
      "Ġropero": 5517,
      "Ġdure": 5518,
      "ĠcolgÃ³": 5519,
      "Ġbares": 5520,
      "ĠMagdal": 5521,
      "raron": 5522,
      "Ġdejan": 5523,
      "Ġdejemos": 5524,
      "Ġdejaban": 5525,
      "Ġtarima": 5526,
      "Ġguardan": 5527,
      "Ġvolviendo": 5528,
      "Ġdecirte": 5529,
      "Ġentriste": 5530,
      "rista": 5531,
      "Ġmovi": 5532,
      "Ġmodelo": 5533,
      "ĠmohÃŃn": 5534,
      "Ġtrescientos": 5535,
      "Ġtienda": 5536,
      "Ġpalos": 5537,
      "Ġpalmas": 5538,
      "Ġtoman": 5539,
      "Ġtomando": 5540,
      "Ġhubo": 5541,
      "ĠestarÃ¡n": 5542,
      "Ġfaltan": 5543,
      "ĠUno": 5544,
      "ĠUnos": 5545,
      "Ġdurm": 5546,
      "Ġdurar": 5547,
      "Ġpresta": 5548,
      "Ġpresur": 5549,
      "Ġpresenti": 5550,
      "Ġhermosa": 5551,
      "Ġentrecejo": 5552,
      "Ġfing": 5553,
      "Ġfinos": 5554,
      "Ġfinada": 5555,
      "ĠFigueras": 5556,
      "Ġpuente": 5557,
      "Ġrepas": 5558,
      "Ġeches": 5559,
      "Ġechan": 5560,
      "Ġechaba": 5561,
      "ĠriÃ±": 5562,
      "cienda": 5563,
      "Ġbasura": 5564,
      "lorca": 5565,
      "Ġbollos": 5566,
      "Ġinsom": 5567,
      "Ġinsig": 5568,
      "Ġcerdo": 5569,
      "Ġ(Â¡": 5570,
      "Ġsoli": 5571,
      "Ġsolas": 5572,
      "quila": 5573,
      "quiosa": 5574,
      "igaciÃ³n": 5575,
      "ĠbesÃ©": 5576,
      "Ġmuertas": 5577,
      "ĠtÃŃos": 5578,
      "ĠtÃŃter": 5579,
      "Ġfiesta": 5580,
      "parte": 5581,
      "llate": 5582,
      "Ġenferm": 5583,
      "ĠAnde": 5584,
      "ĠAnduvo": 5585,
      "ĠsonrÃŃen": 5586,
      "Ġcierre": 5587,
      "Ġcierra": 5588,
      "Ġciertos": 5589,
      "Ġciertamente": 5590,
      "Ġfumo": 5591,
      "Ġfutura": 5592,
      "ĠNavar": 5593,
      "Ġcantan": 5594,
      "Ġestuvier": 5595,
      "Ġestupidez": 5596,
      "adoras": 5597,
      "illada": 5598,
      "Ġimportar": 5599,
      "gase": 5600,
      "ĠmirÃ¡ndose": 5601,
      "Ġescrito": 5602,
      "ĠlarÃ¡n": 5603,
      "Ġlargos": 5604,
      "Ġclien": 5605,
      "ĠclÃ¡s": 5606,
      "Ġpostre": 5607,
      "Ġpostura": 5608,
      "Ġpostiza": 5609,
      "Ġgolfe": 5610,
      "Ġgolfas": 5611,
      "Ġgolfos": 5612,
      "Ġprimeros": 5613,
      "Ġprimicias": 5614,
      "Ġconoces": 5615,
      "Ġconocido": 5616,
      "cinueve": 5617,
      "Ġlila": 5618,
      "Ġliter": 5619,
      "Ġbuscaba": 5620,
      "Ġhablarla": 5621,
      "Ġlevantando": 5622,
      "ĠpasarÃ©": 5623,
      "Ġpollo": 5624,
      "Ġnuevos": 5625,
      "Ġnuevas": 5626,
      "Ġcomercio": 5627,
      "ĠtranvÃŃa": 5628,
      "Ġcuerda": 5629,
      "Ġconfun": 5630,
      "ĠCongreso": 5631,
      "ĠSociedad": 5632,
      "Ġbocacal": 5633,
      "ĠarreglÃ³": 5634,
      "port": 5635,
      "Ġblancos": 5636,
      "Ġviolenta": 5637,
      "Ġviolentos": 5638,
      "Ġpasea": 5639,
      "Ġjug": 5640,
      "Ġjugando": 5641,
      "Ġjuvent": 5642,
      "Ġjuzgado": 5643,
      "Ġjuegos": 5644,
      "calip": 5645,
      "ĠdÃ©bil": 5646,
      "Ġderechas": 5647,
      "Ġplata": 5648,
      "Ġmonja": 5649,
      "Ġmonjas": 5650,
      "Ġmorales": 5651,
      "Ġregis": 5652,
      "Ġpensarlo": 5653,
      "Ġcolorada": 5654,
      "mpara": 5655,
      "Ġazor": 5656,
      "Ġencuen": 5657,
      "cionamiento": 5658,
      "Ġhaberse": 5659,
      "Ġdormido": 5660,
      "Ġpesa": 5661,
      "Ġsuelto": 5662,
      "Ġfoca": 5663,
      "Ġfotos": 5664,
      "Ġrubios": 5665,
      "Ġtristemente": 5666,
      "Ġmosca": 5667,
      "Ġdespierta": 5668,
      "ĠÃºltimas": 5669,
      "ĠcenÃ³": 5670,
      "Ġvisita": 5671,
      "ĠSans": 5672,
      "Ġchapa": 5673,
      "Ġbordado": 5674,
      "Ġmirarle": 5675,
      "Ġroman": 5676,
      "Ġromper": 5677,
      "ĠpreguntÃ³": 5678,
      "Ġpreguntaba": 5679,
      "ĠlÃ¡mpar": 5680,
      "ĠlÃ¡mpara": 5681,
      "Ġdebemos": 5682,
      "Ġflores": 5683,
      "ĠRey": 5684,
      "Ġandares": 5685,
      "siones": 5686,
      "triz": 5687,
      "Ġcruza": 5688,
      "estamento": 5689,
      "ĠmÃ©dicos": 5690,
      "Ġcontestar": 5691,
      "dirse": 5692,
      "Ġatrevido": 5693,
      "Ġnovel": 5694,
      "Ġmeterme": 5695,
      "Ġmeternos": 5696,
      "Ġpeores": 5697,
      "Ġahorrar": 5698,
      "Ġahorrando": 5699,
      "Ġsentaron": 5700,
      "ĠtritÃ³n": 5701,
      "ĠleyÃ³": 5702,
      "Ġculpa": 5703,
      "Ġrevol": 5704,
      "Ġcomprarse": 5705,
      "mentaciÃ³n": 5706,
      "Ġsorpres": 5707,
      "Ġsortija": 5708,
      "Ġbancos": 5709,
      "Ġrecibi": 5710,
      "Ġlloraba": 5711,
      "Ġacostado": 5712,
      "turalmente": 5713,
      "Ġolvidar": 5714,
      "Ġolvides": 5715,
      "Ġdulces": 5716,
      "ĠdecÃŃan": 5717,
      "Ġdesapren": 5718,
      "Ġdesagrada": 5719,
      "Ġdesnu": 5720,
      "Ġapoyada": 5721,
      "Ġrespeta": 5722,
      "Ġdejarla": 5723,
      "Ġayuda": 5724,
      "dillos": 5725,
      "Ġocurrido": 5726,
      "Ġprofunda": 5727,
      "varrÃŃa": 5728,
      "Ġilumin": 5729,
      "Ġligeramente": 5730,
      "Ġtiernos": 5731,
      "ĠescapÃ³": 5732,
      "Ġenteras": 5733,
      "Ġbronca": 5734,
      "Ġbondad": 5735,
      "ĠganÃ³": 5736,
      "Ġganando": 5737,
      "Ġganado": 5738,
      "Ġdescub": 5739,
      "Ġchinitos": 5740,
      "Ġguapas": 5741,
      "ĠÃīse": 5742,
      "Ġgozo": 5743,
      "Ġdiecinueve": 5744,
      "ĠsonreÃŃa": 5745,
      "ĠexprÃ©s": 5746,
      "Ġzapatillas": 5747,
      "tienes": 5748,
      "Ġdedica": 5749,
      "Ġdedicaba": 5750,
      "Ġelegantes": 5751,
      "Ġsirven": 5752,
      "ceptible": 5753,
      "ĠSonsoles": 5754,
      "Ġcamisa": 5755,
      "ĠartÃŃ": 5756,
      "Ġabiertos": 5757,
      "Ġcorrientes": 5758,
      "Ġfijado": 5759,
      "Ġfijador": 5760,
      "Ġtrabajador": 5761,
      "Ġpreocupes": 5762,
      "MamÃ¡": 5763,
      "Ġsencillo": 5764,
      "ĠsensaciÃ³n": 5765,
      "Ġclases": 5766,
      "Ġtose": 5767,
      "Ġhogar": 5768,
      "Ġhojas": 5769,
      "Ġentendido": 5770,
      "ĠentrarÃ¡": 5771,
      "ĠcompaÃ±ero": 5772,
      "ĠcompaÃ±era": 5773,
      "Ġdeseo": 5774,
      "Ġvirtu": 5775,
      "Ġsolapa": 5776,
      "ĠtendrÃ¡": 5777,
      "ĠtendrÃŃa": 5778,
      "ĠtendrÃ¡n": 5779,
      "ĠTrini": 5780,
      "Ġrelu": 5781,
      "Ġmiseria": 5782,
      "Ġmiserables": 5783,
      "ĠvolverÃ©": 5784,
      "Ġbuscarla": 5785,
      "Ġsombrer": 5786,
      "Ġdespreci": 5787,
      "Ġimagin": 5788,
      "Ġdesgraciada": 5789,
      "Ġduermen": 5790,
      "Ġpuls": 5791,
      "Ġpulso": 5792,
      "ĠdeberÃŃan": 5793,
      "quilib": 5794,
      "Ġtrozo": 5795,
      "Ġbigotu": 5796,
      "Ġgritos": 5797,
      "Ġgritan": 5798,
      "Ġobs": 5799,
      "Ġobras": 5800,
      "Ġdifunto": 5801,
      "ĠCastilla": 5802,
      "Ġhijito": 5803,
      "Ġjuntas": 5804,
      "ĠaprendiÃ³": 5805,
      "ĠpropÃ³sito": 5806,
      "Ġresulta": 5807,
      "Ġcansado": 5808,
      "Ġmorirme": 5809,
      "ĠpreocupaciÃ³n": 5810,
      "Ġgrueso": 5811,
      "ĠÃĵ": 5812,
      "Ġjadeante": 5813,
      "Ġpiensas": 5814,
      "Ġdefen": 5815,
      "ĠquitÃ³": 5816,
      "Ġnarices": 5817,
      "Ġhonesto": 5818,
      "Ġcontraria": 5819,
      "Ġmuebles": 5820,
      "ĠChur": 5821,
      "ĠChina": 5822,
      "Ġcoloca": 5823,
      "Ġcolocar": 5824,
      "Ġpropietario": 5825,
      "ĠBernabÃ©": 5826,
      "Ġpresentaron": 5827,
      "Ġlevantara": 5828,
      "CuÃ¡nto": 5829,
      "Ġhumildad": 5830,
      "Ġhumildes": 5831,
      "Ġcomprome": 5832,
      "Ġpantalones": 5833,
      "posiciÃ³n": 5834,
      "Ġcircula": 5835,
      "ĠapagÃ³": 5836,
      "quieres": 5837,
      "Ġbebiendo": 5838,
      "ĠsueÃ±os": 5839,
      "ĠfilÃ³so": 5840,
      "ĠfrunciÃ³": 5841,
      "Ġejemplar": 5842,
      "Ġcarcajada": 5843,
      "ĠSeguridad": 5844,
      "ermint": 5845,
      "fectante": 5846,
      "Ġencontraba": 5847,
      "AhÃŃ": 5848,
      "Padilla": 5849,
      "actamente": 5850,
      "Ġwhis": 5851,
      "Ġafortun": 5852,
      "Ġaseguro": 5853,
      "Ġaseguraba": 5854,
      "Ġtumba": 5855,
      "elloso": 5856,
      "Ġhubi": 5857,
      "Ġflaco": 5858,
      "Ġofrecido": 5859,
      "ĠMallorca": 5860,
      "Ġcumplido": 5861,
      "ĠPalma": 5862,
      "ĠPalenzuela": 5863,
      "Ġreticencias": 5864,
      "Ġsobrar": 5865,
      "Ġrendida": 5866,
      "ĠarmÃ³": 5867,
      "Estamos": 5868,
      "Ġprecisa": 5869,
      "Ġpreparando": 5870,
      "Ġpreparado": 5871,
      "Ġabstra": 5872,
      "ĠAlgunos": 5873,
      "Ġespalda": 5874,
      "Ġbotella": 5875,
      "Ġbotellas": 5876,
      "Ġbotellines": 5877,
      "Ġdiscurre": 5878,
      "Ġnegocios": 5879,
      "Ġequivocado": 5880,
      "Ġbrillantes": 5881,
      "pÃ³sito": 5882,
      "ĠZamora": 5883,
      "ĠZaragoza": 5884,
      "Ġllaves": 5885,
      "Ġacuesta": 5886,
      "Ġsemana": 5887,
      "ĠenseÃ±ar": 5888,
      "ĠfrancÃ©s": 5889,
      "Ġfrase": 5890,
      "Ġgalante": 5891,
      "Ġcumpla": 5892,
      "ĠCivil": 5893,
      "Ġeducada": 5894,
      "ĠeducaciÃ³n": 5895,
      "Ġindifer": 5896,
      "ĠintenciÃ³n": 5897,
      "Ġinmenso": 5898,
      "Ġdiscreta": 5899,
      "Ġrodeada": 5900,
      "Ġrodeado": 5901,
      "Ġoscuro": 5902,
      "Ġoscuras": 5903,
      "ĠrespirÃ³": 5904,
      "Ġdomingo": 5905,
      "Ġagradecido": 5906,
      "Ġagradecimiento": 5907,
      "ĠacompaÃ±aba": 5908,
      "ĠemociÃ³n": 5909,
      "Ġemocionada": 5910,
      "ctuosa": 5911,
      "ĠsoÃ±ador": 5912,
      "ĠsoÃ±adores": 5913,
      "ĠtrÃ¡eme": 5914,
      "Ġhelado": 5915,
      "ĠengaÃ±": 5916,
      "ĠExuper": 5917,
      "Ġdespide": 5918,
      "Ġrepetir": 5919,
      "Ġreflejo": 5920,
      "Ġevitar": 5921,
      "Ġevidente": 5922,
      "Ġejercer": 5923,
      "Ġejercicio": 5924,
      "Ġsolemnidad": 5925,
      "Ġintelig": 5926,
      "Ġllenas": 5927,
      "Ġarrastrando": 5928,
      "ĠacariciÃ³": 5929,
      "Ġpegaron": 5930,
      "Ġaprove": 5931,
      "ĠaprobaciÃ³n": 5932,
      "Ġcompases": 5933,
      "ĠHitler": 5934,
      "Ġdisgusto": 5935,
      "Ġfiguraba": 5936,
      "Ġconformaba": 5937,
      "ĠrespondiÃ³": 5938,
      "Ġresponder": 5939,
      "Ġtemblaba": 5940,
      "Ġbandeja": 5941,
      "Ġbandejas": 5942,
      "Ġmadruga": 5943,
      "Perdona": 5944,
      "Ġsosiego": 5945,
      "Ġcele": 5946,
      "Ġagarro": 5947,
      "ĠmasÃ³n": 5948,
      "Ġnudillos": 5949,
      "Ġconsecu": 5950,
      "ĠcontribuciÃ³n": 5951,
      "Ġfrecuencia": 5952,
      "Ġgemel": 5953,
      "Ġmuslos": 5954,
      "ĠocasiÃ³n": 5955,
      "Ġocasiones": 5956,
      "ĠdivÃ¡n": 5957,
      "Ġrecoger": 5958,
      "Ġinocencia": 5959,
      "Ġsonriente": 5960,
      "Ġsonriendo": 5961,
      "Ġcafetera": 5962,
      "Ġcafetito": 5963,
      "Ġahogado": 5964,
      "ĠGlorieta": 5965,
      "ĠHabÃŃa": 5966,
      "ĠHabla": 5967,
      "Ġimpertin": 5968,
      "Ġimperceptible": 5969,
      "Ġsacrificio": 5970,
      "ĠprÃ³ximas": 5971,
      "Ġpalomino": 5972,
      "Ġconsultorio": 5973,
      "Ġpiedra": 5974,
      "Ġpiedras": 5975,
      "Ġadquirirlo": 5976,
      "ĠMontesa": 5977,
      "Ġenfermedades": 5978,
      "Ġescaparate": 5979,
      "Ġescaparates": 5980,
      "Ġantiguos": 5981,
      "Ġentornados": 5982,
      "Marco": 5983,
      "Parece": 5984,
      "TÃ³malo": 5985,
      "mbulos": 5986,
      "Ġsesenta": 5987,
      "Ġadop": 5988,
      "Ġsemejante": 5989,
      "Ã³gica": 5990,
      "Ġbaboso": 5991,
      "Ġbillares": 5992,
      "Ġcontigo": 5993,
      "Ġalemanes": 5994,
      "ĠEchevarrÃŃa": 5995,
      "Ġgenio": 5996,
      "Ġoperar": 5997,
      "ĠMerce": 5998,
      "Ġsiglo": 5999,
      "Ġdesalmados": 6000,
      "Ġmirase": 6001,
      "Ġredactar": 6002,
      "Ġevadido": 6003,
      "Ġinvadir": 6004,
      "Ġcalcetines": 6005,
      "Ġcachonda": 6006,
      "Ġcamelia": 6007,
      "Ġperfum": 6008,
      "ĠTomelloso": 6009,
      "Ġradiante": 6010,
      "ĠcolaboraciÃ³n": 6011,
      "Ġmoverse": 6012,
      "ĠlÃ¡piz": 6013,
      "ĠdecÃŃrselo": 6014,
      "ĠsimpÃ¡tica": 6015,
      "Ġdistinguir": 6016,
      "Ġatavismo": 6017,
      "Ġprimavera": 6018,
      "Ġabsoluta": 6019,
      "Ġorgullosa": 6020,
      "ĠconsideraciÃ³n": 6021,
      "ĠcontinuÃ³": 6022,
      "ĠpÃ¡ginas": 6023,
      "Ġcoincide": 6024,
      "Ġsatisfecho": 6025,
      "Ġacostumbrada": 6026,
      "Ġalmohada": 6027,
      "Comer": 6028,
      "Llevas": 6029,
      "Naturalmente": 6030,
      "picaz": 6031,
      "ĠÃ¡rboles": 6032,
      "Ġlimbo": 6033,
      "Ġnenes": 6034,
      "Ġnormal": 6035,
      "Ġhambr": 6036,
      "Ġhuevo": 6037,
      "Ġvisitar": 6038,
      "Ġenhiesto": 6039,
      "Ġsuministro": 6040,
      "Ġfurcia": 6041,
      "Ġmezclado": 6042,
      "Ġobediente": 6043,
      "Ġcuernos": 6044,
      "ĠPienso": 6045,
      "ĠPrimero": 6046,
      "Ġdesinfectante": 6047,
      "Ġdeslomado": 6048,
      "Ġreojo": 6049,
      "ĠmÃ¡scara": 6050,
      "Ġeucalip": 6051,
      "Ġhombros": 6052,
      "Ġvahos": 6053,
      "Ġsaludable": 6054,
      "ĠTauste": 6055,
      "ĠrincÃ³n": 6056,
      "Ġrelaciones": 6057,
      "Ġrosetones": 6058,
      "Ġmariposita": 6059,
      "ĠsuspirÃ³": 6060,
      "Ġasistentas": 6061,
      "Ġorejas": 6062,
      "Ġrepugnancia": 6063,
      "ĠdocumentaciÃ³n": 6064,
      "clamÃ³": 6065,
      "Ġbecerro": 6066,
      "Ġdebilidad": 6067,
      "Ġtemblaron": 6068,
      "Ġdulzura": 6069,
      "Ġprofesor": 6070,
      "Ġplanchadoras": 6071,
      "Ġguapetona": 6072,
      "Ġobsequiosa": 6073,
      "ĠdistraÃŃdamente": 6074,
      "Ġfrancesas": 6075,
      "Ġintelectuales": 6076,
      "ĠmÃ¡rmol": 6077,
      "Bah": 6078,
      "CÃ¡llate": 6079,
      "OjalÃ¡": 6080,
      "lutada": 6081,
      "Ġdentista": 6082,
      "Ġatropel": 6083,
      "Ġmierda": 6084,
      "Ġnosotras": 6085,
      "ĠhuÃ©spe": 6086,
      "Ġvientecillo": 6087,
      "Ġenveje": 6088,
      "Ã¡zquez": 6089,
      "Ã©volo": 6090,
      "ĠbisuterÃŃa": 6091,
      "Ġbuey": 6092,
      "Ġbelleza": 6093,
      "Ġconclus": 6094,
      "Ġalmorzar": 6095,
      "ĠEulogia": 6096,
      "Ġgladi": 6097,
      "Ġgenerales": 6098,
      "Ġparsimonia": 6099,
      "ĠobligaciÃ³n": 6100,
      "ĠMayor": 6101,
      "ĠsimpatÃŃa": 6102,
      "ĠApodaca": 6103,
      "Ġdiputado": 6104,
      "ĠCortÃ©s": 6105,
      "Ġdescosido": 6106,
      "ĠSubsecre": 6107,
      "ĠSardina": 6108,
      "ĠSisemÃ³n": 6109,
      "Ġretrato": 6110,
      "ĠMargarita": 6111,
      "Ġcastellan": 6112,
      "ĠeconÃ³m": 6113,
      "ĠVayase": 6114,
      "Ġcalendario": 6115,
      "Ġanestesia": 6116,
      "Ġcobrando": 6117,
      "ĠvacÃŃos": 6118,
      "Ġtragedias": 6119,
      "Ġrubor": 6120,
      "ĠFructuosa": 6121,
      "Ġpippermint": 6122,
      "Ġascensor": 6123,
      "Ġasquerosa": 6124,
      "ĠÃ©poca": 6125,
      "ĠGabriel": 6126,
      "ĠraquÃŃtico": 6127,
      "ĠIgnacio": 6128,
      "ĠMagdalena": 6129,
      "ĠNavarre": 6130,
      "Ġestuvieran": 6131,
      "Ġbocacalle": 6132,
      "Ġjuventud": 6133,
      "ĠlÃ¡mparas": 6134,
      "Ġsorpresa": 6135,
      "Ġdesaprensivo": 6136,
      "ĠcirculaciÃ³n": 6137,
      "Ġwhisky": 6138,
      "Ġeucaliptus": 6139,
      "ĠSubsecretario": 6140,
      "!)": 6141,
      "!-": 6142,
      "!.": 6143,
      "!...": 6144,
      "\";": 6145,
      "\"?": 6146,
      "?)": 6147,
      "?.": 6148,
      "?\",": 6149,
      "Ano": 6150,
      "AquÃ©": 6151,
      "Asi": 6152,
      "Aunque": 6153,
      "Burro": 6154,
      "Cer": 6155,
      "Cas": 6156,
      "Cre": 6157,
      "CÃ³": 6158,
      "Diga": 6159,
      "Dale": 6160,
      "DÃŃgale": 6161,
      "Era": 6162,
      "Gu": 6163,
      "He": 6164,
      "IL": 6165,
      "IM": 6166,
      "IN": 6167,
      "Jo": 6168,
      "JabÃ³n": 6169,
      "LA": 6170,
      "Llam": 6171,
      "Luis": 6172,
      "Luch": 6173,
      "Lond": 6174,
      "Mor": 6175,
      "Mad": 6176,
      "Madre": 6177,
      "Menos": 6178,
      "OS": 6179,
      "Pro": 6180,
      "Pier": 6181,
      "Pasa": 6182,
      "Roque": 6183,
      "Suer": 6184,
      "Sabe": 6185,
      "Santa": 6186,
      "Soy": 6187,
      "SerÃŃa": 6188,
      "Servi": 6189,
      "SultÃ¡n": 6190,
      "Tan": 6191,
      "Tra": 6192,
      "Tres": 6193,
      "Trin": 6194,
      "Tampoco": 6195,
      "UE": 6196,
      "Villa": 6197,
      "Vea": 6198,
      "aqu": 6199,
      "ato": 6200,
      "ajo": 6201,
      "acciÃ³n": 6202,
      "ajes": 6203,
      "bÃŃ": 6204,
      "bora": 6205,
      "bras": 6206,
      "bara": 6207,
      "biendo": 6208,
      "bena": 6209,
      "billa": 6210,
      "bÃºs": 6211,
      "bunda": 6212,
      "buena": 6213,
      "binaciÃ³n": 6214,
      "cra": 6215,
      "cri": 6216,
      "cro": 6217,
      "cla": 6218,
      "cue": 6219,
      "cente": 6220,
      "cosa": 6221,
      "cter": 6222,
      "ctro": 6223,
      "clas": 6224,
      "camos": 6225,
      "ctura": 6226,
      "cable": 6227,
      "ccion": 6228,
      "ctamente": 6229,
      "ccidas": 6230,
      "dre": 6231,
      "dista": 6232,
      "drez": 6233,
      "dÃ³nde": 6234,
      "drado": 6235,
      "drÃ©": 6236,
      "dremos": 6237,
      "dÃŃsimo": 6238,
      "dmundo": 6239,
      "ef": 6240,
      "edad": 6241,
      "ecido": 6242,
      "edores": 6243,
      "fen": 6244,
      "fam": 6245,
      "fier": 6246,
      "fita": 6247,
      "fug": 6248,
      "gon": 6249,
      "gÃ¡": 6250,
      "gente": 6251,
      "gico": 6252,
      "gados": 6253,
      "grÃ¡": 6254,
      "gadas": 6255,
      "ha": 6256,
      "hr": 6257,
      "har": 6258,
      "has": 6259,
      "hor": 6260,
      "hum": 6261,
      "hay": 6262,
      "ij": 6263,
      "it": 6264,
      "ies": 6265,
      "ilo": 6266,
      "iÃ±a": 6267,
      "ijo": 6268,
      "itar": 6269,
      "idar": 6270,
      "ibe": 6271,
      "ieg": 6272,
      "ilado": 6273,
      "iadora": 6274,
      "iritu": 6275,
      "iducho": 6276,
      "idur": 6277,
      "jon": 6278,
      "jando": 6279,
      "jir": 6280,
      "jones": 6281,
      "jito": 6282,
      "jitas": 6283,
      "juri": 6284,
      "justi": 6285,
      "king": 6286,
      "lÃ³n": 6287,
      "lando": 6288,
      "lera": 6289,
      "laba": 6290,
      "lese": 6291,
      "lomo": 6292,
      "ltitud": 6293,
      "mer": 6294,
      "mÃ³": 6295,
      "mÃ¡": 6296,
      "mÃ©": 6297,
      "mando": 6298,
      "mbre": 6299,
      "mul": 6300,
      "mio": 6301,
      "mÃ©n": 6302,
      "mones": 6303,
      "mese": 6304,
      "merÃŃa": 6305,
      "muy": 6306,
      "mÃ¡tico": 6307,
      "ner": 6308,
      "nÃ¡": 6309,
      "nido": 6310,
      "neg": 6311,
      "nillo": 6312,
      "nillada": 6313,
      "oh": 6314,
      "olo": 6315,
      "ofar": 6316,
      "pan": 6317,
      "pra": 6318,
      "pis": 6319,
      "pÃŃn": 6320,
      "paba": 6321,
      "pia": 6322,
      "pur": 6323,
      "plan": 6324,
      "peros": 6325,
      "rones": 6326,
      "rerÃŃa": 6327,
      "ste": 6328,
      "sita": 6329,
      "sico": 6330,
      "sano": 6331,
      "scur": 6332,
      "suele": 6333,
      "tiendo": 6334,
      "tÃ¡ndose": 6335,
      "tÃ¡ndo": 6336,
      "tÃ¡ndole": 6337,
      "tonas": 6338,
      "uza": 6339,
      "uran": 6340,
      "ume": 6341,
      "uciones": 6342,
      "vÃŃ": 6343,
      "vada": 6344,
      "vora": 6345,
      "vana": 6346,
      "velo": 6347,
      "vanta": 6348,
      "vÃ©s": 6349,
      "veme": 6350,
      "ventado": 6351,
      "visiÃ³n": 6352,
      "xible": 6353,
      "yos": 6354,
      "yente": 6355,
      "yados": 6356,
      "yerÃŃa": 6357,
      "yendo": 6358,
      "zan": 6359,
      "zmente": 6360,
      "zona": 6361,
      "znÃ¡": 6362,
      "Ġ'": 6363,
      "ĠK": 6364,
      "ĠQ": 6365,
      "ĠÃ¡s": 6366,
      "Ġita": 6367,
      "Ġul": 6368,
      "ĠÃŃn": 6369,
      "ĠÃ©n": 6370,
      "ĠÃ¡tico": 6371,
      "ĠoraciÃ³n": 6372,
      "ĠQuer": 6373,
      "Ġisla": 6374,
      "Ġoraciones": 6375,
      "ĠdÃ³": 6376,
      "ĠdÃ¡ndose": 6377,
      "Ġduelo": 6378,
      "Ġdieran": 6379,
      "Ġdamas": 6380,
      "Ġlun": 6381,
      "Ġlus": 6382,
      "Ġllo": 6383,
      "Ġlic": 6384,
      "Ġlul": 6385,
      "Ġlana": 6386,
      "ĠliÃ³": 6387,
      "Ġlenti": 6388,
      "ĠlÃ¡r": 6389,
      "ĠlÃŃo": 6390,
      "Ġlumin": 6391,
      "ĠlÃŃneas": 6392,
      "enzo": 6393,
      "Ġsmo": 6394,
      "Ġsano": 6395,
      "ĠcÃ³": 6396,
      "Ġcad": 6397,
      "ĠcoÃ±a": 6398,
      "Ġclan": 6399,
      "Ġceg": 6400,
      "Ġcere": 6401,
      "Ġcentro": 6402,
      "Ġceno": 6403,
      "Ġczar": 6404,
      "ĠcÃ¡r": 6405,
      "Ġcrin": 6406,
      "Ġcesta": 6407,
      "ĠcÃ³m": 6408,
      "Ġcentra": 6409,
      "eso": 6410,
      "estos": 6411,
      "estar": 6412,
      "estan": 6413,
      "esante": 6414,
      "estran": 6415,
      "Ġaco": 6416,
      "Ġago": 6417,
      "Ġamo": 6418,
      "Ġaje": 6419,
      "ĠatÃ³n": 6420,
      "Ġagos": 6421,
      "Ġaull": 6422,
      "Ġatiende": 6423,
      "ĠpÃ³n": 6424,
      "Ġpad": 6425,
      "Ġpera": 6426,
      "Ġpil": 6427,
      "Ġposa": 6428,
      "Ġpura": 6429,
      "ĠplÃ¡": 6430,
      "eran": 6431,
      "erÃ³n": 6432,
      "erito": 6433,
      "erlos": 6434,
      "erÃŃas": 6435,
      "eresa": 6436,
      "Ġdedo": 6437,
      "Ġdego": 6438,
      "Ġdevo": 6439,
      "Ġdeten": 6440,
      "Ġdeje": 6441,
      "ĠdebiÃ³": 6442,
      "Ġdefec": 6443,
      "arÃ©": 6444,
      "arca": 6445,
      "arÃ¡n": 6446,
      "arlas": 6447,
      "artel": 6448,
      "artz": 6449,
      "arentado": 6450,
      "quisi": 6451,
      "Ġmente": 6452,
      "Ġquis": 6453,
      "Ġquie": 6454,
      "Ġquinta": 6455,
      "ons": 6456,
      "onza": 6457,
      "onales": 6458,
      "onunci": 6459,
      "oral": 6460,
      "orri": 6461,
      "orma": 6462,
      "orme": 6463,
      "ordinar": 6464,
      "orenzo": 6465,
      "Ġtun": 6466,
      "Ġtol": 6467,
      "Ġtru": 6468,
      "Ġtela": 6469,
      "Ġtable": 6470,
      "Ġtestamento": 6471,
      "and": 6472,
      "anita": 6473,
      "anja": 6474,
      "anones": 6475,
      "anista": 6476,
      "ancis": 6477,
      "anencia": 6478,
      "andilla": 6479,
      "anterÃŃa": 6480,
      "ung": 6481,
      "unal": 6482,
      "undos": 6483,
      "unica": 6484,
      "untuoso": 6485,
      "Ġqueja": 6486,
      "Ġquedase": 6487,
      "Ġlatas": 6488,
      "Ġlagar": 6489,
      "Ġlapi": 6490,
      "Ġlabio": 6491,
      "Ġlatido": 6492,
      "Ġlamenta": 6493,
      "Ġlacito": 6494,
      "Ġlaurel": 6495,
      "elu": 6496,
      "ello": 6497,
      "elga": 6498,
      "eliz": 6499,
      "Ġnudo": 6500,
      "ÃŃtas": 6501,
      "ÃŃamos": 6502,
      "ÃŃgado": 6503,
      "ÃŃdico": 6504,
      "tadas": 6505,
      "tador": 6506,
      "tables": 6507,
      "Ġhun": 6508,
      "ĠhÃº": 6509,
      "Ġhil": 6510,
      "Ġhim": 6511,
      "Ġhues": 6512,
      "Ġhura": 6513,
      "Ġhara": 6514,
      "Ġhere": 6515,
      "Ġhorm": 6516,
      "ĠhÃŃgado": 6517,
      "Ġseco": 6518,
      "ĠseÃ±a": 6519,
      "Ġsepas": 6520,
      "Ġsepara": 6521,
      "Ġsetenta": 6522,
      "Ġsepul": 6523,
      "recÃŃa": 6524,
      "reedores": 6525,
      "Ġesqu": 6526,
      "Ġescur": 6527,
      "Ġestir": 6528,
      "Ġesmero": 6529,
      "Ġesbel": 6530,
      "Ġesmal": 6531,
      "Ġesmer": 6532,
      "Ġvam": 6533,
      "Ġvente": 6534,
      "Ġventa": 6535,
      "Ġvina": 6536,
      "Ġviera": 6537,
      "Ġvemos": 6538,
      "Ġvano": 6539,
      "Ġvela": 6540,
      "Ġvalle": 6541,
      "Ã³fer": 6542,
      "Ġeng": 6543,
      "Ġenti": 6544,
      "Ġenro": 6545,
      "Ġenla": 6546,
      "Ġenlo": 6547,
      "Ġentro": 6548,
      "Ġenig": 6549,
      "Ġencan": 6550,
      "Ġendul": 6551,
      "ĠenÃ©r": 6552,
      "Ġencog": 6553,
      "ĠenciÃ©n": 6554,
      "Ġenlutada": 6555,
      "Ġenneg": 6556,
      "Ġenorme": 6557,
      "daba": 6558,
      "daciÃ³n": 6559,
      "dable": 6560,
      "teo": 6561,
      "teis": 6562,
      "teme": 6563,
      "tecita": 6564,
      "tege": 6565,
      "rador": 6566,
      "racionales": 6567,
      "ini": 6568,
      "inte": 6569,
      "inita": 6570,
      "inando": 6571,
      "inado": 6572,
      "inarse": 6573,
      "inados": 6574,
      "Ã¡cti": 6575,
      "Ã¡cano": 6576,
      "Ã±ida": 6577,
      "Ã±Ã¡ndole": 6578,
      "Ã±imiento": 6579,
      "Ã©l": 6580,
      "Ã©p": 6581,
      "Ã©dul": 6582,
      "ciem": 6583,
      "ciado": 6584,
      "citas": 6585,
      "ciese": 6586,
      "cientes": 6587,
      "cientas": 6588,
      "Ġellas": 6589,
      "ĠelÃ©c": 6590,
      "Ġeleva": 6591,
      "Ġnotas": 6592,
      "Ġnotado": 6593,
      "ĠnoctÃ¡": 6594,
      "alÃŃ": 6595,
      "alÃŃa": 6596,
      "alÃ³n": 6597,
      "almente": 6598,
      "alina": 6599,
      "algÃºn": 6600,
      "ienen": 6601,
      "iencias": 6602,
      "omas": 6603,
      "omÃ©": 6604,
      "omento": 6605,
      "omÃ¡tico": 6606,
      "Ġbra": 6607,
      "Ġbro": 6608,
      "Ġbul": 6609,
      "Ġbur": 6610,
      "Ġbuj": 6611,
      "Ġbull": 6612,
      "abro": 6613,
      "abalÃŃ": 6614,
      "Ġcont": 6615,
      "Ġconta": 6616,
      "Ġconvi": 6617,
      "Ġconden": 6618,
      "Ġcontaba": 6619,
      "Ġconviene": 6620,
      "Ġcontenta": 6621,
      "Ġcontemp": 6622,
      "todos": 6623,
      "tobÃºs": 6624,
      "chan": 6625,
      "chel": 6626,
      "chÃ³": 6627,
      "chera": 6628,
      "chitos": 6629,
      "chÃŃs": 6630,
      "amb": 6631,
      "riar": 6632,
      "rias": 6633,
      "rico": 6634,
      "rile": 6635,
      "rimo": 6636,
      "riese": 6637,
      "rioso": 6638,
      "riano": 6639,
      "rige": 6640,
      "ĠleÃŃa": 6641,
      "Ġlecho": 6642,
      "Ġlema": 6643,
      "ĠlecciÃ³n": 6644,
      "Ġlector": 6645,
      "Ġsuba": 6646,
      "Ġsucio": 6647,
      "Ġsuban": 6648,
      "Ġsuici": 6649,
      "Ġsubir": 6650,
      "Ġsubido": 6651,
      "Ġsuyos": 6652,
      "Ġfon": 6653,
      "Ġala": 6654,
      "Ġalu": 6655,
      "Ġalar": 6656,
      "Ġalmen": 6657,
      "Ġalcal": 6658,
      "Ġalturas": 6659,
      "Ġalpaca": 6660,
      "ĠEsa": 6661,
      "ĠEmp": 6662,
      "ĠEbro": 6663,
      "ĠEdmundo": 6664,
      "Ġlosas": 6665,
      "cole": 6666,
      "cojo": 6667,
      "Ġloca": 6668,
      "Ġloque": 6669,
      "Ġlobo": 6670,
      "ĠloterÃŃa": 6671,
      "Ġlocua": 6672,
      "Ġgara": 6673,
      "Ġgaban": 6674,
      "Ġgane": 6675,
      "Ġgarro": 6676,
      "Ġgestos": 6677,
      "Ġmudo": 6678,
      "Ġmuch": 6679,
      "Ġmuros": 6680,
      "Ġmuestra": 6681,
      "Ġmugr": 6682,
      "Ġmultitud": 6683,
      "Ġmuestran": 6684,
      "Ġmuriese": 6685,
      "iss": 6686,
      "leta": 6687,
      "lete": 6688,
      "leÃ³n": 6689,
      "lejo": 6690,
      "levar": 6691,
      "letÃŃn": 6692,
      "leÃ±e": 6693,
      "ĠLi": 6694,
      "ĠLÃ³gica": 6695,
      "ĠLorenzo": 6696,
      "usta": 6697,
      "usco": 6698,
      "usted": 6699,
      "usias": 6700,
      "tiro": 6701,
      "tidad": 6702,
      "timos": 6703,
      "tieron": 6704,
      "tiremos": 6705,
      "tijones": 6706,
      "roe": 6707,
      "rot": 6708,
      "rodu": 6709,
      "Ġmeto": 6710,
      "Ġmechero": 6711,
      "ĠmetÃŃa": 6712,
      "Ġmembre": 6713,
      "diz": 6714,
      "dios": 6715,
      "dile": 6716,
      "didad": 6717,
      "didos": 6718,
      "dillo": 6719,
      "dicina": 6720,
      "didez": 6721,
      "deal": 6722,
      "deado": 6723,
      "laciÃ³n": 6724,
      "lacable": 6725,
      "Ġparar": 6726,
      "Ġparal": 6727,
      "Ġpartido": 6728,
      "ĠparchÃŃs": 6729,
      "Ġof": 6730,
      "Ġove": 6731,
      "Ġocul": 6732,
      "Ġopin": 6733,
      "ĠMen": 6734,
      "ĠMos": 6735,
      "ĠMita": 6736,
      "ĠMada": 6737,
      "ĠMenos": 6738,
      "ĠMuy": 6739,
      "Ġcomenta": 6740,
      "Ġcomiendo": 6741,
      "ĠcombinaciÃ³n": 6742,
      "Ġportera": 6743,
      "ĠporterÃŃa": 6744,
      "Ġhagamos": 6745,
      "ĠDere": 6746,
      "caÃ±a": 6747,
      "caciones": 6748,
      "cadia": 6749,
      "Ġcua": 6750,
      "Ġcue": 6751,
      "Ġcule": 6752,
      "Ġcubre": 6753,
      "Ġcuran": 6754,
      "Ġcuras": 6755,
      "Ġcuidad": 6756,
      "Ġcupl": 6757,
      "Ġcuela": 6758,
      "Ġcuya": 6759,
      "Ġcuento": 6760,
      "Ġcubo": 6761,
      "ĠcuÃ¡l": 6762,
      "Ġcuchar": 6763,
      "Ġcumpar": 6764,
      "Ġcuchi": 6765,
      "Ġcuidar": 6766,
      "ĠcucaÃ±a": 6767,
      "Ġsitu": 6768,
      "Ġsilog": 6769,
      "ierno": 6770,
      "godeo": 6771,
      "Ġdelga": 6772,
      "Ġdelgada": 6773,
      "emente": 6774,
      "ĠAun": 6775,
      "ĠAle": 6776,
      "ĠAÃºn": 6777,
      "ĠAunque": 6778,
      "ĠAquel": 6779,
      "ĠAquella": 6780,
      "cetar": 6781,
      "cedente": 6782,
      "ĠPres": 6783,
      "ĠPim": 6784,
      "ĠPadre": 6785,
      "ĠPida": 6786,
      "ĠPiensa": 6787,
      "ĠPÃŃo": 6788,
      "ĠPala": 6789,
      "ĠPÃºbl": 6790,
      "ĠPens": 6791,
      "ĠPÃ¡ez": 6792,
      "ĠPreci": 6793,
      "ĠPilar": 6794,
      "ĠPsico": 6795,
      "ĠPrimo": 6796,
      "Ġestante": 6797,
      "itador": 6798,
      "ueta": 6799,
      "ueca": 6800,
      "uevos": 6801,
      "olque": 6802,
      "olver": 6803,
      "ĠEllos": 6804,
      "ĠElvÃŃ": 6805,
      "bada": 6806,
      "Ġtoque": 6807,
      "ĠtocÃ³": 6808,
      "Ġtocas": 6809,
      "Ġtocan": 6810,
      "Ġtotal": 6811,
      "Ġtocando": 6812,
      "Ġtocaba": 6813,
      "Ġdiar": 6814,
      "Ġdile": 6815,
      "ĠdirÃŃa": 6816,
      "Ġdigan": 6817,
      "Ġdiario": 6818,
      "Ġdiag": 6819,
      "Ġdimin": 6820,
      "ĠdirÃ¡n": 6821,
      "Ġdiose": 6822,
      "ĠdirÃ¡s": 6823,
      "Ġdijera": 6824,
      "Ġdiesen": 6825,
      "Ġdibuj": 6826,
      "ĠdirÃŃamos": 6827,
      "Ġdiciem": 6828,
      "Ġpola": 6829,
      "Ġpocas": 6830,
      "Ġpoetas": 6831,
      "Ġpopul": 6832,
      "adu": 6833,
      "adra": 6834,
      "adura": 6835,
      "adrique": 6836,
      "ĠCol": 6837,
      "ĠCris": 6838,
      "ĠClaro": 6839,
      "ĠCasi": 6840,
      "ĠCalle": 6841,
      "ĠCrÃ©": 6842,
      "ĠColla": 6843,
      "Ġdesl": 6844,
      "Ġdesas": 6845,
      "Ġdesent": 6846,
      "Ġdesga": 6847,
      "Ġdestor": 6848,
      "Ġdesme": 6849,
      "Ġdesgar": 6850,
      "Ġdescon": 6851,
      "Ġdestel": 6852,
      "Ġdespor": 6853,
      "Ġdesfle": 6854,
      "Ġdesarro": 6855,
      "Ġdesval": 6856,
      "Ġdesbara": 6857,
      "Ġdesabro": 6858,
      "ĠSer": 6859,
      "ĠSiento": 6860,
      "ĠSigue": 6861,
      "ĠSÃ³lo": 6862,
      "ĠSultÃ¡n": 6863,
      "ĠparaÃŃso": 6864,
      "viles": 6865,
      "vidu": 6866,
      "vivir": 6867,
      "Ġmio": 6868,
      "Ġmimo": 6869,
      "Ġmigas": 6870,
      "Ġmichino": 6871,
      "Ãºa": 6872,
      "Ġreza": 6873,
      "Ġrega": 6874,
      "Ġreir": 6875,
      "Ġremo": 6876,
      "Ġrema": 6877,
      "Ġrecos": 6878,
      "Ġrebo": 6879,
      "Ġrecal": 6880,
      "ĠreÃŃr": 6881,
      "Ġrebor": 6882,
      "Ġrequer": 6883,
      "ĠreÃ±ido": 6884,
      "Ġrebus": 6885,
      "Ġrezon": 6886,
      "Ġregular": 6887,
      "Ġregodeo": 6888,
      "Ġrecetar": 6889,
      "Ġusa": 6890,
      "Ġusadas": 6891,
      "ĠLagas": 6892,
      "guas": 6893,
      "guel": 6894,
      "gulo": 6895,
      "guero": 6896,
      "guito": 6897,
      "guiÃ³": 6898,
      "erado": 6899,
      "cuto": 6900,
      "cucha": 6901,
      "cualquiera": 6902,
      "ilero": 6903,
      "iliadora": 6904,
      "ĠhabrÃ¡n": 6905,
      "ĠhabrÃ¡s": 6906,
      "ĠMaruja": 6907,
      "ĠMarquÃ©s": 6908,
      "imados": 6909,
      "Ġdonna": 6910,
      "Ġcase": 6911,
      "Ġcasqui": 6912,
      "Ġcascos": 6913,
      "Ġcasaban": 6914,
      "Ġcasual": 6915,
      "troso": 6916,
      "trarse": 6917,
      "trÃ©s": 6918,
      "dador": 6919,
      "entan": 6920,
      "entÃ³n": 6921,
      "uÃ©r": 6922,
      "Ġvig": 6923,
      "Ġvidas": 6924,
      "Ġvicio": 6925,
      "Ġviese": 6926,
      "Ġvivo": 6927,
      "Ġvictor": 6928,
      "Ġviesen": 6929,
      "Ġviviese": 6930,
      "Ġvieses": 6931,
      "Ġechas": 6932,
      "Ġefica": 6933,
      "dosa": 6934,
      "doselas": 6935,
      "ĠVer": 6936,
      "ĠVan": 6937,
      "ĠVia": 6938,
      "ĠVill": 6939,
      "ĠVentas": 6940,
      "ĠValle": 6941,
      "ĠVÃ¡zquez": 6942,
      "Ġniete": 6943,
      "ĠniÃ±ez": 6944,
      "sey": 6945,
      "Ġverse": 6946,
      "Ġverlos": 6947,
      "ĠverÃŃas": 6948,
      "Ġverbena": 6949,
      "Ġsopa": 6950,
      "Ġsober": 6951,
      "Ġsobres": 6952,
      "Ġsopor": 6953,
      "Ġsociales": 6954,
      "bile": 6955,
      "biguo": 6956,
      "Ġintu": 6957,
      "Ġinye": 6958,
      "Ġindu": 6959,
      "Ġinfi": 6960,
      "Ġincor": 6961,
      "Ġinvis": 6962,
      "Ġincul": 6963,
      "Ġintim": 6964,
      "Ġinvita": 6965,
      "Ġinmu": 6966,
      "Ġinmedia": 6967,
      "Ġinjusti": 6968,
      "Ġinventado": 6969,
      "gajoso": 6970,
      "quecer": 6971,
      "ical": 6972,
      "icÃ³n": 6973,
      "Ġllan": 6974,
      "Ġllueve": 6975,
      "Ġpasmo": 6976,
      "Ġpasadas": 6977,
      "Ġpasmado": 6978,
      "Ġpastillas": 6979,
      "irse": 6980,
      "ĠtenÃŃan": 6981,
      "ĠtenÃ©is": 6982,
      "ulÃ³": 6983,
      "ullo": 6984,
      "ĠcalÃ³": 6985,
      "Ġcallo": 6986,
      "Ġcalidad": 6987,
      "Ġcalder": 6988,
      "Ġcalientes": 6989,
      "Ġcalambre": 6990,
      "Ġcalcular": 6991,
      "Ġcalienta": 6992,
      "Ġcallista": 6993,
      "Ġcalzada": 6994,
      "Ġcalzado": 6995,
      "Ġbienestar": 6996,
      "iodista": 6997,
      "uelto": 6998,
      "Ġsonar": 6999,
      "ĠsonÃ¡": 7000,
      "Ġsonido": 7001,
      "Ġsonros": 7002,
      "Ġsonaban": 7003,
      "Ġsoneto": 7004,
      "Ġand": 7005,
      "Ġando": 7006,
      "Ġanden": 7007,
      "Ġandu": 7008,
      "Ġangel": 7009,
      "Ġantorcha": 7010,
      "ĠserÃ©": 7011,
      "Ġserlo": 7012,
      "ĠsermÃ³n": 7013,
      "ĠserrÃŃn": 7014,
      "ÃŃnica": 7015,
      "Ã©ndo": 7016,
      "Ã©ntico": 7017,
      "ĠteÃ±ido": 7018,
      "Ġtetitas": 7019,
      "ĠteÃ±ida": 7020,
      "trado": 7021,
      "trativo": 7022,
      "pea": 7023,
      "petu": 7024,
      "pefa": 7025,
      "pecto": 7026,
      "pectiva": 7027,
      "cerÃ¡": 7028,
      "ĠJerÃ³n": 7029,
      "Ġlleven": 7030,
      "Ġchas": 7031,
      "Ġchis": 7032,
      "Ġchur": 7033,
      "Ġchill": 7034,
      "Ġchulo": 7035,
      "Ġcharla": 7036,
      "Ġchist": 7037,
      "Ġchamar": 7038,
      "Ġchorro": 7039,
      "ĠchÃ³fer": 7040,
      "Ġcaro": 7041,
      "Ġcardo": 7042,
      "Ġcarre": 7043,
      "Ġcarro": 7044,
      "Ġcargo": 7045,
      "Ġcarita": 7046,
      "Ġcartel": 7047,
      "Ġcartero": 7048,
      "Ġcaramba": 7049,
      "Ġmanta": 7050,
      "ĠmanÃŃa": 7051,
      "Ġmango": 7052,
      "Ġmanga": 7053,
      "Ġmanche": 7054,
      "Ġmanten": 7055,
      "ĠmanÃŃas": 7056,
      "Ġmanchas": 7057,
      "Ġmaneras": 7058,
      "Ġmandase": 7059,
      "Ġmanif": 7060,
      "Ġhice": 7061,
      "Ġhielo": 7062,
      "tese": 7063,
      "Ġcatar": 7064,
      "Ġcache": 7065,
      "ĠcaÃŃdo": 7066,
      "Ġcapita": 7067,
      "Ġcaquita": 7068,
      "Ġsinsab": 7069,
      "Ġsiniestra": 7070,
      "iata": 7071,
      "torga": 7072,
      "torial": 7073,
      "Ġcole": 7074,
      "Ġcojo": 7075,
      "Ġcopa": 7076,
      "Ġcocin": 7077,
      "Ġcobro": 7078,
      "Ġcochino": 7079,
      "Ġcobrado": 7080,
      "ĠcoacciÃ³n": 7081,
      "turo": 7082,
      "turero": 7083,
      "paÃ±o": 7084,
      "tarles": 7085,
      "tarrado": 7086,
      "Ġvaqu": 7087,
      "Ġvagar": 7088,
      "Ġvayas": 7089,
      "Ġpade": 7090,
      "Ġpaque": 7091,
      "Ġpagas": 7092,
      "Ġpatri": 7093,
      "Ġpaciente": 7094,
      "jeros": 7095,
      "jeras": 7096,
      "Ġparedes": 7097,
      "ĠpareciÃ³": 7098,
      "cesa": 7099,
      "Ġcamina": 7100,
      "Ġperra": 7101,
      "Ġperdamos": 7102,
      "Ġperchero": 7103,
      "Ġperdiendo": 7104,
      "Ġperfecto": 7105,
      "Ġperiodista": 7106,
      "tantos": 7107,
      "tanisla": 7108,
      "Ġtraen": 7109,
      "Ġtratan": 7110,
      "ĠtratÃ³": 7111,
      "Ġtratando": 7112,
      "ĠtravÃ©s": 7113,
      "Ġtraguito": 7114,
      "Ġaman": 7115,
      "Ġamantes": 7116,
      "Ġamargo": 7117,
      "Ġambiguo": 7118,
      "Ġmalta": 7119,
      "Ġmalol": 7120,
      "Ġmalito": 7121,
      "Ġmalcom": 7122,
      "ĠmalÃ©volo": 7123,
      "Ġmalsano": 7124,
      "saci": 7125,
      "saciones": 7126,
      "vea": 7127,
      "vecho": 7128,
      "veva": 7129,
      "larmÃ©": 7130,
      "Ġsalta": 7131,
      "ĠsalÃŃa": 7132,
      "Ġsaltar": 7133,
      "Ġsalva": 7134,
      "ĠsaltÃ³": 7135,
      "Ġsaliendo": 7136,
      "Ġsalgan": 7137,
      "Ġsaltando": 7138,
      "teros": 7139,
      "terÃ³n": 7140,
      "teria": 7141,
      "terno": 7142,
      "terias": 7143,
      "ĠTar": 7144,
      "ĠTere": 7145,
      "ĠToma": 7146,
      "ĠTraba": 7147,
      "ĠTrata": 7148,
      "ĠTorri": 7149,
      "Ġdoscientas": 7150,
      "Ġruego": 7151,
      "ĠrÃ¡b": 7152,
      "Ġestatu": 7153,
      "ĠFue": 7154,
      "ĠFalle": 7155,
      "ĠFÃ¼": 7156,
      "ĠFÃŃjate": 7157,
      "ĠFadrique": 7158,
      "Ã±oso": 7159,
      "Ġllamas": 7160,
      "Ġllamado": 7161,
      "Ġllamaron": 7162,
      "Ġjus": 7163,
      "ĠjabalÃŃ": 7164,
      "Ġtila": 7165,
      "Ġtigre": 7166,
      "Ġtirada": 7167,
      "Ġtitul": 7168,
      "Ġtibias": 7169,
      "uros": 7170,
      "uras": 7171,
      "ureros": 7172,
      "Ġartil": 7173,
      "Ġarru": 7174,
      "Ġaroma": 7175,
      "Ġarmas": 7176,
      "Ġarmado": 7177,
      "Ġarrum": 7178,
      "ĠaromÃ¡tico": 7179,
      "ĠEsp": 7180,
      "ĠEstas": 7181,
      "ĠEstando": 7182,
      "ĠEscor": 7183,
      "ĠEstaba": 7184,
      "ĠEstrem": 7185,
      "ĠEstanisla": 7186,
      "ĠpendÃ³n": 7187,
      "Ġmari": 7188,
      "Ġmarcado": 7189,
      "Ġmarquito": 7190,
      "Ġmaricas": 7191,
      "Ġmarcada": 7192,
      "ciopelo": 7193,
      "Ġsuspicaz": 7194,
      "magen": 7195,
      "Ġacci": 7196,
      "Ġaclar": 7197,
      "Ġacaban": 7198,
      "Ġacentos": 7199,
      "Ġaconte": 7200,
      "Ġacreedores": 7201,
      "Ġpila": 7202,
      "Ġpipa": 7203,
      "Ġpiden": 7204,
      "Ġpidamos": 7205,
      "Ġpicados": 7206,
      "Ġpidiendo": 7207,
      "Ġpicuda": 7208,
      "Ġpianista": 7209,
      "Ġasin": 7210,
      "Ġasiente": 7211,
      "Ġasadas": 7212,
      "Ġaspir": 7213,
      "Ġasistir": 7214,
      "Ġaspecto": 7215,
      "ĠRoose": 7216,
      "ĠmatÃ³": 7217,
      "ĠmaÃ±as": 7218,
      "Ġmacuto": 7219,
      "Ġpez": 7220,
      "Ġpegado": 7221,
      "Ġpecados": 7222,
      "ĠpedÃŃ": 7223,
      "Ġpeonza": 7224,
      "Ġpegajoso": 7225,
      "Ġira": 7226,
      "Ġiden": 7227,
      "Ġibas": 7228,
      "Ġigles": 7229,
      "Estu": 7230,
      "Estaba": 7231,
      "Ġahueca": 7232,
      "medo": 7233,
      "mecido": 7234,
      "Ġprecon": 7235,
      "Ġprecis": 7236,
      "Ġprepara": 7237,
      "Ġprevia": 7238,
      "Ġpreju": 7239,
      "Ġpremi": 7240,
      "Ġpregon": 7241,
      "Ġprecedente": 7242,
      "garon": 7243,
      "garay": 7244,
      "ioso": 7245,
      "iosas": 7246,
      "Ġcoser": 7247,
      "Ġcosita": 7248,
      "Ġcosiendo": 7249,
      "Ġcostura": 7250,
      "Ġcostado": 7251,
      "Ġcosturero": 7252,
      "umen": 7253,
      "umero": 7254,
      "umanidad": 7255,
      "esecre": 7256,
      "Ġapla": 7257,
      "Ġaplas": 7258,
      "Ġapura": 7259,
      "Ġapuesto": 7260,
      "Ġaplomo": 7261,
      "Ġapuros": 7262,
      "Ġprodi": 7263,
      "Ġprocer": 7264,
      "Ġprotes": 7265,
      "Ġproye": 7266,
      "Ġpropas": 7267,
      "Ġprotege": 7268,
      "Ġprovecho": 7269,
      "Ġvuelo": 7270,
      "Ġvuelvo": 7271,
      "Ġabus": 7272,
      "Ġabrazo": 7273,
      "Ġabuelo": 7274,
      "rÃŃe": 7275,
      "rÃŃan": 7276,
      "voca": 7277,
      "ĠAlcÃ¡n": 7278,
      "ĠAlmerÃŃa": 7279,
      "Ġhacerle": 7280,
      "Ġcallejero": 7281,
      "loso": 7282,
      "Ġcreen": 7283,
      "ĠcreÃŃ": 7284,
      "ĠvenÃŃa": 7285,
      "Ġvender": 7286,
      "Ġvengan": 7287,
      "ĠGre": 7288,
      "ĠGeno": 7289,
      "ĠGob": 7290,
      "ĠGald": 7291,
      "Ġdais": 7292,
      "Ġbata": 7293,
      "ĠbaÃ±os": 7294,
      "Ġbazo": 7295,
      "ĠbaÃºl": 7296,
      "Ġbaila": 7297,
      "Ġbailar": 7298,
      "Ġbailando": 7299,
      "Ġbailado": 7300,
      "checo": 7301,
      "chebuena": 7302,
      "Ġmiradas": 7303,
      "Ġpensara": 7304,
      "Ġpensaban": 7305,
      "Ġpensamiento": 7306,
      "araciÃ³n": 7307,
      "Ġhebra": 7308,
      "tillita": 7309,
      "Ġcompensar": 7310,
      "Ġcompung": 7311,
      "ĠOro": 7312,
      "ĠOtro": 7313,
      "ĠOeste": 7314,
      "Ġmejores": 7315,
      "igan": 7316,
      "igiosas": 7317,
      "Ġtango": 7318,
      "ĠCatÃ³": 7319,
      "pobre": 7320,
      "poleÃ³n": 7321,
      "ĠHan": 7322,
      "ĠHis": 7323,
      "ĠHern": 7324,
      "ĠHombre": 7325,
      "ĠHartz": 7326,
      "ĠHumanidad": 7327,
      "Ġimpas": 7328,
      "Ġimplacable": 7329,
      "darias": 7330,
      "Ġespanta": 7331,
      "Ġespere": 7332,
      "Ġespiritu": 7333,
      "Ġcinta": 7334,
      "ĠBor": 7335,
      "ĠBrun": 7336,
      "ĠBajo": 7337,
      "ĠBofar": 7338,
      "ĠLee": 7339,
      "ĠLevanta": 7340,
      "ĠNunca": 7341,
      "ĠNego": 7342,
      "osofÃŃa": 7343,
      "Ġexactamente": 7344,
      "landor": 7345,
      "Ġempren": 7346,
      "Ġemparentado": 7347,
      "Ġtute": 7348,
      "Ġtuya": 7349,
      "Ġtuyas": 7350,
      "Ġsagra": 7351,
      "Ġsacado": 7352,
      "Ġprensa": 7353,
      "Ġpronunci": 7354,
      "Ġmuchachas": 7355,
      "Ġmuchachos": 7356,
      "tendido": 7357,
      "Ġcorse": 7358,
      "Ġcorza": 7359,
      "ĠcorriÃ³": 7360,
      "Ġcortado": 7361,
      "Ġcortando": 7362,
      "Ġcorrido": 7363,
      "Ġcorral": 7364,
      "Ġcorroe": 7365,
      "Ġbotas": 7366,
      "Ġbocan": 7367,
      "Ġbocinas": 7368,
      "Ġgusan": 7369,
      "Ġgustas": 7370,
      "Ġgustado": 7371,
      "Ġgustarte": 7372,
      "Sigues": 7373,
      "Ġrestos": 7374,
      "Ġreserv": 7375,
      "Ġresisten": 7376,
      "Ġponga": 7377,
      "ĠpondrÃ©": 7378,
      "ezca": 7379,
      "Ġray": 7380,
      "Ġrabi": 7381,
      "Ġrayas": 7382,
      "Ġracionamiento": 7383,
      "doras": 7384,
      "Ġdecimos": 7385,
      "ĠdecidiÃ³": 7386,
      "Ġdecidiese": 7387,
      "ĠdecisiÃ³n": 7388,
      "Ġdecidirse": 7389,
      "izas": 7390,
      "izÃ¡": 7391,
      "izÃ¡s": 7392,
      "Ġdisf": 7393,
      "Ġdistri": 7394,
      "Ġdispues": 7395,
      "Ġdisuelve": 7396,
      "ĠdisposiciÃ³n": 7397,
      "Ġsabor": 7398,
      "Ġsable": 7399,
      "ĠsabrÃ©": 7400,
      "Ġsabidur": 7401,
      "Ġescrita": 7402,
      "Ġescalo": 7403,
      "Ġqueria": 7404,
      "ĠquerÃŃas": 7405,
      "Ġqueridas": 7406,
      "Ġnace": 7407,
      "vergÃ¼enza": 7408,
      "Ġmedita": 7409,
      "Ġmedida": 7410,
      "Ġmediado": 7411,
      "ĠVicesecre": 7412,
      "ĠIgual": 7413,
      "ĠIdeal": 7414,
      "Ġorador": 7415,
      "Ġordinar": 7416,
      "ĠJulia": 7417,
      "deros": 7418,
      "derete": 7419,
      "jecita": 7420,
      "Ġrota": 7421,
      "Ġrodar": 7422,
      "Ġrozar": 7423,
      "Ġrodando": 7424,
      "Ġrobado": 7425,
      "Ġdudo": 7426,
      "Ġdudes": 7427,
      "Ġdurito": 7428,
      "Ġcolgado": 7429,
      "ĠcolchÃ³n": 7430,
      "ĠPacheco": 7431,
      "destin": 7432,
      "Ġbarrera": 7433,
      "Ġbarbilla": 7434,
      "ĠMaternidad": 7435,
      "ĠMaello": 7436,
      "rarÃ©": 7437,
      "rarme": 7438,
      "rarren": 7439,
      "pitas": 7440,
      "ĠtardÃ³": 7441,
      "Ġtaramb": 7442,
      "Ġguardando": 7443,
      "ĠNochebuena": 7444,
      "ĠvolÃ³": 7445,
      "Ġvolvi": 7446,
      "Ġvolvieron": 7447,
      "Ġvoltear": 7448,
      "Ġvolumen": 7449,
      "Ġgrata": 7450,
      "Ġgracios": 7451,
      "Ġdecirlo": 7452,
      "Ġdecirse": 7453,
      "Ġdecirme": 7454,
      "Ġdecirles": 7455,
      "Ġcogiera": 7456,
      "Ġcogieron": 7457,
      "egan": 7458,
      "ĠPeÃ±a": 7459,
      "Ġverdades": 7460,
      "Ġverdadera": 7461,
      "Ġllevas": 7462,
      "Ġllevara": 7463,
      "Ġllevarse": 7464,
      "Ġllevaron": 7465,
      "Ġllevaban": 7466,
      "brese": 7467,
      "rutas": 7468,
      "Ġdarte": 7469,
      "Ġdarlas": 7470,
      "Ġentero": 7471,
      "Ġentusias": 7472,
      "Ġgranada": 7473,
      "dense": 7474,
      "dencia": 7475,
      "rÃ¡zo": 7476,
      "risita": 7477,
      "Ġmozas": 7478,
      "Ġmotivo": 7479,
      "Ġmoviendo": 7480,
      "Ġmobile": 7481,
      "Ġtientas": 7482,
      "Ġseguido": 7483,
      "Ġseguras": 7484,
      "Ġseguimos": 7485,
      "Ġluce": 7486,
      "Ġlucen": 7487,
      "Ġpalo": 7488,
      "Ġpalad": 7489,
      "Ġpalpa": 7490,
      "Ġpalillo": 7491,
      "Ġpaloma": 7492,
      "Ġpaliducho": 7493,
      "Ġtomo": 7494,
      "Ġtomarse": 7495,
      "ĠtomÃ¡ndose": 7496,
      "ĠestarÃ©": 7497,
      "Ġfalte": 7498,
      "Ġfaltas": 7499,
      "Ġfaltar": 7500,
      "ĠfaltarÃŃa": 7501,
      "iedad": 7502,
      "ieces": 7503,
      "ĠUnas": 7504,
      "Ġpresentado": 7505,
      "Ġprestancia": 7506,
      "Ġprestam": 7507,
      "Ġpresidente": 7508,
      "Ġentreab": 7509,
      "Ġentrecor": 7510,
      "Ġfinas": 7511,
      "Ġtaco": 7512,
      "Ġtapas": 7513,
      "ĠtacÃ³n": 7514,
      "Ġtaimados": 7515,
      "Ġaguja": 7516,
      "Ġaguarda": 7517,
      "Ġpurito": 7518,
      "Ġfuere": 7519,
      "Ġfueras": 7520,
      "Ġcuartillas": 7521,
      "ĠcuarterÃ³n": 7522,
      "Ġrepubl": 7523,
      "Ġreprodu": 7524,
      "ĠreparaciÃ³n": 7525,
      "Ġechado": 7526,
      "rense": 7527,
      "Ġrio": 7528,
      "Ġridi": 7529,
      "Ġrigu": 7530,
      "Ġrigor": 7531,
      "Ġbasta": 7532,
      "Ġbastos": 7533,
      "Ġbastantes": 7534,
      "Ġbasureros": 7535,
      "Ġinsta": 7536,
      "Ġinsist": 7537,
      "Ġinsospe": 7538,
      "Ġcerrados": 7539,
      "ĠcerrÃ³": 7540,
      "ĠsolÃŃa": 7541,
      "Ġsolici": 7542,
      "Ġsoluciones": 7543,
      "ernal": 7544,
      "ernito": 7545,
      "Ġconsuelo": 7546,
      "ĠconsomÃ©": 7547,
      "Ġviejecita": 7548,
      "ormes": 7549,
      "Ġbesar": 7550,
      "Ġgaita": 7551,
      "Ġgatito": 7552,
      "ĠgaznÃ¡": 7553,
      "Ġfies": 7554,
      "Ġfiel": 7555,
      "Ġfila": 7556,
      "Ġfija": 7557,
      "Ġfije": 7558,
      "Ġfichas": 7559,
      "parlo": 7560,
      "parnos": 7561,
      "duidad": 7562,
      "Ġenfoque": 7563,
      "Ġenfriar": 7564,
      "ĠAnita": 7565,
      "ĠAngus": 7566,
      "Ġfurioso": 7567,
      "ĠNaciones": 7568,
      "ĠNacionales": 7569,
      "brarse": 7570,
      "Ġcanal": 7571,
      "Ġcanita": 7572,
      "ĠcanciÃ³n": 7573,
      "Ġcandor": 7574,
      "Ġcanijo": 7575,
      "cismo": 7576,
      "Ġestuvi": 7577,
      "Ġestufa": 7578,
      "Ġestupefa": 7579,
      "Ġimportancia": 7580,
      "Ġfelpa": 7581,
      "Ġirrig": 7582,
      "Ġirracionales": 7583,
      "chosos": 7584,
      "Mejor": 7585,
      "fila": 7586,
      "ĠarreÃ³": 7587,
      "Ġarreado": 7588,
      "rosos": 7589,
      "Ġcitas": 7590,
      "Ġpuesta": 7591,
      "Ġpuestos": 7592,
      "fael": 7593,
      "fato": 7594,
      "tÃ¡is": 7595,
      "ĠjoyerÃŃa": 7596,
      "ĠlargÃ³": 7597,
      "ĠclÃŃnica": 7598,
      "ĠpostÃŃn": 7599,
      "ĠposesiÃ³n": 7600,
      "Ġposibles": 7601,
      "Ġtrece": 7602,
      "Ġgolfo": 7603,
      "Ġgustaba": 7604,
      "Ġgustaban": 7605,
      "abanchel": 7606,
      "ĠconocÃŃa": 7607,
      "Ġconocidas": 7608,
      "Ġcamarones": 7609,
      "Ġcamareras": 7610,
      "cinos": 7611,
      "Ġdoble": 7612,
      "Ġliar": 7613,
      "Ġlibre": 7614,
      "Ġhoriz": 7615,
      "Ġhorno": 7616,
      "Ġhornillo": 7617,
      "Ġvestidos": 7618,
      "Ġvasos": 7619,
      "ĠhablarÃ©": 7620,
      "Ġhablarle": 7621,
      "Ġhablaremos": 7622,
      "Ġesperas": 7623,
      "Ġesperaba": 7624,
      "Ġesperaban": 7625,
      "iÃ©ndose": 7626,
      "perar": 7627,
      "Ġcabos": 7628,
      "Ġcabre": 7629,
      "Ġcabellos": 7630,
      "ĠAstorga": 7631,
      "ĠAstillita": 7632,
      "Ġlevantan": 7633,
      "Ġpelma": 7634,
      "Ġpellejo": 7635,
      "Ġmami": 7636,
      "ĠpasarÃŃa": 7637,
      "Ġempezado": 7638,
      "Ġempezaron": 7639,
      "Ġnueva": 7640,
      "Ġnombrar": 7641,
      "ĠDebe": 7642,
      "ĠDepÃ³sito": 7643,
      "Ġpodrida": 7644,
      "Ġperspectiva": 7645,
      "Entendido": 7646,
      "Ġsomanta": 7647,
      "Ġvientos": 7648,
      "Ġsillas": 7649,
      "Ġpanza": 7650,
      "Ġpanderete": 7651,
      "Ġtranscur": 7652,
      "Ġmarchaba": 7653,
      "Ġmarcharse": 7654,
      "Ġmarcharon": 7655,
      "Ãīl": 7656,
      "Ãīsa": 7657,
      "ÃŃsimos": 7658,
      "Ġespejito": 7659,
      "Ġbebido": 7660,
      "Ġconfia": 7661,
      "Ġconfort": 7662,
      "Ġfumarse": 7663,
      "ĠSocial": 7664,
      "Ġmayo": 7665,
      "ĠmayÃºs": 7666,
      "Ġpringar": 7667,
      "Ġpringado": 7668,
      "Ġprincesa": 7669,
      "Ġarregle": 7670,
      "Ġarreglas": 7671,
      "Ġarreglen": 7672,
      "Ġarreglaba": 7673,
      "ĠlibrerÃŃa": 7674,
      "Ġadentro": 7675,
      "Ġadvier": 7676,
      "Ġadquisi": 7677,
      "Ġnegarse": 7678,
      "Ã¡rdese": 7679,
      "Ġblandos": 7680,
      "Ġfama": 7681,
      "Ġviolento": 7682,
      "Ġinterna": 7683,
      "Ġinterior": 7684,
      "Ġintervenir": 7685,
      "Ġinterviene": 7686,
      "Ġintervino": 7687,
      "Ġinteresante": 7688,
      "Ġpaseo": 7689,
      "Ġpasear": 7690,
      "ĠpaseÃŃto": 7691,
      "Ġjudi": 7692,
      "Ġjuega": 7693,
      "ĠdÃ©me": 7694,
      "Ġderechos": 7695,
      "Ġplate": 7696,
      "Ġplacer": 7697,
      "Ġmonda": 7698,
      "Ġmoneda": 7699,
      "Ġmoren": 7700,
      "Ġregla": 7701,
      "Ġreglas": 7702,
      "Ġregale": 7703,
      "ĠllegarÃ¡": 7704,
      "paÃ±ÃŃa": 7705,
      "Ġpreocuparnos": 7706,
      "Ġazu": 7707,
      "Ġazorada": 7708,
      "cional": 7709,
      "cionado": 7710,
      "Ġcaries": 7711,
      "Ġcaricia": 7712,
      "Ġpalabritas": 7713,
      "Ġfamilias": 7714,
      "Ġpesca": 7715,
      "Ġpesado": 7716,
      "Ġsuelta": 7717,
      "Ġfox": 7718,
      "Ġoli": 7719,
      "Ġruido": 7720,
      "Ġruina": 7721,
      "Ġpitillera": 7722,
      "tillado": 7723,
      "ĠextraÃ±Ã³": 7724,
      "Ġextraordinar": 7725,
      "Ġescritores": 7726,
      "Ġmayorcitos": 7727,
      "Ġharte": 7728,
      "ĠharÃ©": 7729,
      "Ġharto": 7730,
      "ĠharÃŃan": 7731,
      "ĠMedicina": 7732,
      "Ġdespier": 7733,
      "icios": 7734,
      "Ġlimpiar": 7735,
      "ĠcenÃ©": 7736,
      "Ġpierde": 7737,
      "Ġpierden": 7738,
      "Ġtemplado": 7739,
      "Ġhumana": 7740,
      "Ġhumano": 7741,
      "Ġhumanos": 7742,
      "Ġvisillos": 7743,
      "Ġgasta": 7744,
      "Ġgastos": 7745,
      "Ġgastarse": 7746,
      "ĠSantia": 7747,
      "ĠVecino": 7748,
      "Ġchata": 7749,
      "ĠchapÃŃn": 7750,
      "Ġchavea": 7751,
      "Ġapartando": 7752,
      "Ġresplandor": 7753,
      "Ġsilenciosa": 7754,
      "Ġimpe": 7755,
      "Ġimitador": 7756,
      "ĠÃºnica": 7757,
      "Ġsangu": 7758,
      "ĠmercerÃŃa": 7759,
      "Ġtele": 7760,
      "Ġtrasero": 7761,
      "Ġtrastor": 7762,
      "Ġtraspas": 7763,
      "Ġborda": 7764,
      "Ġbordes": 7765,
      "Ġmirares": 7766,
      "ĠTodavÃŃa": 7767,
      "ĠromÃ¡n": 7768,
      "Ġromano": 7769,
      "Ġpreguntas": 7770,
      "Ġveinticuatro": 7771,
      "ĠveintitrÃ©s": 7772,
      "Ġveintitantos": 7773,
      "olado": 7774,
      "Ġflorales": 7775,
      "Ġflorerito": 7776,
      "ĠRed": 7777,
      "ĠRetiro": 7778,
      "Ġamorosas": 7779,
      "Conque": 7780,
      "Conoces": 7781,
      "dancia": 7782,
      "tril": 7783,
      "trica": 7784,
      "Ġcrujir": 7785,
      "estaciones": 7786,
      "Ġpuntera": 7787,
      "Ġpuntillas": 7788,
      "ĠmÃ©rito": 7789,
      "Ġtirar": 7790,
      "Ġtiras": 7791,
      "Poco": 7792,
      "udante": 7793,
      "Ġatrever": 7794,
      "Ġtoros": 7795,
      "Ġtorero": 7796,
      "Ġtortel": 7797,
      "Ġnovelas": 7798,
      "Ġcontrato": 7799,
      "Ġahorra": 7800,
      "Ġahorcar": 7801,
      "Ġahorcan": 7802,
      "Ġahorrado": 7803,
      "ĠÃ©stas": 7804,
      "Ġponerle": 7805,
      "Ġsienten": 7806,
      "Ġsentar": 7807,
      "ĠsentÃŃa": 7808,
      "Ġsentarse": 7809,
      "ĠsentÃ¡ndose": 7810,
      "ĠautobÃºs": 7811,
      "Ġtercie": 7812,
      "Ġterciopelo": 7813,
      "Ġtribu": 7814,
      "Ġtribun": 7815,
      "Ġvari": 7816,
      "Ġvariar": 7817,
      "Ġencargo": 7818,
      "Ġculito": 7819,
      "Ġrevienta": 7820,
      "Ġrevuelto": 7821,
      "Ġentienden": 7822,
      "blÃ³": 7823,
      "ctitud": 7824,
      "cticante": 7825,
      "mentales": 7826,
      "Ġsorda": 7827,
      "Ġsorbe": 7828,
      "Ġsorbo": 7829,
      "Ġsordidez": 7830,
      "Ġbanqueta": 7831,
      "Ġgorri": 7832,
      "Ġgorro": 7833,
      "Ġgordas": 7834,
      "Ġreciba": 7835,
      "ĠrecibiÃ³": 7836,
      "Ġrecibir": 7837,
      "ĠhablÃ³": 7838,
      "Ġacosado": 7839,
      "Ġacostarse": 7840,
      "Ġacabado": 7841,
      "Ġacabaron": 7842,
      "Ġolvidas": 7843,
      "Ġolvidando": 7844,
      "Ġolvidado": 7845,
      "Ġembo": 7846,
      "Ġembria": 7847,
      "Ġdecentes": 7848,
      "Ġmerecer": 7849,
      "Ġmereces": 7850,
      "ĠmerecÃŃa": 7851,
      "Ġquinto": 7852,
      "Ġnegras": 7853,
      "Ġnegros": 7854,
      "Ġhonor": 7855,
      "Ġhonra": 7856,
      "Ġhonrada": 7857,
      "Ġencom": 7858,
      "cillos": 7859,
      "Ġdesnudo": 7860,
      "Ġdesnudas": 7861,
      "Ġpermanencia": 7862,
      "Ġapoyados": 7863,
      "Ġrespetuoso": 7864,
      "Ġordenancis": 7865,
      "ĠdejarÃ¡s": 7866,
      "Quiero": 7867,
      "AllÃŃ": 7868,
      "Ġsentada": 7869,
      "Ġpatada": 7870,
      "Ġasiduidad": 7871,
      "Ġllevarlo": 7872,
      "Ġligero": 7873,
      "Ġligeros": 7874,
      "Ġatento": 7875,
      "Ġatender": 7876,
      "ĠplantÃ³": 7877,
      "Ġtierra": 7878,
      "ĠhistÃ³rica": 7879,
      "Ġescapar": 7880,
      "Ġentere": 7881,
      "ĠMorales": 7882,
      "ĠMorrÃ¡zo": 7883,
      "ĠArmada": 7884,
      "Ġdescuida": 7885,
      "Ġdescuento": 7886,
      "Ġbajaba": 7887,
      "Ġexplic": 7888,
      "Ġexplicar": 7889,
      "Ġexplique": 7890,
      "Ġempleada": 7891,
      "Ġsacarle": 7892,
      "Ġsacarlo": 7893,
      "ĠtomarÃ©": 7894,
      "Ġtomarnos": 7895,
      "Ġpudiese": 7896,
      "Ġpudieron": 7897,
      "Ġabrirle": 7898,
      "Ġcigarra": 7899,
      "Ġtremendas": 7900,
      "ĠpolÃŃticas": 7901,
      "Ġnecesi": 7902,
      "Ġnecesita": 7903,
      "Ġnecesito": 7904,
      "Ġnecesidad": 7905,
      "Ġnecesidades": 7906,
      "Pobrecita": 7907,
      "Ġzor": 7908,
      "ĠÃīsa": 7909,
      "ĠÃītica": 7910,
      "ĠÃīste": 7911,
      "ĠquedarÃ¡": 7912,
      "Ġconversaciones": 7913,
      "ĠMiguel": 7914,
      "Ġanimada": 7915,
      "Ġanimales": 7916,
      "ĠcomprarÃ©": 7917,
      "Ġcomprarle": 7918,
      "Ġcomprarme": 7919,
      "Ġcomprarles": 7920,
      "ĠHacienda": 7921,
      "Ġimpresiones": 7922,
      "Ġexpuesto": 7923,
      "Ġexplota": 7924,
      "dinillo": 7925,
      "Ġpinza": 7926,
      "Ġpintor": 7927,
      "Ġpintar": 7928,
      "Ġdedican": 7929,
      "Ġdedicada": 7930,
      "Ġmadres": 7931,
      "Ġmadera": 7932,
      "ĠentraÃ±": 7933,
      "Ġentraba": 7934,
      "Ġelegir": 7935,
      "Ġsuav": 7936,
      "Ġfea": 7937,
      "Ġfuesen": 7938,
      "Ġfueses": 7939,
      "Ġgrullo": 7940,
      "Ġsirva": 7941,
      "ĠsiguiÃ³": 7942,
      "ĠCarlos": 7943,
      "ĠCarrera": 7944,
      "ĠCarabanchel": 7945,
      "ĠSonrÃŃe": 7946,
      "Ġrecuerdos": 7947,
      "ĠrÃŃÃ±ones": 7948,
      "ĠllamarÃ©": 7949,
      "ĠacordÃ³": 7950,
      "Ġprefer": 7951,
      "Ġvenirse": 7952,
      "Ġvenirnos": 7953,
      "Ġcorrector": 7954,
      "Ġtrabajan": 7955,
      "Ġpanaderos": 7956,
      "Ġpreocupaba": 7957,
      "geles": 7958,
      "gelito": 7959,
      "pone": 7960,
      "pondrÃŃa": 7961,
      "veselo": 7962,
      "ĠQuien": 7963,
      "Ġclasi": 7964,
      "ĠtosiÃ³": 7965,
      "Ġhotel": 7966,
      "Ã¡bamos": 7967,
      "Ã©rmelo": 7968,
      "Ġlechuza": 7969,
      "ĠcompaÃ±ÃŃa": 7970,
      "Ġpoderosos": 7971,
      "Ġdeseos": 7972,
      "Ġdesequilib": 7973,
      "ĠcastaÃ±a": 7974,
      "Ġvirgo": 7975,
      "Ġvirtud": 7976,
      "Ġviruelas": 7977,
      "Ġtendero": 7978,
      "Ġreligiosas": 7979,
      "Ġacompas": 7980,
      "ĠacompaÃ±a": 7981,
      "ĠObras": 7982,
      "Ġestudios": 7983,
      "Ġestudiando": 7984,
      "Ġestudiantes": 7985,
      "Ġgolpecito": 7986,
      "Ġcriadita": 7987,
      "Ġcriaturas": 7988,
      "Ġimagen": 7989,
      "Ġimagino": 7990,
      "Ġmerendando": 7991,
      "Ġfavores": 7992,
      "jemplo": 7993,
      "Ġpulgas": 7994,
      "ĠpulmÃ³n": 7995,
      "ĠdeberÃ¡n": 7996,
      "Ġtropez": 7997,
      "Ġescuchar": 7998,
      "Ġescuchando": 7999,
      "Ġencendida": 8000,
      "Ġbureo": 8001,
      "Ġbulevar": 8002,
      "Ġgritar": 8003,
      "Ġgitana": 8004,
      "Ġgitano": 8005,
      "Ġgitanito": 8006,
      "ĠestreÃ±imiento": 8007,
      "Ġestrechitos": 8008,
      "ĠCasa": 8009,
      "ĠCastro": 8010,
      "Ġverdecito": 8011,
      "ĠFernanda": 8012,
      "ĠFernÃ¡ndez": 8013,
      "Ġjunio": 8014,
      "Ġaprendido": 8015,
      "ĠaprendÃŃ": 8016,
      "Ġpropio": 8017,
      "Ġpropuesto": 8018,
      "ĠresultÃ³": 8019,
      "Ġresultado": 8020,
      "plicando": 8021,
      "Ġmorirse": 8022,
      "SeÃ±ores": 8023,
      "fasis": 8024,
      "Ġjaula": 8025,
      "Ġdenunci": 8026,
      "Ġcep": 8027,
      "Ġceja": 8028,
      "Ġclava": 8029,
      "Ġclavos": 8030,
      "Ġclara": 8031,
      "Ġpiensan": 8032,
      "Ġdeform": 8033,
      "Ġdefender": 8034,
      "Ġdefini": 8035,
      "Ġquicio": 8036,
      "Ġtablas": 8037,
      "Ġtabique": 8038,
      "Ġterneza": 8039,
      "Ġnaranja": 8040,
      "Ġhonesta": 8041,
      "Ġhonestas": 8042,
      "Ġhonestamente": 8043,
      "ĠcuraciÃ³n": 8044,
      "ĠChus": 8045,
      "ĠChamar": 8046,
      "Ġdescansa": 8047,
      "Ġmilagros": 8048,
      "Ġrecorre": 8049,
      "Ġvioleta": 8050,
      "Ġsobrino": 8051,
      "Ġsobrinos": 8052,
      "Ġdistraer": 8053,
      "ĠdistraÃŃdo": 8054,
      "Ġpresentan": 8055,
      "Ġpresentarse": 8056,
      "ĠpequeÃ±ita": 8057,
      "CuÃ¡nta": 8058,
      "CuÃ¡ntos": 8059,
      "Ġsentimentales": 8060,
      "Ġlavabo": 8061,
      "Ġprefiero": 8062,
      "Ġprefieren": 8063,
      "Michino": 8064,
      "dÃ³name": 8065,
      "posiciones": 8066,
      "Ġdoradas": 8067,
      "Ġcircun": 8068,
      "Ġacatarrado": 8069,
      "Ġapaga": 8070,
      "Ġapagar": 8071,
      "Ġapagada": 8072,
      "Ġpisos": 8073,
      "Ġvals": 8074,
      "Ġvalor": 8075,
      "Ġvalgo": 8076,
      "Ġvalores": 8077,
      "Ġfrescas": 8078,
      "Ġfilas": 8079,
      "Ġfiloso": 8080,
      "Ġfrunce": 8081,
      "Ġfruncido": 8082,
      "Ġmuevo": 8083,
      "ĠLlegÃ³": 8084,
      "ĠsimpÃ¡tico": 8085,
      "Ġsimplemente": 8086,
      "ĠcasarÃ©": 8087,
      "ĠValde": 8088,
      "Ġinforma": 8089,
      "Ġinfernal": 8090,
      "Ġrascando": 8091,
      "ĠSeguimos": 8092,
      "Ġresign": 8093,
      "Ġdistingue": 8094,
      "ĠdÃ©jala": 8095,
      "ĠextraÃ±ada": 8096,
      "DÃ©jalo": 8097,
      "PatÃ³n": 8098,
      "Todos": 8099,
      "ioridad": 8100,
      "piros": 8101,
      "Ġcriminal": 8102,
      "Ġasegurar": 8103,
      "Ġpluma": 8104,
      "Ġplumero": 8105,
      "Ġprimo": 8106,
      "Ġmening": 8107,
      "Ġmendigo": 8108,
      "Ġtumbos": 8109,
      "Ġnervios": 8110,
      "Ġhumo": 8111,
      "Ġconvento": 8112,
      "Ġconvencer": 8113,
      "Ġconfidente": 8114,
      "Ġflato": 8115,
      "Ġflaccidas": 8116,
      "legiata": 8117,
      "Ġofrecerle": 8118,
      "ĠMallarmÃ©": 8119,
      "ĠPalom": 8120,
      "ĠCork": 8121,
      "ĠComunica": 8122,
      "ĠCompaÃ±ÃŃa": 8123,
      "Ġreunido": 8124,
      "Ġreunidos": 8125,
      "Ġretirarme": 8126,
      "Ġchupa": 8127,
      "Ġrendido": 8128,
      "Ġtiemblan": 8129,
      "Ġasomaba": 8130,
      "Ġasomaron": 8131,
      "Ġasomaban": 8132,
      "ĠBancos": 8133,
      "Ġdiscurso": 8134,
      "Ġdiscursos": 8135,
      "Ġrepresent": 8136,
      "ĠesperarÃ©": 8137,
      "Ġregalos": 8138,
      "ĠregalÃ³": 8139,
      "Ġcruzadas": 8140,
      "Ġtemblorosa": 8141,
      "Ġtembloroso": 8142,
      "Dile": 8143,
      "Ġuvas": 8144,
      "Ġacueste": 8145,
      "Ġmolesta": 8146,
      "Ġquitaba": 8147,
      "ĠnÃºmeros": 8148,
      "Ġsemanas": 8149,
      "Ġveladores": 8150,
      "ĠenseÃ±a": 8151,
      "ĠenseÃ±Ã¡ndole": 8152,
      "Ġbalde": 8153,
      "Ġbombones": 8154,
      "Ġfaroles": 8155,
      "Ġgallo": 8156,
      "Ġdelicados": 8157,
      "Ġdelicadas": 8158,
      "Ġdigno": 8159,
      "ĠdigestiÃ³n": 8160,
      "ĠCielo": 8161,
      "ĠCiudad": 8162,
      "ĠCojon": 8163,
      "ĠColegiata": 8164,
      "Ġdespacho": 8165,
      "Ġremora": 8166,
      "Ġremolque": 8167,
      "Ġeduca": 8168,
      "Ġindividu": 8169,
      "Ġintenso": 8170,
      "Ġintenciones": 8171,
      "Ġcallada": 8172,
      "Ġcatedral": 8173,
      "Ġaprecia": 8174,
      "ĠapretÃ³": 8175,
      "Ġproblemas": 8176,
      "Ġaburri": 8177,
      "Ġaburrido": 8178,
      "Ġdiscreto": 8179,
      "Ġdiscretas": 8180,
      "Ġcaballeros": 8181,
      "ĠJavierÃŃn": 8182,
      "ĠcariÃ±osos": 8183,
      "Ġautoridad": 8184,
      "Ġautoridades": 8185,
      "ĠdominÃ³": 8186,
      "Ġdominio": 8187,
      "Ġanimalidad": 8188,
      "Chist": 8189,
      "Puedo": 8190,
      "Ġciencia": 8191,
      "Ġagon": 8192,
      "Ġagrios": 8193,
      "Ġajada": 8194,
      "Ġajena": 8195,
      "Ġademanes": 8196,
      "Ġpusiera": 8197,
      "Ġmentira": 8198,
      "ĠtrÃ¡g": 8199,
      "Ġterminar": 8200,
      "ĠterminÃ³": 8201,
      "Ġterminada": 8202,
      "Ġquejaba": 8203,
      "ĠquejÃ¡ndose": 8204,
      "recidos": 8205,
      "ĠengaÃ±Ã³": 8206,
      "Ġbene": 8207,
      "ĠbendiciÃ³n": 8208,
      "Ġbreves": 8209,
      "Ġconseguir": 8210,
      "Ġsucede": 8211,
      "Ġsucedido": 8212,
      "Ġsujeta": 8213,
      "Ġsujetar": 8214,
      "Ġalumbrar": 8215,
      "Ġcuaderno": 8216,
      "Ġcuadernito": 8217,
      "ĠPerpetu": 8218,
      "Ġdirecto": 8219,
      "ĠdirecciÃ³n": 8220,
      "Ġdirector": 8221,
      "ĠRafael": 8222,
      "Ġdesayun": 8223,
      "ĠdespidiÃ³": 8224,
      "Ġrepetidos": 8225,
      "Ġreflejan": 8226,
      "Ġedictos": 8227,
      "Ġeditores": 8228,
      "Ġeditorial": 8229,
      "Ġinvite": 8230,
      "Ġinvitarte": 8231,
      "Ġllenan": 8232,
      "Ġamarga": 8233,
      "Ġamarillos": 8234,
      "Ġamargura": 8235,
      "Ġarrobas": 8236,
      "Ġarrastrar": 8237,
      "Ġpicota": 8238,
      "Ġpensionistas": 8239,
      "Ġdisgustos": 8240,
      "Ġaguantaba": 8241,
      "Ġconforma": 8242,
      "Ġconforme": 8243,
      "Ġconformidad": 8244,
      "Ġadmi": 8245,
      "ĠencontrarÃ¡": 8246,
      "Ġencontraremos": 8247,
      "Ġtemblando": 8248,
      "ĠautÃ©ntico": 8249,
      "Ġacordaron": 8250,
      "ĠdifÃŃciles": 8251,
      "Ġresignaciones": 8252,
      "Ġalborote": 8253,
      "Ġalborotar": 8254,
      "PerdÃ³name": 8255,
      "ĠjergÃ³n": 8256,
      "Ġjeribe": 8257,
      "Ġjersey": 8258,
      "Ġceleb": 8259,
      "Ġatraves": 8260,
      "Ġpuros": 8261,
      "Ġpurpur": 8262,
      "Ġtema": 8263,
      "Ġtemer": 8264,
      "tamante": 8265,
      "Ġbaraja": 8266,
      "Ġconsejos": 8267,
      "Ġsuplicantes": 8268,
      "Ġforrado": 8269,
      "ĠfÃ¡ciles": 8270,
      "Ġalimentos": 8271,
      "Ġgemelos": 8272,
      "Ġmusical": 8273,
      "ĠAutor": 8274,
      "Ġdivino": 8275,
      "ĠRuiz": 8276,
      "ĠRosalÃŃa": 8277,
      "ĠCreo": 8278,
      "Ġdespedir": 8279,
      "ĠSagrada": 8280,
      "Ġinoport": 8281,
      "Ġcharlan": 8282,
      "Ġcapri": 8283,
      "Ġcapilla": 8284,
      "Ġcolegi": 8285,
      "Ġcolegio": 8286,
      "Ġtratarlo": 8287,
      "Ġapuro": 8288,
      "Ġproducen": 8289,
      "ĠproducciÃ³n": 8290,
      "Ġabandonado": 8291,
      "ĠAlfonso": 8292,
      "Ġvendedores": 8293,
      "ĠGloria": 8294,
      "Ġbautizo": 8295,
      "Ġexigencias": 8296,
      "ĠsacÃ¡ndole": 8297,
      "ĠprÃ³ximo": 8298,
      "Ġpalomas": 8299,
      "Ġconsolar": 8300,
      "Ġconsolarla": 8301,
      "Ġconsulta": 8302,
      "fectible": 8303,
      "ĠpelÃŃcula": 8304,
      "ĠSocorro": 8305,
      "ĠarreglarÃ¡n": 8306,
      "Ġadquirido": 8307,
      "Ã¡rbara": 8308,
      "ministrativo": 8309,
      "Ġantiguo": 8310,
      "Ġentornado": 8311,
      "ĠBartolo": 8312,
      "Ġorganizar": 8313,
      "Ġorganizan": 8314,
      "Ġorganizado": 8315,
      "TÃ³mala": 8316,
      "forma": 8317,
      "Ġzarzuela": 8318,
      "Ġlance": 8319,
      "Ġlanzarse": 8320,
      "Ġaficionado": 8321,
      "Ġpicardeado": 8322,
      "Ġtasca": 8323,
      "Ġturbia": 8324,
      "ĠladrÃ³n": 8325,
      "Ġladrones": 8326,
      "Ġhinchado": 8327,
      "Ġsecreto": 8328,
      "Ġviniendo": 8329,
      "Ã©ctico": 8330,
      "Ġbillete": 8331,
      "Ġcontigua": 8332,
      "Ġconvecina": 8333,
      "Ġconvecino": 8334,
      "Ġsufrag": 8335,
      "Ġfrac": 8336,
      "Ġflexible": 8337,
      "Ġformas": 8338,
      "Ġformal": 8339,
      "Ġalcanzar": 8340,
      "ĠEchegaray": 8341,
      "timismo": 8342,
      "Ġoyen": 8343,
      "Ġoyes": 8344,
      "Ġoperen": 8345,
      "ĠMerche": 8346,
      "ĠRespira": 8347,
      "ĠReserva": 8348,
      "ĠCamilo": 8349,
      "Ġdeshon": 8350,
      "Ġdesdicha": 8351,
      "ĠSindica": 8352,
      "Ġredonde": 8353,
      "Ġevacu": 8354,
      "Ġsofocado": 8355,
      "Ġsofocada": 8356,
      "Ġingenua": 8357,
      "Ġcalceta": 8358,
      "ĠcalentÃ¡ndose": 8359,
      "Ġcauces": 8360,
      "ĠTome": 8361,
      "ĠEstoy": 8362,
      "Ġvocecita": 8363,
      "Ġapuntados": 8364,
      "ĠGuÃ¡rdese": 8365,
      "Ġespinazo": 8366,
      "ĠempujÃ³": 8367,
      "Ġcolabora": 8368,
      "Ġpeligro": 8369,
      "Ġpeligroso": 8370,
      "ĠinterrumpiÃ³": 8371,
      "ĠaparecÃŃa": 8372,
      "Ġtrasnochar": 8373,
      "ĠlÃ¡pices": 8374,
      "ĠdomÃ©stico": 8375,
      "ĠdomÃ©sticos": 8376,
      "ĠdecÃŃrmelo": 8377,
      "ĠpermitiÃ³": 8378,
      "Ġpermitido": 8379,
      "ĠagradarÃŃa": 8380,
      "Ġzumban": 8381,
      "Ġimpresionado": 8382,
      "Ġdescansado": 8383,
      "Ġhumildemente": 8384,
      "Ġatavismos": 8385,
      "Ġabsolu": 8386,
      "Ġorgulloso": 8387,
      "ĠÃģngulo": 8388,
      "ĠÃģngeles": 8389,
      "ĠpÃ¡gina": 8390,
      "Ġacostumbrados": 8391,
      "busch": 8392,
      "Ġrancio": 8393,
      "Ġurgente": 8394,
      "ĠcÃ¡lculos": 8395,
      "ĠcrÃ©ame": 8396,
      "ĠcrÃ©dito": 8397,
      "ĠaÃ±adiÃ³": 8398,
      "ĠaÃ±adir": 8399,
      "Ġagacha": 8400,
      "Ġpradera": 8401,
      "Ġpracticante": 8402,
      "Ġpintada": 8403,
      "Ġdevuelto": 8404,
      "Ġdevuelve": 8405,
      "Ġtuerce": 8406,
      "Ġhuyendo": 8407,
      "Ġsexo": 8408,
      "Ġenvuelta": 8409,
      "ciÃ©ndole": 8410,
      "ĠbiografÃŃa": 8411,
      "Ġbruto": 8412,
      "Ġconducir": 8413,
      "Ġconcurso": 8414,
      "Ġconcursos": 8415,
      "Ġflote": 8416,
      "ĠfirmÃ³": 8417,
      "Ġfundamento": 8418,
      "Ġoptimismo": 8419,
      "Ġobede": 8420,
      "ĠMurillo": 8421,
      "ĠcomenzÃ³": 8422,
      "ĠcomuniÃ³n": 8423,
      "Ġcurs": 8424,
      "ĠPrefier": 8425,
      "Ġdivierte": 8426,
      "Ġdivierten": 8427,
      "ĠRivera": 8428,
      "ĠCalvo": 8429,
      "Ġdescomunal": 8430,
      "Ġretortijones": 8431,
      "Ġrepite": 8432,
      "Ġrebosante": 8433,
      "Ġrebosantes": 8434,
      "Ġhablase": 8435,
      "Ġindefectible": 8436,
      "ĠpastelerÃŃa": 8437,
      "Ġanoche": 8438,
      "Ġcochinos": 8439,
      "Ġcopeo": 8440,
      "Ġcopeja": 8441,
      "Ġpaisajes": 8442,
      "Ġcampanas": 8443,
      "Ġperfecta": 8444,
      "Ġperplejo": 8445,
      "Ġperpleja": 8446,
      "ĠtrajÃŃn": 8447,
      "Ġrumbo": 8448,
      "Ġrumores": 8449,
      "ĠFilosofÃŃa": 8450,
      "ĠFlores": 8451,
      "ĠFlorent": 8452,
      "Ġjusticia": 8453,
      "Ġmarqueses": 8454,
      "Ġmarquesito": 8455,
      "ĠasustÃ³": 8456,
      "Ġignor": 8457,
      "Ġignora": 8458,
      "Ġpretensiones": 8459,
      "Ġabundante": 8460,
      "Ġabundancia": 8461,
      "Ġcompostura": 8462,
      "ĠcomposiciÃ³n": 8463,
      "ĠBusca": 8464,
      "ĠBustamante": 8465,
      "ĠBurgos": 8466,
      "Ġsacase": 8467,
      "Ġduquesa": 8468,
      "Ġtarjeta": 8469,
      "Ġtarjetas": 8470,
      "Ġmodesto": 8471,
      "Ġreponerse": 8472,
      "Ġdobla": 8473,
      "Ġcaballo": 8474,
      "Ġpellizca": 8475,
      "Ġbeatitud": 8476,
      "ĠSobrÃ³n": 8477,
      "ĠSobrino": 8478,
      "Ã¡rsela": 8479,
      "Ġmoribundo": 8480,
      "Ġfatalidad": 8481,
      "Ġayudarnos": 8482,
      "Ġocurrencia": 8483,
      "Ġprofundidad": 8484,
      "Ġgobernador": 8485,
      "Ġgobernantes": 8486,
      "Ġestremece": 8487,
      "ĠCorreos": 8488,
      "Ġminutos": 8489,
      "ĠminÃºsculo": 8490,
      "ĠminÃºscula": 8491,
      "ĠautomÃ³vil": 8492,
      "ĠautomÃ³viles": 8493,
      "ĠAuxilio": 8494,
      "ĠAuxiliadora": 8495,
      "ĠreconocerÃ¡": 8496,
      "ĠespaÃ±olas": 8497,
      "Ġenamorado": 8498,
      "Ġestraperlistas": 8499,
      "Ġhabituales": 8500,
      "Ġprecipitadamente": 8501,
      "Ġmonserga": 8502,
      "Ġmonsergas": 8503,
      "Bobo": 8504,
      "Bestia": 8505,
      "CÃ¡lmese": 8506,
      "ERA": 8507,
      "SerÃ¡": 8508,
      "TrÃ¡eme": 8509,
      "stituto": 8510,
      "velt": 8511,
      "ĠdramÃ¡tico": 8512,
      "Ġderroteros": 8513,
      "Ġlineas": 8514,
      "Ġlisto": 8515,
      "ĠsartÃ©n": 8516,
      "Ġsargentos": 8517,
      "ĠcestÃ³n": 8518,
      "Ġciclista": 8519,
      "ĠcÃ©ntimos": 8520,
      "ĠcrÃ³nico": 8521,
      "Ġprisas": 8522,
      "Ġdetalle": 8523,
      "Ġdependiese": 8524,
      "Ġquisiese": 8525,
      "Ġtaller": 8526,
      "ĠtronÃŃo": 8527,
      "ĠnublÃ³": 8528,
      "ĠvÃŃbora": 8529,
      "Ġengorda": 8530,
      "Ġbrinda": 8531,
      "Ġconejos": 8532,
      "Ġconquista": 8533,
      "Ġcondiciones": 8534,
      "rillos": 8535,
      "Ġsulfam": 8536,
      "Ġsuprarren": 8537,
      "Ġsuplico": 8538,
      "Ġsuperioridad": 8539,
      "ĠfÃŃe": 8540,
      "Ġfolle": 8541,
      "ĠfrÃŃas": 8542,
      "Ġfantasma": 8543,
      "Ġalmuerza": 8544,
      "Ġglobos": 8545,
      "Ġgiros": 8546,
      "Ġgiratoria": 8547,
      "Ġobreros": 8548,
      "ĠMinisterio": 8549,
      "Ġcomentario": 8550,
      "ĠDirecciÃ³n": 8551,
      "ĠDÃ©jame": 8552,
      "ĠsiÃ©ntate": 8553,
      "ĠPablito": 8554,
      "ĠestÃºpida": 8555,
      "Ġdijimos": 8556,
      "Ġdijeron": 8557,
      "Ġpoema": 8558,
      "ĠRomanones": 8559,
      "ĠCincuenta": 8560,
      "ĠCaballerÃŃa": 8561,
      "Ġdescolor": 8562,
      "Ġdesmayados": 8563,
      "ĠdesanimÃ³": 8564,
      "ĠSilva": 8565,
      "Ġmimoso": 8566,
      "Ġreaccion": 8567,
      "Ġveterinario": 8568,
      "Ġsoplando": 8569,
      "Ġintacto": 8570,
      "Ġinventar": 8571,
      "ĠintentÃ³": 8572,
      "ĠinÃºtiles": 8573,
      "ĠllÃ©veselo": 8574,
      "Ġaniversario": 8575,
      "Ġchocolate": 8576,
      "ĠTelmo": 8577,
      "ĠFui": 8578,
      "Ġjardinillo": 8579,
      "ĠjurÃŃdico": 8580,
      "Ġjurado": 8581,
      "Ġtitube": 8582,
      "Ġargumentos": 8583,
      "Ġarrancar": 8584,
      "Ġarrimar": 8585,
      "Ġpicadura": 8586,
      "Ġasuntos": 8587,
      "Ġaposta": 8588,
      "ĠOnce": 8589,
      "Ġimpreciso": 8590,
      "Ġimprecisos": 8591,
      "ĠLeocadia": 8592,
      "ĠNinguno": 8593,
      "Ġexacto": 8594,
      "Ġtuberculosos": 8595,
      "Ġprueba": 8596,
      "ĠprenderÃŃas": 8597,
      "Ġcorderito": 8598,
      "Ġdisplicente": 8599,
      "Ġdisciplina": 8600,
      "Ġpresurosas": 8601,
      "Ġpresentimiento": 8602,
      "ĠriÃ±es": 8603,
      "Ġinsomn": 8604,
      "Ġsolitarios": 8605,
      "ĠtÃŃteres": 8606,
      "Ġclientela": 8607,
      "ĠclÃ¡sico": 8608,
      "Ġgolfear": 8609,
      "Ġliterario": 8610,
      "Ġconfundir": 8611,
      "Ġencuentras": 8612,
      "Ġromances": 8613,
      "ĠrevolviÃ³": 8614,
      "Ġrecibidor": 8615,
      "Ġdesagradable": 8616,
      "Ġiluminado": 8617,
      "ĠartÃŃculo": 8618,
      "Ġvirtuosa": 8619,
      "Ġreluciente": 8620,
      "Ġsombrereras": 8621,
      "Ġpulseras": 8622,
      "Ġbigotuda": 8623,
      "Ġobstin": 8624,
      "ĠÃĵigame": 8625,
      "ĠChurchill": 8626,
      "Ġcomprometido": 8627,
      "ĠfilÃ³sofo": 8628,
      "Ġhubiese": 8629,
      "ĠsobrarÃ¡": 8630,
      "ĠabstraÃŃda": 8631,
      "Ġindiferencia": 8632,
      "ĠExuperio": 8633,
      "Ġinteligente": 8634,
      "Ġcelebramos": 8635,
      "Ġconsecuencias": 8636,
      "Ġgemelitos": 8637,
      "Ġadopta": 8638,
      "ĠMerceditas": 8639,
      "Ġabsolutamente": 8640,
      "Ġhambriento": 8641,
      "Ġatropellan": 8642,
      "ĠhuÃ©spedes": 8643,
      "Ġconclusiones": 8644,
      "Ġgladiador": 8645,
      "Ġcastellano": 8646,
      "ĠeconÃ³micas": 8647,
      "ĠNavarrete": 8648,
      "Anoche": 8649,
      "CÃ³brese": 8650,
      "Joaqu": 8651,
      "Luisa": 8652,
      "Luchamos": 8653,
      "Londres": 8654,
      "Morir": 8655,
      "Madrid": 8656,
      "Pierrot": 8657,
      "Suerte": 8658,
      "Trini": 8659,
      "hrer": 8660,
      "hardilla": 8661,
      "kings": 8662,
      "Ġitali": 8663,
      "ĠÃ©nfasis": 8664,
      "Ġllover": 8665,
      "Ġlentitud": 8666,
      "ĠlÃ¡rgate": 8667,
      "Ġluminosa": 8668,
      "Ġsmokings": 8669,
      "ĠcoÃ±ac": 8670,
      "Ġclandestin": 8671,
      "Ġcegadora": 8672,
      "Ġczardas": 8673,
      "ĠcÃ¡rcel": 8674,
      "Ġcentral": 8675,
      "Ġajedrez": 8676,
      "ĠatÃ³nitos": 8677,
      "Ġagosto": 8678,
      "Ġaullido": 8679,
      "ĠplÃ¡tano": 8680,
      "Ġdegolla": 8681,
      "Ġtruchas": 8682,
      "ĠhÃºmedo": 8683,
      "Ġhimno": 8684,
      "ĠharagÃ¡n": 8685,
      "Ġesmalte": 8686,
      "Ġvamonos": 8687,
      "Ġvinagre": 8688,
      "Ġentierro": 8689,
      "Ġenroje": 8690,
      "Ġenlazadas": 8691,
      "Ġencantos": 8692,
      "ĠenÃ©rgico": 8693,
      "ĠenciÃ©nda": 8694,
      "Ġennegrecidos": 8695,
      "Ã¡ctica": 8696,
      "Ã©dulas": 8697,
      "ĠelÃ©ctrica": 8698,
      "ĠnoctÃ¡mbulos": 8699,
      "ĠbujÃŃas": 8700,
      "Ġcontemplan": 8701,
      "Ġalmend": 8702,
      "Ġalcalde": 8703,
      "Ġlocuaz": 8704,
      "Ġgaraje": 8705,
      "Ġgabanes": 8706,
      "Ġgarrote": 8707,
      "Ġmugriento": 8708,
      "Ġmembrete": 8709,
      "ĠMadame": 8710,
      "ĠDerecho": 8711,
      "Ġcuidadosamente": 8712,
      "ĠcuplÃ©s": 8713,
      "Ġcucharilla": 8714,
      "Ġcumparsita": 8715,
      "Ġcuchitril": 8716,
      "Ġsilogismo": 8717,
      "ĠPimentÃ³n": 8718,
      "ĠPÃºblicas": 8719,
      "ĠPreciados": 8720,
      "ĠPsicologÃŃa": 8721,
      "ĠElvÃŃrita": 8722,
      "Ġdiminuta": 8723,
      "Ġdiciembre": 8724,
      "Ġpopular": 8725,
      "ĠCristina": 8726,
      "ĠCrÃ©ame": 8727,
      "ĠColladense": 8728,
      "Ġdestornillada": 8729,
      "Ġdesmedrado": 8730,
      "Ġdesportillado": 8731,
      "Ġdesflecado": 8732,
      "Ġreborde": 8733,
      "Ġrebusca": 8734,
      "ĠLagasca": 8735,
      "Ġcasquivana": 8736,
      "Ġvictoria": 8737,
      "ĠVillalÃ³n": 8738,
      "Ġnietecito": 8739,
      "ĠintuiciÃ³n": 8740,
      "Ġinyecciones": 8741,
      "Ġinfieles": 8742,
      "Ġintimidad": 8743,
      "ĠinmutÃ³": 8744,
      "Ġinmediato": 8745,
      "Ġcalderilla": 8746,
      "Ġangelitos": 8747,
      "ĠJerÃ³nimo": 8748,
      "Ġchurros": 8749,
      "Ġchistosa": 8750,
      "Ġchamarilero": 8751,
      "Ġcartelito": 8752,
      "Ġmanifestaciones": 8753,
      "Ġcatarros": 8754,
      "Ġsinsabores": 8755,
      "Ġsiniestramente": 8756,
      "ĠTorrijos": 8757,
      "ĠrÃ¡bano": 8758,
      "ĠFalleciÃ³": 8759,
      "ĠFÃ¼hrer": 8760,
      "ĠEscorial": 8761,
      "ĠEstremera": 8762,
      "ĠEstanislao": 8763,
      "ĠRoosevelt": 8764,
      "ĠprecisiÃ³n": 8765,
      "Ġprejuicios": 8766,
      "Ġpregonero": 8767,
      "Ġproyectos": 8768,
      "ĠAlcÃ¡ntara": 8769,
      "ĠGobierno": 8770,
      "ĠGaldÃ¡cano": 8771,
      "Ġbazofia": 8772,
      "ĠCatÃ³lica": 8773,
      "ĠHernÃ¡ndez": 8774,
      "ĠHartzen": 8775,
      "Ġespiritual": 8776,
      "ĠBruno": 8777,
      "ĠBofarull": 8778,
      "ĠNegociado": 8779,
      "Ġsagrado": 8780,
      "Ġbocanada": 8781,
      "ĠdistribuciÃ³n": 8782,
      "ĠsabidurÃŃa": 8783,
      "Ġescalof": 8784,
      "Ġordinarieces": 8785,
      "Ġprestamista": 8786,
      "Ġentrecortado": 8787,
      "Ġrepublic": 8788,
      "Ġsolicitar": 8789,
      "ĠgaznÃ¡piros": 8790,
      "ĠAngustias": 8791,
      "Ġirrigador": 8792,
      "ĠadquisiciÃ³n": 8793,
      "Ġextraordinarias": 8794,
      "Ġembriagado": 8795,
      "Ġdesequilibrio": 8796,
      "Ġdenunciar": 8797,
      "Ġcircuns": 8798,
      "ĠinformaciÃ³n": 8799,
      "Ġmeningitis": 8800,
      "ĠComunicaciones": 8801,
      "ĠCojoncio": 8802,
      "Ġindividualmente": 8803,
      "ĠPerpetuo": 8804,
      "Ġjeribeques": 8805,
      "Ġpurpurina": 8806,
      "Ġinoportuno": 8807,
      "ĠSindicatos": 8808,
      "Ġsulfamidas": 8809,
      "Ġsuprarrenales": 8810,
      "JoaquÃŃn": 8811,
      "Ġclandestinidad": 8812,
      "!\".": 8813,
      "!-,": 8814,
      "!),": 8815,
      "\":": 8816,
      "\"...": 8817,
      ");": 8818,
      ",\"": 8819,
      ",..": 8820,
      "-:": 8821,
      "-Â¿": 8822,
      ".?": 8823,
      ".-Â¿": 8824,
      "?-": 8825,
      "?;": 8826,
      "?\".": 8827,
      "AG": 8828,
      "AL": 8829,
      "AM": 8830,
      "AP": 8831,
      "AR": 8832,
      "Af": 8833,
      "Ata": 8834,
      "Aqui": 8835,
      "Aguado": 8836,
      "Acep": 8837,
      "Acom": 8838,
      "Amigo": 8839,
      "Aquel": 8840,
      "Aquella": 8841,
      "Aparte": 8842,
      "AmÃ©n": 8843,
      "BC": 8844,
      "Be": 8845,
      "Bra": 8846,
      "Bilbao": 8847,
      "Busco": 8848,
      "Ci": 8849,
      "Co": 8850,
      "Car": 8851,
      "Cal": 8852,
      "Cam": 8853,
      "Col": 8854,
      "Cada": 8855,
      "Cum": 8856,
      "Cris": 8857,
      "Casi": 8858,
      "Cierra": 8859,
      "Cria": 8860,
      "CÃ³g": 8861,
      "Caball": 8862,
      "CERA": 8863,
      "CAP": 8864,
      "DA": 8865,
      "DO": 8866,
      "Da": 8867,
      "DÃ¡": 8868,
      "DÃŃa": 8869,
      "Dese": 8870,
      "Digo": 8871,
      "Deb": 8872,
      "Delante": 8873,
      "DiputaciÃ³n": 8874,
      "Dicen": 8875,
      "EG": 8876,
      "EN": 8877,
      "Ex": 8878,
      "Evi": 8879,
      "Ese": 8880,
      "Esa": 8881,
      "Ella": 8882,
      "ELA": 8883,
      "Ejemplo": 8884,
      "ECAP": 8885,
      "EDO": 8886,
      "Fue": 8887,
      "Fuma": 8888,
      "FÃŃjate": 8889,
      "Feliz": 8890,
      "Gan": 8891,
      "Gol": 8892,
      "Geno": 8893,
      "Gato": 8894,
      "Huel": 8895,
      "Hila": 8896,
      "IT": 8897,
      "Ide": 8898,
      "Ibrahim": 8899,
      "Imagen": 8900,
      "Ju": 8901,
      "Jur": 8902,
      "Julio": 8903,
      "LM": 8904,
      "LT": 8905,
      "Li": 8906,
      "Ll": 8907,
      "Lu": 8908,
      "Lad": 8909,
      "Limp": 8910,
      "Luego": 8911,
      "Largo": 8912,
      "Men": 8913,
      "Mer": 8914,
      "Man": 8915,
      "MÃ¡": 8916,
      "MÃ©": 8917,
      "Melo": 8918,
      "Mala": 8919,
      "MarÃŃa": 8920,
      "Manda": 8921,
      "Menudo": 8922,
      "Momento": 8923,
      "NDA": 8924,
      "Otro": 8925,
      "Obra": 8926,
      "OLM": 8927,
      "Pas": 8928,
      "Pon": 8929,
      "Pan": 8930,
      "Pal": 8931,
      "Pien": 8932,
      "PÃ³n": 8933,
      "PÃ¡s": 8934,
      "Padre": 8935,
      "Pelo": 8936,
      "Peg": 8937,
      "Pase": 8938,
      "Pirula": 8939,
      "Pens": 8940,
      "Pensar": 8941,
      "Ros": 8942,
      "Rom": 8943,
      "Ram": 8944,
      "Rela": 8945,
      "RIM": 8946,
      "ROS": 8947,
      "Sr": 8948,
      "SuÃ©": 8949,
      "Sales": 8950,
      "Salta": 8951,
      "SÃ³lo": 8952,
      "Sospe": 8953,
      "Subl": 8954,
      "Solo": 8955,
      "Tu": 8956,
      "Tar": 8957,
      "Tom": 8958,
      "TÃŃa": 8959,
      "Tran": 8960,
      "Tica": 8961,
      "Tener": 8962,
      "Traba": 8963,
      "Teresa": 8964,
      "Tienen": 8965,
      "Uf": 8966,
      "ULA": 8967,
      "UAR": 8968,
      "UNDA": 8969,
      "Vay": 8970,
      "Visi": 8971,
      "Ventura": 8972,
      "Vosotros": 8973,
      "Veo": 8974,
      "Viva": 8975,
      "Vive": 8976,
      "Voces": 8977,
      "VEDO": 8978,
      "Wag": 8979,
      "ao": 8980,
      "au": 8981,
      "aun": 8982,
      "ate": 8983,
      "aÃ±a": 8984,
      "agu": 8985,
      "aza": 8986,
      "aciÃ³n": 8987,
      "atra": 8988,
      "aquÃŃ": 8989,
      "auti": 8990,
      "avil": 8991,
      "avent": 8992,
      "ahÃŃ": 8993,
      "aunque": 8994,
      "ajante": 8995,
      "aplicando": 8996,
      "bÃ³": 8997,
      "bÃ¡": 8998,
      "bal": 8999,
      "bÃ³n": 9000,
      "bando": 9001,
      "bol": 9002,
      "bul": 9003,
      "baba": 9004,
      "bones": 9005,
      "bese": 9006,
      "boso": 9007,
      "biente": 9008,
      "briÃ³": 9009,
      "bundo": 9010,
      "brÃŃo": 9011,
      "bientes": 9012,
      "bulo": 9013,
      "bale": 9014,
      "buti": 9015,
      "bierta": 9016,
      "brista": 9017,
      "blaciÃ³n": 9018,
      "cam": 9019,
      "cÃº": 9020,
      "ctas": 9021,
      "cora": 9022,
      "cmo": 9023,
      "cones": 9024,
      "crÃŃ": 9025,
      "camente": 9026,
      "canas": 9027,
      "ctado": 9028,
      "ctin": 9029,
      "caban": 9030,
      "ctico": 9031,
      "cÃŃs": 9032,
      "came": 9033,
      "cÃ¡ndole": 9034,
      "cella": 9035,
      "celos": 9036,
      "cÃ©r": 9037,
      "crada": 9038,
      "ctus": 9039,
      "cky": 9040,
      "dri": 9041,
      "dis": 9042,
[...]
